<pad>	0
<unk>	0
<s>	0
</s>	0
aa	-0
ee	-1
an	-2
oo	-3
▁አ	-4
ii	-5
▁እ	-6
uu	-7
▁h	-8
▁d	-9
▁k	-10
ar	-11
▁b	-12
ti	-13
▁ነ	-14
kk	-15
▁t	-16
in	-17
▁በ	-18
am	-19
▁g	-20
▁የ	-21
aan	-22
ir	-23
at	-24
▁n	-25
al	-26
▁j	-27
dh	-28
ab	-29
▁q	-30
is	-31
▁a	-32
▁hin	-33
ch	-34
▁s	-35
▁መ	-36
▁ይ	-37
▁m	-38
ur	-39
▁እን	-40
▁dh	-41
ees	-42
da	-43
▁ነው	-44
eess	-45
aal	-46
▁T	-47
▁qab	-48
un	-49
ም።	-50
tti	-51
een	-52
oom	-53
▁akk	-54
▁A	-55
ለሁ	-56
▁w	-57
ana	-58
ቶም	-59
▁jir	-60
▁Toom	-61
▁bar	-62
▁f	-63
▁ያ	-64
▁is	-65
▁ለ	-66
▁ማ	-67
ra	-68
ni	-69
▁ቶም	-70
aat	-71
atti	-72
▁ከ	-73
ል።	-74
chuu	-75
▁akka	-76
▁tur	-77
▁M	-78
▁ነው።	-79
▁y	-80
baa	-81
▁ተ	-82
▁to	-83
iin	-84
▁K	-85
ምን	-86
ለሁ።	-87
um	-88
yy	-89
▁ስ	-90
il	-91
▁ወ	-92
▁ብ	-93
er	-94
dha	-95
▁dan	-96
▁S	-97
▁ta	-98
aar	-99
▁H	-100
▁keess	-101
▁ነበ	-102
▁koo	-103
▁ት	-104
▁barbaa	-105
aaf	-106
▁አይ	-107
▁tokk	-108
▁እንደ	-109
dd	-110
ama	-111
itti	-112
eroo	-113
▁አል	-114
▁D	-115
▁ture	-116
▁B	-117
▁ሰ	-118
irr	-119
▁I	-120
ፈል	-121
▁አለ	-122
▁ይህ	-123
arg	-124
▁tokko	-125
ag	-126
▁W	-127
▁ው	-128
▁ነበር	-129
bb	-130
ta	-131
▁baa	-132
ma	-133
▁Y	-134
eek	-135
▁dee	-136
ገር	-137
akk	-138
▁ho	-139
iif	-140
▁je	-141
▁beek	-142
▁ምን	-143
▁go	-144
jj	-145
▁ሁ	-146
▁ላ	-147
▁qaba	-148
▁c	-149
ዚህ	-150
uun	-151
▁ል	-152
▁G	-153
▁danda	-154
sa	-155
it	-156
ne	-157
ጣም	-158
eeny	-159
ኝ።	-160
▁በጣም	-161
ጊዜ	-162
▁isaa	-163
▁arg	-164
▁nan	-165
▁kana	-166
eera	-167
oon	-168
ውን	-169
▁ነበር።	-170
▁አን	-171
▁irr	-172
▁N	-173
▁o	-174
uf	-175
▁ላይ	-176
▁jira	-177
▁wal	-178
▁አስ	-179
▁yaa	-180
uuf	-181
maa	-182
▁ጥ	-183
tu	-184
te	-185
▁ጊዜ	-186
▁hun	-187
saa	-188
la	-189
ስጥ	-190
▁Yeroo	-191
▁ወደ	-192
▁ደ	-193
▁waan	-194
▁ውስጥ	-195
▁du	-196
▁natti	-197
▁ቀ	-198
▁ነገር	-199
or	-200
▁ni	-201
▁baay	-202
achuu	-203
▁gar	-204
ችን	-205
▁kan	-206
▁na	-207
im	-208
on	-209
ph	-210
ll	-211
ፈልጋ	-212
▁jedh	-213
▁kun	-214
eer	-215
▁የሚ	-216
taa	-217
jje	-218
ነት	-219
▁dand	-220
▁kee	-221
ችላ	-222
መስ	-223
adh	-224
ለህ	-225
▁gu	-226
▁hojje	-227
▁ም	-228
ድረ	-229
ug	-230
ff	-231
▁Dh	-232
iis	-233
▁deem	-234
ol	-235
▁l	-236
▁fakk	-237
▁አይደ	-238
ው።	-239
ት።	-240
▁ገ	-241
▁ይህን	-242
▁yeroo	-243
aata	-244
ሁን	-245
ann	-246
▁እና	-247
▁ቤ	-248
▁እየ	-249
▁አላ	-250
of	-251
▁Akk	-252
▁maal	-253
▁irratti	-254
▁am	-255
iq	-256
▁ብዙ	-257
en	-258
ን።	-259
ad	-260
▁keessa	-261
▁sana	-262
ደር	-263
▁dubb	-264
▁F	-265
▁jiru	-266
tii	-267
▁ለመ	-268
ሆን	-269
▁Waan	-270
▁x	-271
ሆነ	-272
ala	-273
yaa	-274
daa	-275
▁ጠ	-276
▁gaar	-277
▁ሁሉ	-278
▁የተ	-279
ች።	-280
▁qabu	-281
ww	-282
▁akkas	-283
raa	-284
▁jaal	-285
all	-286
ዎች	-287
▁si	-288
eessa	-289
ድረግ	-290
▁itti	-291
na	-292
▁ታ	-293
ata	-294
ችል	-295
tee	-296
anaa	-297
▁O	-298
ddaa	-299
▁እንዳ	-300
▁ግ	-301
▁ጋ	-302
▁Maal	-303
▁i	-304
▁barbaada	-305
▁gaarii	-306
uma	-307
▁gochuu	-308
oota	-309
▁mi	-310
▁Ani	-311
▁nama	-312
chis	-313
aalaa	-314
hee	-315
▁ባ	-316
▁አለብ	-317
▁የም	-318
ለው	-319
▁dhag	-320
▁ማን	-321
▁ፈ	-322
▁hunda	-323
▁dha	-324
eenya	-325
▁ሰው	-326
▁ለማ	-327
du	-328
▁አንድ	-329
▁qof	-330
▁ጋር	-331
▁il	-332
▁ስለ	-333
ንድ	-334
▁አሁን	-335
▁Nam	-336
di	-337
chaa	-338
ate	-339
ሄድ	-340
yyee	-341
▁haa	-342
▁dhuf	-343
▁እፈልጋ	-344
▁J	-345
ga	-346
ውቅ	-347
▁yaada	-348
▁ጥሩ	-349
▁ምንም	-350
▁Am	-351
▁In	-352
▁ማድረግ	-353
▁boo	-354
▁fi	-355
▁ያን	-356
ውቃ	-357
amma	-358
▁Is	-359
▁ishee	-360
▁gara	-361
▁r	-362
oonni	-363
ስተ	-364
ba	-365
▁በእ	-366
▁jedheen	-367
▁Q	-368
▁ቤት	-369
▁ሊ	-370
ኝም።	-371
▁ken	-372
▁waliin	-373
▁ብቻ	-374
yyaa	-375
▁beeku	-376
ኛል።	-377
tuu	-378
▁ይመስ	-379
anii	-380
▁miti	-381
▁isa	-382
▁ክ	-383
jii	-384
▁barbaachis	-385
▁ha	-386
ቸው	-387
ame	-388
▁እኔ	-389
aataa	-390
▁mana	-391
og	-392
▁naaf	-393
▁ee	-394
▁የለ	-395
ርያ	-396
▁akkan	-397
alaa	-398
▁deeb	-399
amaa	-400
▁እዚህ	-401
▁በአ	-402
▁sun	-403
▁አይደለ	-404
ስት	-405
▁gal	-406
▁Kun	-407
ah	-408
▁እር	-409
በት	-410
▁keessatti	-411
▁him	-412
aatii	-413
ህን	-414
alee	-415
▁dur	-416
▁gaaf	-417
▁ስራ	-418
▁irraa	-419
▁dhug	-420
▁Sun	-421
as	-422
▁keessan	-423
atu	-424
ሳይ	-425
▁Kana	-426
▁qofa	-427
if	-428
qa	-429
aas	-430
▁eeg	-431
ul	-432
▁እሱ	-433
▁ና	-434
▁fu	-435
▁ለምን	-436
dhu	-437
re	-438
▁ዛ	-439
ub	-440
kol	-441
ዴት	-442
▁dandeess	-443
▁ያንን	-444
▁of	-445
ደረ	-446
▁booda	-447
ark	-448
faan	-449
ፈልግ	-450
ንት	-451
▁guddaa	-452
ገና	-453
▁as	-454
▁fakkaata	-455
ነበ	-456
ዚያ	-457
ars	-458
▁ያለ	-459
▁ከእ	-460
iqq	-461
▁የእ	-462
▁baayyee	-463
▁ይችላ	-464
▁እንዴት	-465
▁dhi	-466
▁ra	-467
▁እንዲ	-468
onkol	-469
▁Ho	-470
iyy	-471
▁mur	-472
ቅር	-473
ቱን	-474
ሁ።	-475
ወዳ	-476
ሰራ	-477
ግር	-478
llee	-479
ለት	-480
▁ካ	-481
▁መን	-482
▁Mee	-483
itaa	-484
▁አት	-485
▁የማ	-486
▁ilaal	-487
▁keessaa	-488
argaar	-489
ummaa	-490
▁beeka	-491
የት	-492
▁ነገ	-493
▁የት	-494
▁R	-495
ህል	-496
▁ድ	-497
ri	-498
ችልም።	-499
ገባ	-500
duu	-501
umaa	-502
▁bil	-503
aadha	-504
de	-505
▁በመ	-506
▁ዛሬ	-507
oph	-508
▁so	-509
▁keenya	-510
ራት	-511
▁caalaa	-512
irra	-513
▁እንድ	-514
ረን	-515
ool	-516
ርያም	-517
▁እያ	-518
▁Dhug	-519
▁እንደሚ	-520
▁ሁሉም	-521
▁ቦ	-522
cha	-523
▁ab	-524
ara	-525
ሰማ	-526
ሉ።	-527
anti	-528
መለ	-529
▁bir	-530
▁ትን	-531
▁gamma	-532
▁L	-533
chi	-534
nu	-535
▁jaall	-536
▁ብዬ	-537
▁fakkaat	-538
▁in	-539
▁መስ	-540
kan	-541
▁የመ	-542
▁ሳ	-543
gaa	-544
▁jiraa	-545
ፊት	-546
ለች።	-547
▁isaan	-548
aay	-549
▁an	-550
▁ኣ	-551
▁Namni	-552
▁ny	-553
ተኛ	-554
▁ጉ	-555
▁nam	-556
▁nu	-557
▁dar	-558
dda	-559
▁qabna	-560
qab	-561
ችሁ	-562
▁እስ	-563
▁ku	-564
ውቅም።	-565
ሪያ	-566
▁እባ	-567
▁sa	-568
▁እፈልጋለሁ።	-569
▁ፍ	-570
▁ያህል	-571
▁qabda	-572
▁ዘ	-573
▁ዝ	-574
ኋላ	-575
ድር	-576
▁ቆ	-577
ህ።	-578
▁ትንሽ	-579
▁xiqq	-580
▁ሀ	-581
alqab	-582
ላል	-583
ትን	-584
tiin	-585
▁አያ	-586
▁dab	-587
eerii	-588
ስዎ	-589
▁ka	-590
▁guu	-591
bil	-592
▁E	-593
▁Amma	-594
amu	-595
▁ች	-596
▁ji	-597
▁irra	-598
soo	-599
▁ሞ	-600
ኩ።	-601
▁ነኝ።	-602
▁Meerii	-603
▁p	-604
ayy	-605
▁ያስ	-606
▁dhaga	-607
eeff	-608
▁gargaar	-609
iyaa	-610
▁isin	-611
eef	-612
ምህ	-613
▁ግን	-614
ኪና	-615
▁dhiis	-616
ንዘ	-617
ጣት	-618
aala	-619
ናል።	-620
yyaan	-621
ataa	-622
▁jalqab	-623
▁dandeeny	-624
om	-625
▁ሌ	-626
▁waa	-627
dduu	-628
ለን።	-629
ቸው።	-630
▁የአ	-631
▁Far	-632
▁barbaadu	-633
tan	-634
ጓደ	-635
▁ህ	-636
▁ሙ	-637
▁sirr	-638
ርት	-639
ጀመ	-640
▁ሲ	-641
annoo	-642
qaa	-643
▁በኋላ	-644
▁Akka	-645
መጣ	-646
▁aman	-647
ባት	-648
▁Maaliif	-649
iir	-650
ukk	-651
▁ክፍ	-652
▁akkam	-653
▁"	-654
akka	-655
▁በዚህ	-656
▁መጠ	-657
▁እንደሆነ	-658
▁deebi	-659
▁C	-660
▁taph	-661
dhe	-662
ገረ	-663
▁jaalla	-664
▁siif	-665
anga	-666
▁ገንዘ	-667
si	-668
ንም	-669
ansaa	-670
▁manaa	-671
ፈልገ	-672
▁ቁ	-673
ለኛል።	-674
▁dhaa	-675
ansaay	-676
▁Faransaay	-677
▁Har	-678
heen	-679
▁ti	-680
▁Ati	-681
ሰብ	-682
▁ን	-683
ረንሳይ	-684
▁darb	-685
▁ቢ	-686
uff	-687
▁አውቃ	-688
▁mii	-689
oof	-690
onkolaataa	-691
dii	-692
umur	-693
ዋል።	-694
▁turre	-695
▁mu	-696
▁hundi	-697
▁Gu	-698
▁መፅ	-699
anne	-700
sii	-701
atte	-702
ቶች	-703
▁ani	-704
araa	-705
▁አይደለም።	-706
aaraa	-707
▁sh	-708
es	-709
▁አልችልም።	-710
▁ati	-711
▁nyaa	-712
▁Toomii	-713
ማሪ	-714
joo	-715
ናገር	-716
▁aj	-717
dhaa	-718
▁rakk	-719
ገድ	-720
▁ጓደ	-721
▁sad	-722
allee	-723
ogg	-724
ረዳ	-725
ክል	-726
ዋል	-727
▁barbaachisa	-728
ubb	-729
▁ከአ	-730
▁bilbil	-731
▁ሰዎች	-732
▁isaanii	-733
amuu	-734
ኘት	-735
ነበረ	-736
kaa	-737
▁garuu	-738
▁ይህንን	-739
▁hund	-740
▁hark	-741
ill	-742
▁ነበረ	-743
▁እፈልጋለሁ	-744
▁ማርያም	-745
ዬን	-746
▁Waa	-747
▁ይመስለኛል።	-748
▁የሚያ	-749
▁እነ	-750
ናል	-751
▁እንዳለ	-752
af	-753
▁Wanti	-754
ጨረ	-755
ላል።	-756
naa	-757
▁የበ	-758
ወት	-759
eet	-760
▁ለእ	-761
chuun	-762
ፈለ	-763
▁dhab	-764
▁እንደም	-765
▁Afaan	-766
▁ተስ	-767
▁አውቃለሁ።	-768
arr	-769
ደርጋ	-770
ረንሳይኛ	-771
amm	-772
dhaan	-773
ንተ	-774
ውነት	-775
▁መኪና	-776
ልቅ	-777
▁እችላ	-778
▁turte	-779
▁qor	-780
▁አላውቅም።	-781
▁sitti	-782
▁አው	-783
ታው	-784
ዎት	-785
ዎን	-786
▁በፊት	-787
▁መሆን	-788
▁ማንም	-789
▁Hun	-790
▁Dhuguma	-791
▁መሄድ	-792
baan	-793
▁barr	-794
nis	-795
alkan	-796
▁P	-797
▁አሉ	-798
aree	-799
▁dheer	-800
▁fudha	-801
▁mee	-802
ogogg	-803
▁ገንዘብ	-804
ላት	-805
▁መፅሀ	-806
▁የሆነ	-807
ገኘ	-808
▁መል	-809
▁jet	-810
▁biraa	-811
▁fudh	-812
ዎችን	-813
att	-814
▁hojii	-815
fii	-816
▁mir	-817
▁goo	-818
▁Hojii	-819
ru	-820
መት	-821
▁tola	-822
▁wa	-823
▁Faransaayii	-824
▁ba	-825
▁dandeessu	-826
ሮች	-827
arraa	-828
achaa	-829
amaan	-830
▁Inni	-831
▁Maar	-832
▁ልጅ	-833
▁he	-834
▁ትና	-835
▁Isheen	-836
▁sirrii	-837
▁ከመ	-838
▁deema	-839
▁አስተ	-840
▁ረ	-841
▁X	-842
▁ይፈልጋ	-843
oob	-844
ኩም።	-845
▁አንዳ	-846
ላይ	-847
▁Sana	-848
chuuf	-849
adhu	-850
iy	-851
ish	-852
▁yoo	-853
በላ	-854
▁እባክ	-855
iyaam	-856
▁ol	-857
▁san	-858
ቷል።	-859
▁bi	-860
▁Maariyaam	-861
ina	-862
oor	-863
ወቅ	-864
mii	-865
▁ቦታ	-866
▁አሳ	-867
▁እድ	-868
ምህርት	-869
▁ተስፋ	-870
▁ጨ	-871
ፈልግም።	-872
bbol	-873
▁Kitaa	-874
▁ቃ	-875
▁kaa	-876
kii	-877
▁dura	-878
pp	-879
▁ajaa	-880
adha	-881
ታል	-882
ቻለሁ።	-883
▁ባለ	-884
inaa	-885
▁የምት	-886
adhe	-887
ኛው	-888
▁fakkaatu	-889
suu	-890
▁በማ	-891
▁hir	-892
▁yaal	-893
▁malee	-894
ora	-895
itii	-896
▁ፈረንሳይኛ	-897
ድን	-898
mallee	-899
ደርግ	-900
▁uff	-901
alph	-902
ሶስት	-903
st	-904
▁eeny	-905
▁ሌላ	-906
ደው	-907
▁አልነበረ	-908
▁xumur	-909
yyaana	-910
▁ሆ	-911
▁Akkam	-912
▁Yeroon	-913
▁ሰኣ	-914
▁As	-915
▁አደ	-916
▁qabaa	-917
ያው	-918
▁tokkollee	-919
ለን	-920
▁ga	-921
ophaa	-922
▁ib	-923
▁ጉዳ	-924
▁seen	-925
▁gah	-926
▁U	-927
▁ጎ	-928
ሩን	-929
▁bu	-930
▁ትናንት	-931
▁ናቸው።	-932
▁hi	-933
▁እየተ	-934
ግጠ	-935
ዋለሁ።	-936
▁ትችላ	-937
▁qabdu	-938
▁kanaa	-939
."	-940
ግብ	-941
▁አስባ	-942
laqa	-943
▁Kan	-944
▁Guyyaa	-945
ሃል	-946
▁ሁል	-947
▁kenn	-948
▁አሁንም	-949
aatiin	-950
eessuu	-951
arra	-952
▁ችግር	-953
ኛል	-954
jiin	-955
▁gad	-956
umsaa	-957
isa	-958
መን	-959
▁jirra	-960
▁ሁኔ	-961
▁እወዳ	-962
achuuf	-963
▁ኮ	-964
▁Akkas	-965
ቀም	-966
▁ቅ	-967
▁barbaadd	-968
ፍት	-969
ታት	-970
attu	-971
achuun	-972
▁salph	-973
▁bo	-974
anni	-975
iisa	-976
▁afaan	-977
ኩት።	-978
▁ቀን	-979
▁አይደለም	-980
▁bita	-981
▁Isaan	-982
▁guyyaa	-983
ite	-984
▁Ku	-985
▁አለኝ።	-986
ታል።	-987
▁ከዚህ	-988
ቀጥ	-989
▁አልተ	-990
▁በፍ	-991
amee	-992
▁fayy	-993
ወድ	-994
ለጠ	-995
▁amma	-996
aniiru	-997
▁ልጆ	-998
aasa	-999
▁አንዳንድ	-1000
▁dandeenye	-1001
ok	-1002
▁sadii	-1003
▁waanan	-1004
▁wajj	-1005
▁wajjin	-1006
ሳብ	-1007
ረው	-1008
ወስ	-1009
▁እችላለሁ	-1010
መል	-1011
▁gur	-1012
ተት	-1013
▁Halkan	-1014
▁Wal	-1015
▁አልቻ	-1016
ib	-1017
ማር	-1018
aggaa	-1019
▁daa	-1020
▁ምክ	-1021
ishaan	-1022
▁ዋ	-1023
▁ወይ	-1024
▁አድር	-1025
▁dubbis	-1026
▁ጣ	-1027
ጠብ	-1028
ርስዎ	-1029
ከር	-1030
▁አብ	-1031
ኑን	-1032
▁በተ	-1033
▁ተና	-1034
▁Yaa	-1035
▁በላይ	-1036
▁xiqqoo	-1037
▁dandeessaa	-1038
▁እንደማ	-1039
▁eessa	-1040
▁th	-1041
ጨረሻ	-1042
ቤት	-1043
se	-1044
▁ከባ	-1045
aam	-1046
ክክል	-1047
▁hojjet	-1048
▁ሄ	-1049
▁አይነት	-1050
▁jirta	-1051
ነው	-1052
▁barumsaa	-1053
aleessa	-1054
ቀመ	-1055
aate	-1056
▁ሁኔታ	-1057
▁የለኝም።	-1058
icha	-1059
▁haaraa	-1060
▁በት	-1061
iifama	-1062
▁hub	-1063
▁መንገድ	-1064
ull	-1065
eessaa	-1066
▁Yoo	-1067
የቀ	-1068
በቅ	-1069
eesse	-1070
▁Nama	-1071
▁ራ	-1072
ban	-1073
▁አዲ	-1074
▁kam	-1075
aq	-1076
ለም	-1077
ኖር	-1078
siis	-1079
fa	-1080
ለህ።	-1081
attee	-1082
jjiir	-1083
▁መፅሀፍ	-1084
▁Bor	-1085
▁dhii	-1086
uk	-1087
▁guutuu	-1088
ቹን	-1089
▁ሙሉ	-1090
▁አይደል	-1091
▁Baa	-1092
▁ናቸው	-1093
agg	-1094
▁ቶምን	-1095
ስተኛ	-1096
aba	-1097
▁inni	-1098
▁yaad	-1099
▁እርግጠ	-1100
▁ይመስላል።	-1101
▁የበለጠ	-1102
ናት	-1103
▁አይመስ	-1104
ሄዳ	-1105
▁አለብኝ።	-1106
▁konkolaataa	-1107
▁Si	-1108
▁dhukk	-1109
▁Sa	-1110
▁መጥ	-1111
ሳት	-1112
ያቄ	-1113
▁Mana	-1114
▁jaalladha	-1115
▁እንድት	-1116
▁በሚ	-1117
▁ጓደኛ	-1118
▁እርግጠኛ	-1119
ብኝ	-1120
▁Namoonni	-1121
▁lama	-1122
aatti	-1123
▁አስባለሁ።	-1124
▁አለ።	-1125
▁gadi	-1126
▁ትልቅ	-1127
▁dhagah	-1128
ንያ	-1129
▁haasa	-1130
adhab	-1131
▁roob	-1132
kumaa	-1133
aane	-1134
▁barbaan	-1135
▁አንተ	-1136
▁dogogg	-1137
▁እወዳለሁ።	-1138
ውነ	-1139
ድረስ	-1140
▁fe	-1141
▁haww	-1142
illeen	-1143
▁አባ	-1144
▁hanga	-1145
▁ይሆ	-1146
▁gudd	-1147
▁መቼ	-1148
anama	-1149
aann	-1150
▁አልፈልግም።	-1151
▁kaff	-1152
ሱን	-1153
▁bal	-1154
▁Rakk	-1155
▁eenyu	-1156
▁fayyad	-1157
መር	-1158
iil	-1159
▁እንደገና	-1160
▁sir	-1161
amb	-1162
ine	-1163
▁ፖ	-1164
ja	-1165
ንብ	-1166
▁ከባድ	-1167
▁ጥያቄ	-1168
▁ማታ	-1169
▁jedhee	-1170
ሴት	-1171
ንግ	-1172
ከተ	-1173
▁እሷ	-1174
aatu	-1175
▁ደስተኛ	-1176
le	-1177
▁ሰኣት	-1178
▁mitii	-1179
▁namni	-1180
▁maaliif	-1181
▁ሃ	-1182
▁asitti	-1183
ዳት	-1184
yoo	-1185
ግኘት	-1186
▁fuu	-1187
ወጣ	-1188
▁haf	-1189
▁osoo	-1190
ስታ	-1191
ኩት	-1192
▁Innis	-1193
▁ታውቃ	-1194
▁yeroon	-1195
ረ።	-1196
▁er	-1197
isaa	-1198
amne	-1199
▁kenni	-1200
▁ለአ	-1201
▁ትምህርት	-1202
ጀመሪያ	-1203
ስተን	-1204
▁መብ	-1205
▁እንግ	-1206
▁ሁሉንም	-1207
▁ከተ	-1208
▁Ijoo	-1209
▁ክፍል	-1210
▁Sh	-1211
ilaa	-1212
dheera	-1213
ነጋ	-1214
▁Hundi	-1215
ደረግ	-1216
▁ነች።	-1217
atee	-1218
diin	-1219
▁ስንት	-1220
▁dabars	-1221
▁cuf	-1222
cc	-1223
▁bakka	-1224
ቀድ	-1225
▁አታ	-1226
wwan	-1227
▁gon	-1228
ፈው	-1229
▁meeqa	-1230
▁dadhab	-1231
▁turan	-1232
▁yaadd	-1233
▁dheeraa	-1234
▁Akkamitti	-1235
ርስ	-1236
faa	-1237
▁አይደለሁ	-1238
▁ቡ	-1239
▁ጀ	-1240
ደርገ	-1241
▁Hir	-1242
▁gonkumaa	-1243
iig	-1244
▁ውሻ	-1245
▁አደርጋ	-1246
▁barbaachisu	-1247
▁ስሜ	-1248
malee	-1249
▁homaa	-1250
▁dhugaa	-1251
▁raa	-1252
▁አየ	-1253
▁ammaa	-1254
eny	-1255
▁jijjiir	-1256
▁Osoo	-1257
▁ምግብ	-1258
▁hamaa	-1259
ምንት	-1260
▁murt	-1261
▁waggaa	-1262
▁Eeny	-1263
▁ለማድረግ	-1264
us	-1265
ኞች	-1266
▁jirti	-1267
▁hojjechuu	-1268
ጠይ	-1269
▁dag	-1270
ota	-1271
▁ማየት	-1272
ወሰ	-1273
▁ወን	-1274
ርያምን	-1275
▁e	-1276
▁ማለት	-1277
ደረገ	-1278
ጥነት	-1279
▁1	-1280
▁አም	-1281
agaa	-1282
arii	-1283
▁maali	-1284
▁ይችላሉ	-1285
ልክ	-1286
▁baree	-1287
bba	-1288
▁እነዚህ	-1289
▁muraasa	-1290
▁achi	-1291
ጅም	-1292
ulq	-1293
▁አስፈ	-1294
▁dabal	-1295
▁hedduu	-1296
li	-1297
▁ci	-1298
▁Na	-1299
▁adda	-1300
ሩ።	-1301
ቴን	-1302
ቂት	-1303
▁ul	-1304
ulqull	-1305
bu	-1306
▁ይፈልጋሉ	-1307
arri	-1308
▁yaade	-1309
▁kutaa	-1310
eettii	-1311
▁ፀ	-1312
▁ይቅር	-1313
bbaan	-1314
▁kaffal	-1315
ant	-1316
▁ሁለ	-1317
ሃለሁ።	-1318
▁ar	-1319
▁ደረ	-1320
▁ልት	-1321
▁ስህ	-1322
▁guut	-1323
ateera	-1324
▁Bo	-1325
▁ሁለት	-1326
ብስ	-1327
nee	-1328
▁Nu	-1329
▁taane	-1330
መለስ	-1331
▁Hanga	-1332
▁አይደለሁም።	-1333
መሰ	-1334
▁አስደ	-1335
▁ayyaana	-1336
ችው።	-1337
▁Boru	-1338
adheera	-1339
▁ይሰማ	-1340
iyyuu	-1341
ልፍ	-1342
▁Dee	-1343
▁ይችላል።	-1344
▁ገና	-1345
ka	-1346
▁suu	-1347
ገኛ	-1348
aara	-1349
▁Qor	-1350
ሃል።	-1351
▁በጥ	-1352
irri	-1353
▁ይወዳ	-1354
▁sanatti	-1355
▁akkamitti	-1356
▁Obbol	-1357
▁kootti	-1358
▁ma	-1359
maan	-1360
▁የቶም	-1361
▁ትችላለህ	-1362
ንጆ	-1363
▁በደ	-1364
▁ዶ	-1365
ንም።	-1366
▁ዳ	-1367
atan	-1368
▁deemuu	-1369
ተር	-1370
▁ተጨ	-1371
soon	-1372
▁Bal	-1373
▁duu	-1374
▁ይችላል	-1375
ቀው	-1376
▁Boo	-1377
▁እውነት	-1378
▁darbe	-1379
▁በቀ	-1380
▁Jaa	-1381
▁አዲስ	-1382
▁dhih	-1383
▁gochuuf	-1384
ሁት።	-1385
▁gochuun	-1386
▁mud	-1387
▁የለም።	-1388
▁Maallaqa	-1389
▁dubbachuu	-1390
▁እንደዚህ	-1391
chiis	-1392
▁ያለው	-1393
▁ድረስ	-1394
▁Kitaab	-1395
▁ምክንያ	-1396
ጣ።	-1397
▁ማወቅ	-1398
ቷል	-1399
▁መግ	-1400
ston	-1401
▁ሀሳብ	-1402
▁እስካ	-1403
▁Gaaf	-1404
annaa	-1405
uuz	-1406
ttaa	-1407
▁fil	-1408
▁kooti	-1409
▁kanaan	-1410
▁barbaade	-1411
▁ቆንጆ	-1412
▁እዚያ	-1413
areen	-1414
▁ሁላ	-1415
ብሰ	-1416
dhii	-1417
▁ቃል	-1418
▁godhu	-1419
▁kitaa	-1420
▁qulqull	-1421
ጫወት	-1422
▁tokkon	-1423
ichi	-1424
▁taa	-1425
▁wanti	-1426
▁jechuu	-1427
▁ጉዳይ	-1428
▁እባክህ	-1429
▁ፊ	-1430
▁አደርጋለሁ።	-1431
▁መው	-1432
▁tor	-1433
▁sodaa	-1434
▁ብሎ	-1435
▁ማርያምን	-1436
በር	-1437
ፈራ	-1438
▁ከእኔ	-1439
aroo	-1440
▁Manni	-1441
▁deemuun	-1442
▁ሶስት	-1443
▁ያውቃ	-1444
▁አለብኝ	-1445
ካከ	-1446
▁mas	-1447
ርሳ	-1448
በል	-1449
gars	-1450
▁ታውቃለህ	-1451
▁liq	-1452
▁ool	-1453
▁tol	-1454
▁እርስዎ	-1455
▁Bakka	-1456
ችሉ	-1457
tin	-1458
▁አለብን።	-1459
bur	-1460
▁qabne	-1461
ስራ	-1462
ሻለ	-1463
▁daf	-1464
▁ቀላል	-1465
▁dhuguma	-1466
ናብ	-1467
▁ከማ	-1468
▁Abbaan	-1469
ቆም	-1470
see	-1471
▁የማይ	-1472
ደብ	-1473
ገራ	-1474
ፓር	-1475
ችንም	-1476
▁ነህ።	-1477
aanaa	-1478
▁ጫ	-1479
▁መጥፎ	-1480
ረት	-1481
ing	-1482
▁dhufu	-1483
▁የእኔ	-1484
▁Gara	-1485
▁አደጋ	-1486
▁እስከ	-1487
▁bishaan	-1488
▁dhagahama	-1489
ረጋ	-1490
ያለሁ።	-1491
▁add	-1492
▁sanaa	-1493
▁Kaleessa	-1494
▁barbaaddaa	-1495
▁ትፈልጋ	-1496
▁qilleen	-1497
ሎች	-1498
ይወት	-1499
▁bah	-1500
▁ወንድ	-1501
▁ቤተ	-1502
▁እስካሁን	-1503
▁arguu	-1504
▁Konkolaataa	-1505
▁mar	-1506
▁harka	-1507
ነሳ	-1508
▁al	-1509
isii	-1510
eetii	-1511
ሞክ	-1512
atta	-1513
▁በእውነት	-1514
▁akkasii	-1515
▁ሻ	-1516
▁Ab	-1517
▁ኣይ	-1518
▁ይቅርታ	-1519
aannoo	-1520
▁dandeessa	-1521
▁Ammas	-1522
▁deemu	-1523
▁Silaa	-1524
ut	-1525
▁የለው	-1526
▁yoom	-1527
▁Ammallee	-1528
00	-1529
በብ	-1530
▁ምር	-1531
▁የምን	-1532
▁Asitti	-1533
ዘጋ	-1534
uux	-1535
ameera	-1536
ዋት	-1537
ገኝ	-1538
▁Dur	-1539
▁fuf	-1540
ang	-1541
▁dhiisuu	-1542
qon	-1543
ዛት	-1544
yyuu	-1545
▁agars	-1546
ቢያ	-1547
በት።	-1548
ppaan	-1549
ፁም	-1550
ለኛ	-1551
▁በቂ	-1552
agalee	-1553
▁dhufe	-1554
▁masq	-1555
▁Isheenis	-1556
ላጆ	-1557
ላጊ	-1558
▁እውነ	-1559
▁arge	-1560
▁hime	-1561
ናለሁ።	-1562
▁raf	-1563
▁ሁልጊዜ	-1564
ጃፓ	-1565
▁በእር	-1566
▁Jaappaan	-1567
ማማ	-1568
▁መር	-1569
▁እመ	-1570
ኛለሁ።	-1571
▁saree	-1572
አት	-1573
ያን	-1574
▁masqalaa	-1575
ተው	-1576
atii	-1577
ለኝም።	-1578
▁አልነበረም።	-1579
ውቅም	-1580
▁አገኘ	-1581
ገዛ	-1582
kanaa	-1583
▁kaas	-1584
▁dhukkub	-1585
hii	-1586
▁ከፍ	-1587
tanii	-1588
▁አለብህ።	-1589
ነግ	-1590
▁አግ	-1591
▁fur	-1592
▁ruk	-1593
ልህ	-1594
ረዶ	-1595
▁bit	-1596
▁goww	-1597
▁ሚ	-1598
▁deeme	-1599
▁mirkanaa	-1600
ንቀ	-1601
ዳታ	-1602
▁ተጠ	-1603
ነጋገር	-1604
▁ሊሆን	-1605
▁ስሜት	-1606
▁ሽ	-1607
▁aar	-1608
▁ijoo	-1609
imma	-1610
ህና	-1611
ዶች	-1612
ቸውን	-1613
ቀጥለው	-1614
▁ስህተት	-1615
ምር	-1616
▁gaa	-1617
▁hojjechaa	-1618
▁አስፈላጊ	-1619
▁qa	-1620
▁አጥ	-1621
▁ደብ	-1622
kaan	-1623
dur	-1624
ffaa	-1625
የቅ	-1626
▁ያል	-1627
▁abdiin	-1628
▁nyaata	-1629
eesh	-1630
abaa	-1631
annu	-1632
▁cab	-1633
▁hayy	-1634
▁barbaanne	-1635
ሳች	-1636
eessi	-1637
▁Baay	-1638
▁ነገሮች	-1639
anna	-1640
ናልባት	-1641
▁hundumaa	-1642
ደ።	-1643
▁ምናልባት	-1644
▁Ny	-1645
▁ነኝ	-1646
▁Mii	-1647
▁አለህ	-1648
▁እኛ	-1649
▁beekuu	-1650
▁beektaa	-1651
onni	-1652
▁ሴት	-1653
▁አያስ	-1654
▁በል	-1655
▁በቅር	-1656
▁dhal	-1657
ንቅ	-1658
▁ነህ	-1659
lmaa	-1660
▁ulf	-1661
▁Hin	-1662
▁Suu	-1663
▁tilmaa	-1664
▁አይመስለኝም።	-1665
▁godh	-1666
▁Ijooll	-1667
▁im	-1668
aataan	-1669
▁dhiyoo	-1670
akkaa	-1671
▁በትክክል	-1672
▁ilaalaa	-1673
oot	-1674
▁ነን።	-1675
▁raaww	-1676
aqii	-1677
isuu	-1678
▁dhaq	-1679
▁jaalladhu	-1680
▁godhe	-1681
▁ውሃ	-1682
▁aan	-1683
▁hii	-1684
▁nuuf	-1685
aqiiqaa	-1686
ቂቃ	-1687
መሰግ	-1688
▁እቅ	-1689
▁አለው።	-1690
▁jedhe	-1691
ሜሪ	-1692
ብህ	-1693
ili	-1694
ናገረ	-1695
ጎት	-1696
▁ልጆች	-1697
▁እንዳል	-1698
▁jechuun	-1699
bala	-1700
▁Jir	-1701
ootaa	-1702
▁jirtu	-1703
▁ammallee	-1704
▁ኩ	-1705
▁di	-1706
▁Bar	-1707
▁qabdi	-1708
itee	-1709
▁mag	-1710
▁Dhiifama	-1711
▁jiraachuu	-1712
የር	-1713
▁la	-1714
▁ማስ	-1715
▁the	-1716
▁Yaada	-1717
▁እንደምት	-1718
ለች	-1719
ደም	-1720
▁ምንድን	-1721
▁Kutaa	-1722
ከት	-1723
▁balaa	-1724
▁galat	-1725
ጃፓን	-1726
▁እንዲህ	-1727
▁እጠ	-1728
▁har	-1729
▁ማግኘት	-1730
▁አልቻል	-1731
▁ትፈልጋለህ	-1732
ችንን	-1733
▁eegg	-1734
▁dhaab	-1735
ረጴ	-1736
ረጴዛ	-1737
▁qabnu	-1738
▁ሳይ	-1739
▁caal	-1740
▁Konkol	-1741
ሯል።	-1742
▁አጠ	-1743
ቀት	-1744
ወድም።	-1745
▁fag	-1746
ሰበ	-1747
▁ታሪ	-1748
▁ጠን	-1749
chiisa	-1750
▁tokkotti	-1751
▁sirriitti	-1752
▁ውድ	-1753
▁qoo	-1754
▁ሳምንት	-1755
ve	-1756
▁በሙ	-1757
ፈልገው	-1758
▁Haa	-1759
▁ajj	-1760
▁አመት	-1761
▁ደቂቃ	-1762
▁Gargaar	-1763
ምት	-1764
▁ሰጠ	-1765
▁በሰ	-1766
ተናል።	-1767
▁Gal	-1768
▁Ing	-1769
▁dii	-1770
ለፍ	-1771
▁በፍጥነት	-1772
gg	-1773
ሉም	-1774
▁ችግ	-1775
▁ውጭ	-1776
▁cimaa	-1777
▁ገባ	-1778
▁በደንብ	-1779
jif	-1780
▁መቆ	-1781
alli	-1782
ሆኑ	-1783
ጥር	-1784
▁ሰር	-1785
▁ወሰ	-1786
▁ደህና	-1787
▁himuu	-1788
▁ባቡ	-1789
▁ዋጋ	-1790
▁rif	-1791
▁gurg	-1792
▁አስደሳች	-1793
araan	-1794
▁kenne	-1795
▁Rakkoo	-1796
▁ቴ	-1797
▁እንኳ	-1798
▁Ingili	-1799
▁እራ	-1800
▁mil	-1801
▁ተማሪ	-1802
iqqoo	-1803
▁carraa	-1804
xx	-1805
▁gahaa	-1806
▁lamaan	-1807
መድ	-1808
▁ዝናብ	-1809
▁ባለፈው	-1810
▁ሆነ	-1811
▁Tor	-1812
▁መናገር	-1813
iyyoota	-1814
▁Kitaaba	-1815
laa	-1816
▁cim	-1817
▁dhaabb	-1818
▁kanaaf	-1819
▁manaatti	-1820
▁gaariitti	-1821
umsa	-1822
▁ለቶም	-1823
ou	-1824
▁ተናግ	-1825
▁2	-1826
▁ጠዋት	-1827
▁akkamii	-1828
to	-1829
ዳቤ	-1830
ጠበ	-1831
ophee	-1832
▁ደስ	-1833
▁ban	-1834
▁አግኝ	-1835
dhaaf	-1836
geeff	-1837
▁dhaggeeff	-1838
ibaa	-1839
ikaa	-1840
▁hojiin	-1841
▁dogoggora	-1842
zii	-1843
▁eegaa	-1844
▁jedhu	-1845
ከብ	-1846
▁ተመ	-1847
▁gatii	-1848
▁ሆኖ	-1849
iyya	-1850
▁ጥቂት	-1851
aatee	-1852
adhaa	-1853
▁Torban	-1854
▁dandeenyu	-1855
okt	-1856
▁ገዛ	-1857
akki	-1858
ጫወ	-1859
▁መም	-1860
qonnaa	-1861
▁obbol	-1862
▁በሚቀጥለው	-1863
▁argachuu	-1864
▁ፊል	-1865
▁ነበረብ	-1866
▁godha	-1867
▁bad	-1868
▁አለው	-1869
▁salphaa	-1870
ሰጠ	-1871
ወደ	-1872
▁ፍላ	-1873
▁ስለዚህ	-1874
taan	-1875
▁mirkan	-1876
ጡ።	-1877
▁Nuti	-1878
▁gargaaruu	-1879
uba	-1880
ሞከር	-1881
eensa	-1882
oomaa	-1883
▁jirtaa	-1884
▁kophaa	-1885
▁Ijoolleen	-1886
▁ልታ	-1887
▁እንኳን	-1888
eessoo	-1889
▁karaa	-1890
ዱን	-1891
▁ተጨማሪ	-1892
▁Baayyee	-1893
ግጥ	-1894
▁ብር	-1895
▁ቦስተን	-1896
▁garmalee	-1897
▁የቤት	-1898
unyaa	-1899
▁Ji	-1900
▁በሙሉ	-1901
▁የሚያስ	-1902
ኝነት	-1903
▁ኖ	-1904
▁ጭ	-1905
aroor	-1906
iyyaa	-1907
▁qofan	-1908
የቀኑ	-1909
▁Sir	-1910
▁kol	-1911
▁በየቀኑ	-1912
lee	-1913
▁መቀ	-1914
▁በስ	-1915
▁ጨዋ	-1916
▁አባቴ	-1917
▁መስራት	-1918
tir	-1919
▁Mu	-1920
aman	-1921
ሁት	-1922
ቡን	-1923
ayya	-1924
inii	-1925
▁kennuu	-1926
ummaatti	-1927
ለመ	-1928
▁ፎ	-1929
ambal	-1930
▁barbaachisaa	-1931
ተሃል	-1932
▁መስሎ	-1933
▁ወይም	-1934
uudha	-1935
▁እድል	-1936
▁Hark	-1937
▁ganama	-1938
▁Gaaffii	-1939
▁Il	-1940
▁gammad	-1941
▁ቡና	-1942
▁ለእኔ	-1943
▁walii	-1944
▁ሁላችንም	-1945
ጉት	-1946
▁ጀመ	-1947
▁ደብዳቤ	-1948
▁wayya	-1949
ዳን	-1950
ald	-1951
qis	-1952
ኛውን	-1953
▁ሰማ	-1954
▁ስም	-1955
eeraa	-1956
▁dhiq	-1957
▁naannoo	-1958
▁ር	-1959
ካከል	-1960
ዎታል	-1961
▁መዝ	-1962
ታለሁ።	-1963
▁ይገባ	-1964
ሰር	-1965
ቶቡ	-1966
ik	-1967
▁din	-1968
▁አላውቅም	-1969
▁walitti	-1970
ከባ	-1971
ልኝ።	-1972
▁ማው	-1973
▁Dhugaa	-1974
ባው	-1975
▁ፖሊ	-1976
▁Eenyu	-1977
▁fedhii	-1978
▁kamiyyuu	-1979
▁በግ	-1980
▁አበ	-1981
aalee	-1982
▁beektu	-1983
ገብ	-1984
▁af	-1985
▁ከሰ	-1986
ደርገው	-1987
▁barbaaddu	-1988
su	-1989
ፃፍ	-1990
ፈጠ	-1991
▁Yoom	-1992
ስክ	-1993
▁Int	-1994
▁ይሆናል	-1995
ምሮ	-1996
▁ዝግ	-1997
▁xuux	-1998
▁nyaataa	-1999
ከፍ	-2000
uum	-2001
▁ከቶም	-2002
▁bira	-2003
▁nyaachuu	-2004
▁ቀናት	-2005
▁እባካ	-2006
▁በአንድ	-2007
ቀ።	-2008
ችልም	-2009
▁መሆ	-2010
dhan	-2011
▁kuf	-2012
▁ብለው	-2013
▁hirri	-2014
▁ምክንያት	-2015
▁አልቻልኩም።	-2016
ረፍት	-2017
ቀመጥ	-2018
▁ala	-2019
▁አያውቅም።	-2020
▁fiig	-2021
▁ፍላጎት	-2022
▁bilch	-2023
ኖች	-2024
ዎቹ	-2025
ጋሪ	-2026
ጨነ	-2027
itu	-2028
▁እሱን	-2029
▁በቅርቡ	-2030
▁እርዳታ	-2031
▁haala	-2032
ቆይ	-2033
▁ሊያ	-2034
▁ተመል	-2035
aalli	-2036
▁እንደተ	-2037
toonni	-2038
ቶችን	-2039
▁moo	-2040
▁Sareen	-2041
▁isiniif	-2042
ችኋ	-2043
ከሰ	-2044
▁mul	-2045
▁የተሻለ	-2046
▁hojjen	-2047
▁dabalataa	-2048
መታት	-2049
ababa	-2050
▁diimaa	-2051
▁Of	-2052
▁ያስባ	-2053
▁jaallatu	-2054
▁guddaadha	-2055
▁እህ	-2056
▁ወድ	-2057
agal	-2058
ድነው	-2059
▁ob	-2060
▁bee	-2061
▁ረጅም	-2062
▁Karaa	-2063
▁Xiqqoo	-2064
ረኝ	-2065
ንቋ	-2066
bii	-2067
▁Dogogg	-2068
▁harkif	-2069
ot	-2070
▁እንቅ	-2071
isaan	-2072
uufata	-2073
▁injif	-2074
▁እንዳለብኝ	-2075
essa	-2076
▁dhum	-2077
▁ትክክል	-2078
▁እባካችሁ	-2079
▁ወር	-2080
▁ወላጆ	-2081
▁qabduu	-2082
▁hojjetu	-2083
ልኩ	-2084
ሞች	-2085
urx	-2086
▁ሙዚ	-2087
▁ከተማ	-2088
oddaa	-2089
urxum	-2090
▁አይችሉ	-2091
ዝቃ	-2092
isk	-2093
▁Er	-2094
▁በዝ	-2095
ተዋል።	-2096
▁barbaadde	-2097
ሰጥ	-2098
ቀር	-2099
ቦች	-2100
▁gaafate	-2101
▁fakkaate	-2102
▁og	-2103
▁qaa	-2104
▁Saree	-2105
▁jaallata	-2106
ቃት	-2107
▁በጭ	-2108
▁durii	-2109
▁Nyaata	-2110
▁qabaachuu	-2111
30	-2112
▁ሰራ	-2113
▁Gar	-2114
▁dafee	-2115
▁Ayyaana	-2116
▁በህ	-2117
▁muraas	-2118
▁እመኛለሁ።	-2119
▁guddaan	-2120
arq	-2121
▁ይጠ	-2122
caan	-2123
▁አስቸ	-2124
eerra	-2125
▁saff	-2126
ሽት	-2127
ለውን	-2128
▁ስት	-2129
▁መብላት	-2130
▁እንችላ	-2131
▁ijoollee	-2132
ሉን	-2133
ልፅ	-2134
ማት	-2135
▁መታ	-2136
▁daaww	-2137
▁isaaf	-2138
ፈለግ	-2139
▁ቅር	-2140
▁ፈል	-2141
ዋን	-2142
▁መጠበቅ	-2143
▁Osoon	-2144
ይወ	-2145
▁ጠየቀ	-2146
▁dhiifama	-2147
una	-2148
uuziq	-2149
ሰድ	-2150
ሴን	-2151
▁tas	-2152
ammuu	-2153
▁gurgur	-2154
▁tokkoon	-2155
▁ስር	-2156
▁gor	-2157
▁እንዲያ	-2158
eenyaa	-2159
▁jaallat	-2160
▁oolu	-2161
▁Duraan	-2162
ሮችን	-2163
▁abbaa	-2164
▁maaltu	-2165
ልኝ	-2166
ረጥ	-2167
ንቃ	-2168
ግባ	-2169
ጠራ	-2170
ira	-2171
▁Aw	-2172
baata	-2173
tiif	-2174
▁Uff	-2175
iisaa	-2176
▁soch	-2177
▁nyaat	-2178
▁maallaqa	-2179
sh	-2180
ንስ	-2181
▁በየ	-2182
illee	-2183
▁bara	-2184
▁dhufuu	-2185
▁fudhachuu	-2186
▁ciis	-2187
ፕላ	-2188
▁barbaadda	-2189
▁ij	-2190
▁ግድ	-2191
▁baaf	-2192
▁qoph	-2193
▁jibba	-2194
▁የለውም።	-2195
▁ammaatti	-2196
▁ተሳ	-2197
▁hor	-2198
▁hamm	-2199
ambalii	-2200
▁yaalaa	-2201
▁qilleensaa	-2202
▁ሱ	-2203
▁ፅ	-2204
▁gi	-2205
▁አር	-2206
oonii	-2207
▁እየሰራ	-2208
argagg	-2209
▁Ameer	-2210
▁አልወድም።	-2211
በቃ	-2212
ኛውም	-2213
▁በእርግጥ	-2214
▁Ganama	-2215
▁dogoggor	-2216
▁dhiyootti	-2217
ed	-2218
ታም	-2219
ፉን	-2220
▁ዘግ	-2221
▁ብዙውን	-2222
▁amana	-2223
▁qaban	-2224
▁roobni	-2225
▁Konkolaataan	-2226
ለም።	-2227
maata	-2228
alayaa	-2229
▁Dhukk	-2230
▁torban	-2231
ላሉ	-2232
ላችሁ	-2233
ቢያው	-2234
gala	-2235
▁እንግሊ	-2236
▁yaaddu	-2237
▁መዋ	-2238
▁አዝ	-2239
▁አሉ።	-2240
▁እንደሚያ	-2241
▁Baabur	-2242
▁haadha	-2243
▁bitachuu	-2244
▁በራ	-2245
▁ንግ	-2246
▁አስቀድ	-2247
▁Qillee	-2248
ክት	-2249
▁um	-2250
▁የኔ	-2251
▁jab	-2252
▁መስሎኝ	-2253
iilmii	-2254
▁namoota	-2255
በዝ	-2256
dhee	-2257
▁ቀደም	-2258
▁ብዙም	-2259
umaan	-2260
▁dhumaa	-2261
▁kudhan	-2262
unn	-2263
daan	-2264
tobu	-2265
▁ታሪክ	-2266
▁እንግዳ	-2267
tobusii	-2268
ሌት	-2269
▁ስላ	-2270
▁Anis	-2271
▁qabdaa	-2272
▁Toomiin	-2273
ሳሳይ	-2274
ወደው	-2275
▁አካ	-2276
ldur	-2277
▁ነገረ	-2278
▁deebis	-2279
ልም።	-2280
▁Je	-2281
▁አስቤ	-2282
iskil	-2283
▁Carraa	-2284
▁dandeenya	-2285
ተና	-2286
ነበር	-2287
▁ዝም	-2288
ላለሁ።	-2289
▁Bil	-2290
▁ajjees	-2291
▁sagalee	-2292
▁murteess	-2293
dduun	-2294
▁jiran	-2295
mi	-2296
lli	-2297
▁ሀብ	-2298
▁Daf	-2299
dheen	-2300
iyaan	-2301
▁barreess	-2302
▁Gargaarsa	-2303
ሆና	-2304
መም	-2305
ነፍ	-2306
▁Ta	-2307
▁ዝግጁ	-2308
▁Akkan	-2309
▁tokkoof	-2310
oos	-2311
tinaa	-2312
▁ይሆናል።	-2313
▁dinqis	-2314
▁እችላለሁ።	-2315
▁jalqabe	-2316
▁agarsiis	-2317
▁Akkasitti	-2318
ቼን	-2319
ምንም።	-2320
irraa	-2321
▁dhok	-2322
▁በፍፁም	-2323
ሉት	-2324
ቱም	-2325
ጦታ	-2326
ቋንቋ	-2327
▁Th	-2328
▁በሩን	-2329
▁Bara	-2330
▁gabaa	-2331
▁kunuun	-2332
ከረ	-2333
▁Pool	-2334
▁Seen	-2335
▁Bishaan	-2336
▁hojjedhu	-2337
▁bareedduu	-2338
▁ደክ	-2339
udha	-2340
▁ruku	-2341
▁eeggannoo	-2342
ራሽ	-2343
ጠር	-2344
▁TV	-2345
▁erg	-2346
▁ዘግይ	-2347
▁መግዛት	-2348
▁አለበት።	-2349
▁deebii	-2350
▁Namoota	-2351
▁eenyutu	-2352
ሞት	-2353
ቀረ	-2354
ኖራ	-2355
ፋት	-2356
▁ሸ	-2357
ሁም።	-2358
▁To	-2359
alle	-2360
▁uum	-2361
▁የገና	-2362
▁አለብን	-2363
▁አለብዎት	-2364
▁Hojiin	-2365
ከው	-2366
ውቀው	-2367
▁እቅድ	-2368
▁mataa	-2369
ዝቃዛ	-2370
▁መሳ	-2371
▁Daa	-2372
▁biyya	-2373
▁goote	-2374
▁gaafachuu	-2375
ክፍ	-2376
▁Ch	-2377
▁Ma	-2378
▁ወረ	-2379
▁መምጣት	-2380
▁ህይወት	-2381
▁barsii	-2382
et	-2383
ወር	-2384
dee	-2385
▁ትኩ	-2386
▁ጉዞ	-2387
▁ተመለ	-2388
akkoof	-2389
urxummii	-2390
ሁድ	-2391
inj	-2392
omp	-2393
ስታው	-2394
▁ድም	-2395
▁Tarii	-2396
▁እባክዎን	-2397
▁hedduun	-2398
▁hojjeta	-2399
▁bareedaa	-2400
ህር	-2401
▁ኢ	-2402
▁መሰ	-2403
▁ኣመት	-2404
▁erga	-2405
▁hafe	-2406
amaadha	-2407
ሰው	-2408
ቅም	-2409
ብን	-2410
oma	-2411
ሜሪካ	-2412
isiin	-2413
▁Ameerikaa	-2414
ያዝ	-2415
▁በባ	-2416
▁dir	-2417
amboo	-2418
▁ማውራት	-2419
ነቱ	-2420
▁ምስ	-2421
▁ሰም	-2422
▁ቤቱ	-2423
▁ድመ	-2424
▁ፀጉ	-2425
jjii	-2426
siif	-2427
ደሰ	-2428
▁Tom	-2429
▁edaa	-2430
▁karoor	-2431
▁Booston	-2432
▁guutummaatti	-2433
ሰ።	-2434
መርጣ	-2435
amii	-2436
▁ቋንቋ	-2437
▁Boston	-2438
▁amanuu	-2439
▁argadhe	-2440
ሸን	-2441
sof	-2442
▁ጫማ	-2443
ቦስተን	-2444
▁ስጦታ	-2445
iyyee	-2446
toota	-2447
▁Hunduu	-2448
ዎት።	-2449
ግርህ	-2450
▁በኣ	-2451
▁የራ	-2452
▁deemaa	-2453
ልድ	-2454
ራው	-2455
▁ቲ	-2456
dof	-2457
▁ሰላ	-2458
▁ተወ	-2459
iqil	-2460
▁በመጨረሻ	-2461
▁arguun	-2462
▁አንዱ	-2463
eenyi	-2464
▁እንድታ	-2465
▁miidh	-2466
▁ወዲ	-2467
▁sod	-2468
▁በዚያ	-2469
iniin	-2470
▁Dhaa	-2471
▁lubb	-2472
aroora	-2473
chitti	-2474
▁gaaffii	-2475
▁muraasaaf	-2476
ck	-2477
aaq	-2478
▁ይቻ	-2479
▁መጫወት	-2480
▁እንፈልጋ	-2481
arratti	-2482
▁Lamaan	-2483
▁barachuu	-2484
▁jettanii	-2485
ረጃ	-2486
ሷል።	-2487
ታችን	-2488
▁አቁ	-2489
ፈልግም	-2490
▁ቁጥር	-2491
▁Balaa	-2492
▁ከእርስዎ	-2493
▁hordof	-2494
ጦር	-2495
▁ዜ	-2496
ወስዳ	-2497
▁ለብ	-2498
▁Isa	-2499
▁ለዚህ	-2500
▁umur	-2501
▁Bilbil	-2502
ለ።	-2503
ንገ	-2504
▁ካል	-2505
▁መኖር	-2506
▁የተለ	-2507
▁yaadu	-2508
▁Dogoggora	-2509
ኬት	-2510
ክክ	-2511
ፓርቲ	-2512
▁በበ	-2513
▁ደግ	-2514
▁ዶክ	-2515
▁ምሽት	-2516
▁Jaal	-2517
▁Harka	-2518
▁abdii	-2519
▁ulfaataa	-2520
▁jaallattu	-2521
ዳው	-2522
ጠና	-2523
ጠኝ	-2524
attii	-2525
▁አስቸጋሪ	-2526
▁argine	-2527
▁konkol	-2528
▁አላምንም።	-2529
▁bilbila	-2530
▁taphachuu	-2531
ምፒ	-2532
▁ይሻ	-2533
aash	-2534
aayi	-2535
▁San	-2536
▁ቀዝቃዛ	-2537
iyyeeff	-2538
▁haasof	-2539
▁maaloo	-2540
▁dinqisiif	-2541
ኝም	-2542
ገም	-2543
ግራ	-2544
ጠ።	-2545
▁ሂ	-2546
▁ፕ	-2547
ወሰነ	-2548
▁ማጥ	-2549
▁ija	-2550
▁እናቴ	-2551
artii	-2552
▁dald	-2553
▁dhabe	-2554
▁dhiph	-2555
▁የእርስዎ	-2556
▁jettee	-2557
▁rakkoo	-2558
▁guyyaan	-2559
▁jalqabaa	-2560
▁galatoomaa	-2561
ስብ	-2562
ሏል።	-2563
▁ልብ	-2564
utti	-2565
▁ንገረ	-2566
▁እሁድ	-2567
▁Warri	-2568
▁argam	-2569
▁galle	-2570
▁garaa	-2571
▁ተመሳሳይ	-2572
▁አልቻለም።	-2573
▁የመጀመሪያ	-2574
▁ilaaluu	-2575
▁boqonnaa	-2576
ጨስ	-2577
ሉም።	-2578
▁ልን	-2579
▁ወስ	-2580
▁ፎቶ	-2581
iina	-2582
suuf	-2583
▁Fur	-2584
▁በረዶ	-2585
▁ይሰራ	-2586
aaraan	-2587
▁እንደሆን	-2588
▁xiqqaa	-2589
▁barsiis	-2590
▁hiriyyaa	-2591
▁taas	-2592
▁goone	-2593
▁ነበረብኝ።	-2594
▁kaleessa	-2595
ዱ።	-2596
▁ፈልጌ	-2597
▁qars	-2598
▁ስራውን	-2599
▁Maaltu	-2600
▁sammuu	-2601
▁፣	-2602
mee	-2603
iree	-2604
▁Yaad	-2605
▁የአየር	-2606
▁Haati	-2607
eettiin	-2608
▁deemne	-2609
▁dhimma	-2610
▁yaadda	-2611
waa	-2612
▁ደረጃ	-2613
ayyaa	-2614
▁hiik	-2615
▁halkan	-2616
▁Rakkoon	-2617
ሶች	-2618
▁የወ	-2619
ረጴዛው	-2620
▁ለመስ	-2621
▁karoorf	-2622
▁Garmalee	-2623
▁Kitaabni	-2624
qq	-2625
ጠይቅ	-2626
▁Ir	-2627
▁መለ	-2628
▁መደ	-2629
▁ተከ	-2630
▁አድ	-2631
▁gadh	-2632
▁አመሰግ	-2633
▁miira	-2634
▁mudate	-2635
▁addunyaa	-2636
ርባ	-2637
▁የው	-2638
▁ደር	-2639
▁ደክሞ	-2640
▁geess	-2641
▁akkuma	-2642
ሙን	-2643
ታዊ	-2644
ይት	-2645
ፈን	-2646
መስላ	-2647
ሰብኩ	-2648
ፈልጉ	-2649
▁An	-2650
▁So	-2651
▁ቀድ	-2652
▁ብት	-2653
▁ኩባ	-2654
▁እሄዳ	-2655
▁naan	-2656
▁ብቻዬን	-2657
▁ወደዚያ	-2658
boo	-2659
▁ፈቃ	-2660
aana	-2661
ddoo	-2662
▁oof	-2663
▁qunn	-2664
▁እረፍት	-2665
▁Kutaan	-2666
▁gaafat	-2667
▁waadaa	-2668
▁akkasitti	-2669
ቀስ	-2670
ung	-2671
ሮፕላ	-2672
ነገር	-2673
▁በጭራሽ	-2674
▁hamma	-2675
▁Haalli	-2676
▁ተናግሯል።	-2677
ቷን	-2678
ጠፋ	-2679
dan	-2680
▁ch	-2681
▁ማሳ	-2682
▁ተቀ	-2683
saan	-2684
▁dull	-2685
▁nagaa	-2686
▁isheen	-2687
▁qaamaa	-2688
▁gammadeera	-2689
ርዝ	-2690
ነስ	-2691
xaa	-2692
ተኛት	-2693
▁ለሁ	-2694
arkaa	-2695
▁Taph	-2696
aachis	-2697
▁kennaa	-2698
▁namoonni	-2699
iskileetii	-2700
ሳተ	-2701
▁መማር	-2702
▁ቦርሳ	-2703
▁አለበት	-2704
▁ለማርያም	-2705
▁አይችሉም።	-2706
ካራ	-2707
ላቸው	-2708
▁Ar	-2709
▁ምሳ	-2710
▁ፊት	-2711
▁በአው	-2712
▁መቆየት	-2713
▁አውቶቡ	-2714
▁jalaa	-2715
▁tasaa	-2716
uuziqaa	-2717
▁Kophaa	-2718
▁balbala	-2719
▁galaanaa	-2720
ምራ	-2721
moo	-2722
▁ለው	-2723
▁kolf	-2724
▁ofii	-2725
▁baasuu	-2726
aga	-2727
ወስድ	-2728
▁Gaa	-2729
▁Itti	-2730
▁namatti	-2731
ባቢ	-2732
▁ኳ	-2733
▁መጣ	-2734
eedha	-2735
▁Want	-2736
▁መካከል	-2737
▁warra	-2738
▁ነበርኩ።	-2739
▁Uffata	-2740
aj	-2741
bi	-2742
ኖረው	-2743
▁በፈ	-2744
uutu	-2745
▁እድሜ	-2746
▁ትመስላ	-2747
▁tokkoo	-2748
▁Daqiiqaa	-2749
▁isinitti	-2750
▁ትር	-2751
▁ስብሰ	-2752
ubbaa	-2753
▁ልክ	-2754
miin	-2755
▁bor	-2756
aaree	-2757
ataan	-2758
attoonni	-2759
▁fudhate	-2760
▁gaariin	-2761
▁qarshii	-2762
▁gammachuu	-2763
▁gammachiisa	-2764
ለድ	-2765
▁ፒ	-2766
laq	-2767
ስትራ	-2768
▁ibi	-2769
▁you	-2770
▁የለብ	-2771
alluu	-2772
▁meeq	-2773
▁ለአንድ	-2774
▁xiqqaadha	-2775
aak	-2776
▁Um	-2777
▁ካር	-2778
▁የእሱ	-2779
▁ጎበዝ	-2780
▁ነበሩ።	-2781
▁አልገባ	-2782
▁ኣመታት	-2783
aandii	-2784
▁Walga	-2785
▁nyaan	-2786
▁deemnu	-2787
▁foddaa	-2788
ለማ	-2789
ቻል	-2790
caa	-2791
eeq	-2792
▁ተራ	-2793
▁ወጣ	-2794
▁Mag	-2795
▁ለገና	-2796
▁መንገ	-2797
▁እንቅልፍ	-2798
▁jiraata	-2799
▁isaatiin	-2800
ብር	-2801
ጠበቅ	-2802
▁ነፃ	-2803
▁mor	-2804
▁ከአሁን	-2805
arqara	-2806
▁jettu	-2807
ሚያ	-2808
ሳኔ	-2809
ቋል።	-2810
▁የል	-2811
▁ሙዚቃ	-2812
▁Barr	-2813
▁osoon	-2814
▁qophaa	-2815
▁kootiif	-2816
ስር	-2817
iit	-2818
▁Ad	-2819
▁በር	-2820
▁አጋ	-2821
▁roo	-2822
▁ማንበብ	-2823
allatt	-2824
▁nutti	-2825
▁እውነቱን	-2826
injaala	-2827
▁Eenyuutu	-2828
ራጭ	-2829
ጋው	-2830
▁ad	-2831
▁አጣ	-2832
inuu	-2833
ooyy	-2834
ስትራሊ	-2835
▁ብስክ	-2836
▁ጓደኞች	-2837
▁dubbata	-2838
መው	-2839
ቀቅ	-2840
ተዋል	-2841
▁በም	-2842
▁ዳር	-2843
▁gadd	-2844
▁hang	-2845
▁kaan	-2846
ummaan	-2847
▁jette	-2848
▁በቦስተን	-2849
▁የመጨረሻ	-2850
ላር	-2851
ገበ	-2852
▁በሁ	-2853
▁shan	-2854
▁dhufa	-2855
▁Kanaaf	-2856
ay	-2857
ችው	-2858
▁Fil	-2859
▁int	-2860
▁መስኮ	-2861
▁biqil	-2862
▁dhukkubs	-2863
ያየት	-2864
▁ur	-2865
▁ቀይ	-2866
▁ተኝ	-2867
▁gub	-2868
▁ሰአት	-2869
▁ቀኑን	-2870
▁kaba	-2871
▁ለማየት	-2872
▁መዋኘት	-2873
▁Meesh	-2874
▁buufata	-2875
ካም	-2876
▁Dubb	-2877
▁እንፈልጋለን።	-2878
ሊት	-2879
ሌም	-2880
ቤተ	-2881
ችለው	-2882
▁ያሳ	-2883
▁ይና	-2884
▁Isn	-2885
▁ጨዋታ	-2886
▁ፖሊስ	-2887
▁ከሰአት	-2888
▁Maqaa	-2889
▁keeny	-2890
▁rakkis	-2891
▁dhiisaa	-2892
▁dambalii	-2893
▁hojjenne	-2894
▁hundinuu	-2895
ይታ	-2896
ግሬ	-2897
ash	-2898
▁ልዩ	-2899
▁በሳ	-2900
▁ካንተ	-2901
jjira	-2902
▁እንዳት	-2903
▁Mucaan	-2904
▁gidduu	-2905
▁ይሰማኛል።	-2906
▁መክ	-2907
▁ሳጥ	-2908
▁ቀጠ	-2909
meen	-2910
▁መልስ	-2911
▁alaa	-2912
▁መውጣት	-2913
▁ወዲያው	-2914
aaqana	-2915
▁iyyuu	-2916
▁ለማግኘት	-2917
▁beekta	-2918
▁fuuldur	-2919
me	-2920
ሄደ	-2921
ደት	-2922
▁u	-2923
ork	-2924
▁ተሰማ	-2925
▁ይሄዳ	-2926
▁ድምፅ	-2927
▁illee	-2928
▁Kophee	-2929
▁arganne	-2930
▁sadarkaa	-2931
ሰል	-2932
ፈር	-2933
ፈት	-2934
iix	-2935
▁ተቃ	-2936
▁ሁሌም	-2937
▁ማስተ	-2938
aqaan	-2939
▁saffisaan	-2940
ታማ	-2941
ዋቂ	-2942
▁ሮ	-2943
▁አሳል	-2944
▁ግልፅ	-2945
batti	-2946
iiree	-2947
▁Dokt	-2948
▁jala	-2949
▁ያስባሉ	-2950
▁fooyy	-2951
eessuun	-2952
▁uffata	-2953
ቤቴ	-2954
ገጥ	-2955
ችኝ።	-2956
▁ልብስ	-2957
▁ውሳኔ	-2958
ffeer	-2959
▁himaa	-2960
▁turuu	-2961
▁magaalaa	-2962
ow	-2963
ሩት	-2964
ጠት	-2965
ፏል።	-2966
▁ልጁ	-2967
▁በወ	-2968
▁በው	-2969
▁ለማን	-2970
▁ትክክ	-2971
▁መሆኑን	-2972
▁argatte	-2973
▁ኣሳ	-2974
▁የታ	-2975
▁qorra	-2976
▁ያስፈልገ	-2977
▁ይመስላል	-2978
▁dheeraaf	-2979
ቃሚ	-2980
ራለሁ።	-2981
yyoota	-2982
▁Haala	-2983
ረብ	-2984
ጎዳ	-2985
▁ቶ	-2986
quu	-2987
ረዳት	-2988
ረጅም	-2989
ነዚህ	-2990
▁ሲያ	-2991
▁ፊልም	-2992
ስትራሊያ	-2993
▁Bars	-2994
▁የምፈልገ	-2995
▁barbaadaa	-2996
ኒስ	-2997
ክስ	-2998
ዘኛ	-2999
ጠጣ	-3000
ፃህ	-3001
jaa	-3002
▁Fuu	-3003
▁ፈተና	-3004
▁eeguu	-3005
▁barsiisaa	-3006
መ።	-3007
▁ቁል	-3008
▁አዳ	-3009
▁እንደማይ	-3010
▁Ijoollee	-3011
▁ህል	-3012
▁መፍ	-3013
▁ወቅ	-3014
▁ቀለም	-3015
▁አይችልም።	-3016
▁Jireenya	-3017
▁fayyadamuu	-3018
ሀይ	-3019
ሳካ	-3020
iba	-3021
▁ሰኞ	-3022
biin	-3023
oolii	-3024
▁muka	-3025
▁siree	-3026
▁መጀመሪያ	-3027
▁አስተማሪ	-3028
aaliyaa	-3029
▁Dhimma	-3030
▁baabur	-3031
▁gabaabaa	-3032
ረድ	-3033
ቂያ	-3034
ዝኛ	-3035
ደኛ	-3036
ፎች	-3037
▁ወጥ	-3038
ustir	-3039
▁saan	-3040
▁አደረግ	-3041
▁amanu	-3042
▁hirriba	-3043
ይል	-3044
ፁህ	-3045
buu	-3046
ፖርት	-3047
▁qu	-3048
▁አፍ	-3049
▁በመስ	-3050
▁ደደብ	-3051
▁meesh	-3052
▁Awustir	-3053
▁walakkaa	-3054
ise	-3055
juu	-3056
abab	-3057
suun	-3058
▁mit	-3059
▁ወድጄ	-3060
▁የመጣ	-3061
▁lafa	-3062
▁መመለስ	-3063
▁banaa	-3064
▁qorraa	-3065
▁mitiiree	-3066
ረፍ	-3067
▁v	-3068
ስማማ	-3069
ፈለገ	-3070
▁Im	-3071
▁ቢራ	-3072
▁ደን	-3073
▁ህይወ	-3074
▁መምህ	-3075
▁jech	-3076
▁arguuf	-3077
ሸት	-3078
በው	-3079
▁ኪ	-3080
▁መነ	-3081
▁bul	-3082
▁አለመ	-3083
▁ዶላር	-3084
▁እመርጣ	-3085
▁አንችልም።	-3086
▁ኬ	-3087
ችም።	-3088
▁ኖሮ	-3089
amni	-3090
yaan	-3091
▁gala	-3092
adheen	-3093
▁namaa	-3094
▁affeer	-3095
▁Xalayaa	-3096
▁dargagg	-3097
▁keessaniif	-3098
ለኝ	-3099
ሌቪ	-3100
ሌቪዥ	-3101
ሸነፍ	-3102
▁ረሳ	-3103
▁ምርጫ	-3104
▁ጠቃሚ	-3105
attuu	-3106
▁addaan	-3107
▁beekne	-3108
▁Toomiif	-3109
የው	-3110
▁ከወ	-3111
▁muf	-3112
▁በእኔ	-3113
aayii	-3114
atinaa	-3115
▁እንደዚያ	-3116
▁deemuuf	-3117
▁dubbatu	-3118
▁Awustiraaliyaa	-3119
sp	-3120
▁ውጤ	-3121
uura	-3122
wwaa	-3123
▁ይመጣ	-3124
▁ይወዳል።	-3125
▁qarqara	-3126
▁rakkisaadha	-3127
ቱ።	-3128
ጠን	-3129
ስም።	-3130
▁ድር	-3131
▁ፈለ	-3132
site	-3133
▁ለመግ	-3134
▁አለባ	-3135
▁አደረገ	-3136
በስ	-3137
ክሲ	-3138
ጀመር	-3139
▁አገ	-3140
▁Erga	-3141
▁call	-3142
anneen	-3143
▁caalu	-3144
▁ነገሮችን	-3145
▁እነዚህን	-3146
▁ይችላሉ።	-3147
▁halluu	-3148
▁jiraatu	-3149
▁salphaadha	-3150
ስፒ	-3151
ima	-3152
▁ትላ	-3153
eenye	-3154
iiraa	-3155
▁እነዚያ	-3156
▁maqaa	-3157
▁narra	-3158
amummaa	-3159
▁duraan	-3160
ናው	-3161
▁Tokk	-3162
▁መተኛት	-3163
▁Abbaa	-3164
▁jiruu	-3165
▁ከማርያም	-3166
▁barbaadduu	-3167
▁በጉ	-3168
▁ግራ	-3169
▁ያለውን	-3170
▁damma	-3171
▁kanuma	-3172
▁ogeessa	-3173
ያኖ	-3174
ጠብቅ	-3175
▁Koo	-3176
▁መጠን	-3177
▁ወቅት	-3178
alama	-3179
▁bilbilaa	-3180
▁daqiiqaa	-3181
▁Hiriyyoota	-3182
ብራ	-3183
ደል	-3184
▁ፓ	-3185
▁ድን	-3186
raan	-3187
▁Gur	-3188
▁han	-3189
▁ሄደ።	-3190
▁ንፁህ	-3191
▁እራት	-3192
▁ወጣት	-3193
▁taate	-3194
▁suuraa	-3195
▁ለምንድነው	-3196
▁Isniina	-3197
▁Qilleen	-3198
▁galgala	-3199
▁fakkaatta	-3200
▁hojjechuuf	-3201
ቋቋ	-3202
▁ሴ	-3203
▁fal	-3204
▁ifa	-3205
▁mij	-3206
▁ስልክ	-3207
▁የለም	-3208
▁ኣይነት	-3209
▁እንዳይ	-3210
▁ጓደኛዬ	-3211
▁dhung	-3212
oolaara	-3213
▁dhabuu	-3214
▁sababa	-3215
▁teessoo	-3216
ኩል	-3217
ፈቀ	-3218
eens	-3219
uuraa	-3220
▁Sirr	-3221
▁himi	-3222
▁want	-3223
▁yaadaa	-3224
▁እንችላለን	-3225
▁lubbuun	-3226
▁kitaabaa	-3227
gab	-3228
▁bur	-3229
▁jibb	-3230
▁dhaam	-3231
▁gootu	-3232
▁tilmaama	-3233
መረ	-3234
ተህ	-3235
ዲህ	-3236
ድርጉ	-3237
▁ሄድ	-3238
▁ጨር	-3239
▁Sar	-3240
▁ማቆም	-3241
▁mala	-3242
▁እንደዛ	-3243
ccitii	-3244
▁fagoo	-3245
▁Teessoo	-3246
▁fayyadam	-3247
▁dubbateera	-3248
▁gammachiis	-3249
▁mirkaneeff	-3250
▁አቅ	-3251
▁ይቆ	-3252
▁ለመር	-3253
▁ጠንክ	-3254
▁Buna	-3255
▁Roob	-3256
▁መስማት	-3257
▁ጠንካራ	-3258
▁ijaar	-3259
▁eessaa	-3260
▁አትችልም።	-3261
▁Balbala	-3262
ሬት	-3263
ዲዮ	-3264
ገሩ	-3265
ችሁም	-3266
ችሁ።	-3267
▁Dub	-3268
▁ይኖራ	-3269
▁dukk	-3270
▁hima	-3271
▁መውሰድ	-3272
arkaan	-3273
▁bahuu	-3274
▁kenna	-3275
aayidaa	-3276
ሱ።	-3277
▁።	-3278
ጠብቃ	-3279
▁Ni	-3280
▁ak	-3281
▁buu	-3282
▁argu	-3283
▁boon	-3284
▁በእውነ	-3285
▁አካባቢ	-3286
▁Akkuma	-3287
▁deemte	-3288
▁fayyaa	-3289
▁fooyya	-3290
▁Maallaq	-3291
▁jireenyaa	-3292
▁beekamaadha	-3293
ጋት	-3294
ህንፃ	-3295
መለከ	-3296
▁መድ	-3297
▁ተጫ	-3298
▁የባ	-3299
ስፒታል	-3300
▁ጀምሮ	-3301
▁አደገኛ	-3302
▁ያውቃል።	-3303
▁Maaloo	-3304
▁lakkaa	-3305
▁tamboo	-3306
ammaffaa	-3307
▁Harmeen	-3308
▁ወድጄዋለሁ።	-3309
▁qurxummii	-3310
ek	-3311
ሂድ	-3312
ጣን	-3313
ፈቅ	-3314
▁ጃ	-3315
ኮትን	-3316
ጨረስ	-3317
▁mo	-3318
▁በሌ	-3319
▁በረ	-3320
▁ተኛ	-3321
▁እንስ	-3322
▁ፍፁም	-3323
▁የተለየ	-3324
▁ጣቢያው	-3325
ashann	-3326
▁shubb	-3327
ze	-3328
ለል	-3329
ፍራ	-3330
ለመደ	-3331
▁Od	-3332
▁ሀኪ	-3333
▁ስእ	-3334
▁ሻይ	-3335
▁ተን	-3336
▁ኳስ	-3337
▁Mur	-3338
▁kof	-3339
▁ምክር	-3340
▁ajaj	-3341
▁ሁለቱም	-3342
▁ከአንድ	-3343
▁ከፍተኛ	-3344
▁ያደርጋ	-3345
▁jedha	-3346
▁እባኮትን	-3347
▁ይሰማኛል	-3348
▁Suuraa	-3349
▁waaree	-3350
▁fudhata	-3351
▁umuriin	-3352
▁kaffaltii	-3353
ሽን	-3354
ዳሜ	-3355
▁በላ	-3356
▁እቃ	-3357
▁ቃላት	-3358
▁ባቡሩ	-3359
▁ከእንግ	-3360
▁deemtu	-3361
▁jalqaba	-3362
ce	-3363
eel	-3364
ሰራው	-3365
ዘጋጀ	-3366
▁በሩ	-3367
▁ከሁ	-3368
▁የጥ	-3369
▁ፈፅ	-3370
atin	-3371
▁umr	-3372
▁ቀድሞ	-3373
iitti	-3374
ልሃለሁ።	-3375
▁dhiy	-3376
▁nuti	-3377
▁ሀብታም	-3378
ዘግ	-3379
ግ።	-3380
too	-3381
ዷል።	-3382
ታለች።	-3383
▁ህመም	-3384
▁ከእኛ	-3385
▁የምታ	-3386
▁አለን።	-3387
▁የለውም	-3388
▁ይወዳሉ	-3389
▁ለመርዳት	-3390
eessuuf	-3391
▁ilaala	-3392
▁kootii	-3393
▁kitaaba	-3394
▁ofirraa	-3395
▁Ingilizii	-3396
▁obboleessa	-3397
ምና	-3398
ወራ	-3399
▁ሹ	-3400
ዙሪያ	-3401
▁ja	-3402
▁ፕሮ	-3403
▁mad	-3404
▁ፓርቲ	-3405
▁አሉኝ።	-3406
▁balal	-3407
▁Maqaan	-3408
▁argate	-3409
▁ይፈልጋል።	-3410
▁xiyyeeff	-3411
ሻሻ	-3412
ኣቱ	-3413
ደድ	-3414
ገት	-3415
▁Bu	-3416
▁አማ	-3417
umna	-3418
ናገረው	-3419
▁Qab	-3420
▁መቼም	-3421
▁የዚህ	-3422
▁Kaar	-3423
▁ወንድሜ	-3424
▁beeks	-3425
▁dhibu	-3426
▁keetii	-3427
▁qoosaa	-3428
▁dhageess	-3429
ix	-3430
ቀመጫ	-3431
▁ክብ	-3432
▁ጦር	-3433
▁nag	-3434
▁ማመን	-3435
▁ወይን	-3436
eekii	-3437
▁sodd	-3438
▁ነዎት።	-3439
ompiit	-3440
▁socho	-3441
▁የምፈልገው	-3442
ሬን	-3443
ያዊ	-3444
ook	-3445
orr	-3446
ጥቂት	-3447
▁ቢሮ	-3448
▁ባህ	-3449
▁እኔን	-3450
▁ወደዚህ	-3451
▁Waggaa	-3452
▁kophee	-3453
▁hojjete	-3454
▁rifeensa	-3455
▁argachuuf	-3456
ቁር	-3457
ወል	-3458
ወዱ	-3459
ዝና	-3460
ጉም	-3461
ጠየቅ	-3462
▁ህፃ	-3463
▁እጅ	-3464
▁ኬክ	-3465
▁ያሉ	-3466
qama	-3467
አለሁ።	-3468
▁ቅዳሜ	-3469
atiin	-3470
▁ቴሌቪዥ	-3471
▁ይቻላል	-3472
▁dhang	-3473
▁kudha	-3474
▁dhaloota	-3475
ቂኝ	-3476
ኩህ	-3477
ይን	-3478
ጓዝ	-3479
▁እርስ	-3480
▁ከዚያ	-3481
▁ፈፅሞ	-3482
▁በመኪና	-3483
▁አሜሪካ	-3484
▁kofal	-3485
▁በእውነቱ	-3486
▁isheef	-3487
▁Lakkoof	-3488
▁dubbisuu	-3489
▁hojjedha	-3490
▁የህ	-3491
idha	-3492
ttuu	-3493
▁Ija	-3494
▁ማነው	-3495
▁ራሴን	-3496
▁እገም	-3497
▁መጠቀም	-3498
▁ፍጥነት	-3499
umatti	-3500
▁Akkaataa	-3501
▁barreessuu	-3502
ጣሚ	-3503
▁ፋ	-3504
ምፒው	-3505
ኗል።	-3506
ከተማ	-3507
ደርስ	-3508
ጣል።	-3509
▁ir	-3510
▁ከት	-3511
iifi	-3512
▁hat	-3513
▁መልእ	-3514
▁በዝቶ	-3515
▁ትወዳ	-3516
▁እኔም	-3517
▁የተሳ	-3518
▁አየሁ።	-3519
▁ያስፈልግ	-3520
▁Yaadni	-3521
▁caalaatti	-3522
▁lammaffaa	-3523
ህም	-3524
ላቅ	-3525
ራዊ	-3526
ቡ።	-3527
ከራ	-3528
ጭር	-3529
ኩኝ።	-3530
ድስት	-3531
ጨነቅ	-3532
▁it	-3533
▁on	-3534
▁በጠ	-3535
▁ታስ	-3536
▁አመ	-3537
ilee	-3538
llaa	-3539
spit	-3540
▁Gor	-3541
▁ብለህ	-3542
▁ዳርቻ	-3543
aamur	-3544
▁Deem	-3545
▁Umur	-3546
▁ጀመረ።	-3547
xxaamur	-3548
▁dammaq	-3549
▁gadhiis	-3550
▁dhugaatii	-3551
ሁኑ	-3552
ዘን	-3553
ዘገ	-3554
▁ሶ	-3555
ጠቀም	-3556
▁Mi	-3557
▁ተለ	-3558
amoo	-3559
ፃህፍት	-3560
▁ባቡር	-3561
▁dokt	-3562
▁hidh	-3563
▁miila	-3564
▁jiraat	-3565
▁Poolisiin	-3566
በትን	-3567
ደሰት	-3568
▁አና	-3569
inni	-3570
▁Add	-3571
▁baan	-3572
▁gosa	-3573
▁ፈቃደኛ	-3574
▁ariif	-3575
▁dulloom	-3576
▁hundaaf	-3577
▁mallatt	-3578
▁daldalaa	-3579
▁qaxxaamur	-3580
ላው	-3581
ቁ።	-3582
ons	-3583
ደውል	-3584
ሳለሁ።	-3585
▁The	-3586
▁ወጣ።	-3587
▁ጉዳዩ	-3588
banaa	-3589
▁boor	-3590
▁ማንንም	-3591
▁qaroo	-3592
▁የተወሰነ	-3593
▁Seenaa	-3594
▁gurraa	-3595
▁hayyam	-3596
▁Sagalee	-3597
atteettaa	-3598
ትክል	-3599
▁ማስታ	-3600
▁ማጨስ	-3601
▁ታዋቂ	-3602
▁እፈራ	-3603
▁ዘፈን	-3604
isiis	-3605
▁kaar	-3606
▁ታደርጋ	-3607
▁yaabb	-3608
▁ለእርስዎ	-3609
teettaa	-3610
▁Furtuu	-3611
▁Roobni	-3612
▁gowwaa	-3613
▁biqiltuu	-3614
▁duubatti	-3615
▁gaafadhe	-3616
ከፋ	-3617
▁ተገ	-3618
▁የድ	-3619
▁ጠብ	-3620
▁አስር	-3621
▁አባት	-3622
▁goon	-3623
▁ለመሄድ	-3624
▁yaale	-3625
▁tureef	-3626
▁ከእንግዲህ	-3627
▁bitachuuf	-3628
ሳል	-3629
ከን	-3630
ወጥ	-3631
ደበ	-3632
▁በታ	-3633
▁ይለ	-3634
ነግርህ	-3635
▁ከእሱ	-3636
▁ጃፓን	-3637
▁tolu	-3638
▁አጠገብ	-3639
▁Sanduu	-3640
▁irraan	-3641
▁maatii	-3642
▁achitti	-3643
ተ።	-3644
▁ያዘ	-3645
▁መረጃ	-3646
▁በክፍ	-3647
▁ነበሩ	-3648
▁ነዎት	-3649
▁ፍቅር	-3650
▁bite	-3651
▁mari	-3652
▁ለረጅም	-3653
▁አስቂኝ	-3654
▁ዶክተር	-3655
araqaa	-3656
▁Bakki	-3657
▁አይችልም	-3658
▁ilaale	-3659
▁jirtuu	-3660
▁dhiiraa	-3661
▁dhiisee	-3662
▁Toomitti	-3663
ሀው	-3664
ስህ	-3665
imm	-3666
omb	-3667
ውም።	-3668
▁ቆይ	-3669
▁way	-3670
▁አብዛ	-3671
annee	-3672
faati	-3673
▁nuff	-3674
▁በአንተ	-3675
▁አንተን	-3676
▁argee	-3677
▁rukut	-3678
▁sanaaf	-3679
▁አስተያየት	-3680
▁Fiilmii	-3681
▁irbaata	-3682
▁አይመስልም።	-3683
▁gargaaru	-3684
▁minjaala	-3685
▁taphachaa	-3686
▁salphaatti	-3687
ጥብ	-3688
ደርጉ	-3689
laan	-3690
▁ከሆነ	-3691
▁ጓደኞ	-3692
aanni	-3693
inaan	-3694
▁መጨረሻ	-3695
aggoota	-3696
▁እጠላለሁ።	-3697
▁Filannoo	-3698
▁godheera	-3699
▁Maallaqni	-3700
▁gargaarsa	-3701
kn	-3702
ሃኒ	-3703
imb	-3704
oog	-3705
ረምት	-3706
▁ትእ	-3707
▁የቀ	-3708
▁ykn	-3709
▁ሆነ።	-3710
▁Oduu	-3711
▁Wiix	-3712
aarkii	-3713
▁ammas	-3714
▁ነገረኝ።	-3715
attoota	-3716
▁እገምታለሁ።	-3717
▁qabbanaa	-3718
ርፍ	-3719
inu	-3720
ዘንብ	-3721
ግስት	-3722
ፈጠረ	-3723
▁ዜና	-3724
▁dib	-3725
▁በጥሩ	-3726
▁አገር	-3727
▁ገባ።	-3728
▁barn	-3729
▁አብረን	-3730
▁አድርጌ	-3731
▁ያውቃሉ	-3732
▁dhihoo	-3733
▁እንደሚሆን	-3734
▁haaraan	-3735
▁አልገባኝም።	-3736
▁Jireenyi	-3737
▁konkolaachis	-3738
ጠል	-3739
son	-3740
ገናኘ	-3741
▁if	-3742
▁ቀጥ	-3743
▁የሰ	-3744
▁jen	-3745
▁kir	-3746
▁sob	-3747
▁ሁለታ	-3748
▁ሞቃት	-3749
▁ጊዜው	-3750
diyoo	-3751
ababni	-3752
▁ተማሪዎች	-3753
▁miilaa	-3754
▁Wiixata	-3755
▁tilmaam	-3756
▁አመሰግናለሁ።	-3757
▁qulqulluu	-3758
ራፊ	-3759
ፍያ	-3760
▁ገብ	-3761
▁ፖም	-3762
▁ስጠኝ	-3763
▁ተቀም	-3764
▁ይልቅ	-3765
iidha	-3766
▁መሞከር	-3767
▁አምስት	-3768
▁ይናገራ	-3769
siisuu	-3770
▁ibsaa	-3771
▁isaas	-3772
▁shakk	-3773
isiisaa	-3774
▁jireenya	-3775
▁otobusii	-3776
▁sodaadha	-3777
▁hiriyyoota	-3778
ንጥ	-3779
መልከ	-3780
ዳንዱ	-3781
▁የስ	-3782
deen	-3783
▁ari	-3784
▁ቴኒስ	-3785
▁ለመሆን	-3786
▁መርዳት	-3787
▁መንዳት	-3788
▁obsuu	-3789
▁seenaa	-3790
▁Qilleensi	-3791
ረም	-3792
ገግ	-3793
ere	-3794
gar	-3795
ንቃቄ	-3796
▁ግንኙ	-3797
allaa	-3798
▁ትርጉም	-3799
imbirr	-3800
▁ትክክለኛ	-3801
▁Waanan	-3802
▁እመርጣለሁ።	-3803
▁ilaaluun	-3804
▁barbaanna	-3805
▁Ingiliffaa	-3806
በረ	-3807
ቸኮ	-3808
ንክ	-3809
ፈጥ	-3810
▁ቀሚ	-3811
▁ባዶ	-3812
▁እግ	-3813
neef	-3814
qorr	-3815
ኛውንም	-3816
▁መጣ።	-3817
▁ክፍት	-3818
isaas	-3819
▁በሰኣቱ	-3820
▁ይወስዳ	-3821
annoon	-3822
▁seene	-3823
▁አላስታው	-3824
▁እንደማት	-3825
▁Karoora	-3826
▁dubbate	-3827
▁በፈረንሳይኛ	-3828
▁doolaara	-3829
▁waajjira	-3830
▁gowwummaa	-3831
▁dogoggoraa	-3832
ላከ	-3833
ስቱ	-3834
ጤና	-3835
እምሮ	-3836
▁ነጭ	-3837
▁እም	-3838
መሰግና	-3839
▁ህንፃ	-3840
▁Dhum	-3841
▁lamm	-3842
▁pool	-3843
▁dhuun	-3844
▁መነጋገር	-3845
▁አውሮፕላ	-3846
▁እየሞከር	-3847
aruuraa	-3848
▁hidhaa	-3849
▁እንዳለበት	-3850
▁Isaanis	-3851
▁Qorqorr	-3852
▁gargaaruuf	-3853
ንፋ	-3854
▁do	-3855
▁re	-3856
▁ግብ	-3857
▁ኮፍያ	-3858
▁ያልተ	-3859
▁ፀጉር	-3860
amarr	-3861
ichaa	-3862
▁ለማለት	-3863
▁ከአንተ	-3864
▁ወንዶች	-3865
▁Dhuma	-3866
eenisii	-3867
▁kitaab	-3868
▁milkaa	-3869
▁boorsaa	-3870
▁garagal	-3871
ቤን	-3872
▁5	-3873
ola	-3874
ንግሊ	-3875
▁ሜሪ	-3876
▁ከም	-3877
▁Laf	-3878
▁አየር	-3879
▁ያንተ	-3880
▁መስጠት	-3881
▁ስራዬን	-3882
▁አድርገ	-3883
▁ያድርጉ	-3884
▁በህይወት	-3885
▁Sababa	-3886
▁tasgab	-3887
▁እንደምችል	-3888
▁እንግሊዘኛ	-3889
▁gammadd	-3890
▁rakkisaa	-3891
▁affeerraa	-3892
▁Obboleessi	-3893
በዛ	-3894
ንጣ	-3895
ደግ	-3896
▁ኤ	-3897
ለህም	-3898
ረዳህ	-3899
ቋቋም	-3900
▁19	-3901
▁Go	-3902
▁Dar	-3903
▁መብራ	-3904
▁አንብ	-3905
▁እያን	-3906
▁ውሻው	-3907
ddisa	-3908
▁afur	-3909
▁maxx	-3910
▁xiyy	-3911
▁መድሃኒ	-3912
▁አይሆን	-3913
ineens	-3914
neerra	-3915
▁addaa	-3916
▁ሆስፒታል	-3917
▁deemta	-3918
▁qisaas	-3919
amaniiru	-3920
▁dabarsuu	-3921
▁teenisii	-3922
?"	-3923
ሰሩ	-3924
ባል	-3925
ንሰር	-3926
▁መራ	-3927
▁ስል	-3928
▁በቃ	-3929
▁ይታ	-3930
▁ፈረ	-3931
poor	-3932
▁አሰብ	-3933
▁እንቁ	-3934
▁ብቻውን	-3935
▁አስታው	-3936
▁Garaa	-3937
▁fedhe	-3938
▁jecha	-3939
▁qorri	-3940
▁ለመስራት	-3941
▁xuuxuu	-3942
▁ማንኛውንም	-3943
▁Irbaata	-3944
▁Baaburri	-3945
▁Dhumarratti	-3946
ውቀ	-3947
▁V	-3948
▁ሬ	-3949
▁ኦ	-3950
bee	-3951
ላሉ።	-3952
ረዳኝ	-3953
ፈለጉ	-3954
▁ዛፍ	-3955
eefu	-3956
ረጋገጥ	-3957
▁dub	-3958
▁አሉት።	-3959
▁fuula	-3960
faatina	-3961
▁ilkaan	-3962
▁kennite	-3963
▁የምፈልገው።	-3964
▁dukkanaa	-3965
▁faayidaa	-3966
▁dhukkubsa	-3967
▁jechootaa	-3968
ረፈ	-3969
ነዳ	-3970
ገኙ	-3971
ሟል።	-3972
▁መተ	-3973
▁በቁ	-3974
▁Kaa	-3975
▁Rif	-3976
▁የማን	-3977
adhee	-3978
eerri	-3979
▁Isin	-3980
▁Miira	-3981
▁tolch	-3982
▁ይፈልጋል	-3983
▁argama	-3984
▁dhiise	-3985
▁ትችላለህ።	-3986
▁keessanii	-3987
ርክ	-3988
▁ሄደ	-3989
▁ሆቴ	-3990
▁ጠፍ	-3991
▁ምልክ	-3992
▁ብልህ	-3993
▁ጥቁር	-3994
▁ቤተሰብ	-3995
achiis	-3996
ibsiif	-3997
▁himne	-3998
▁jirre	-3999
▁duwwaa	-4000
▁Dhukkub	-4001
▁barreeff	-4002
ረሳ	-4003
ሮጥ	-4004
ውቁ	-4005
የኝ	-4006
ፊያ	-4007
ሞክር	-4008
▁ስጋ	-4009
▁iyy	-4010
▁ወተት	-4011
aawaa	-4012
tichi	-4013
▁እንሂድ	-4014
▁ያደረገ	-4015
▁ጠረጴዛ	-4016
▁fagaa	-4017
chiisaa	-4018
▁Haadha	-4019
▁አይደሉም።	-4020
▁fudhadha	-4021
ንዳ	-4022
uut	-4023
ችሁን	-4024
▁ለራ	-4025
▁ያነ	-4026
▁ይቀ	-4027
▁mak	-4028
▁እህቴ	-4029
ombol	-4030
▁መጠጣት	-4031
▁Ishee	-4032
▁Reefu	-4033
▁ምንድነው	-4034
▁አላስታውስም።	-4035
▁argachuun	-4036
ሬው	-4037
ትር	-4038
ጠቢያ	-4039
naan	-4040
ችለውን	-4041
ጠይቅህ	-4042
▁ያደረ	-4043
▁መልካም	-4044
aatiif	-4045
oostaa	-4046
▁turee	-4047
▁harkaa	-4048
▁waanuma	-4049
▁nyaachuuf	-4050
lu	-4051
ሞላ	-4052
ንቲ	-4053
▁Ifa	-4054
▁You	-4055
▁ለውጥ	-4056
▁በቶም	-4057
▁በድን	-4058
▁መጠየቅ	-4059
▁አላት።	-4060
▁እድለኛ	-4061
▁fuudh	-4062
▁ለመናገር	-4063
▁ለመግዛት	-4064
▁አስባለሁ	-4065
▁hawwii	-4066
▁ilaalu	-4067
▁kootiin	-4068
▁hamaadha	-4069
▁hojjedhe	-4070
▁meeqatti	-4071
uq	-4072
ቻለ	-4073
ለኝ።	-4074
ጀምር	-4075
▁be	-4076
▁መተው	-4077
▁አልጋ	-4078
▁ከየት	-4079
▁ዙሪያ	-4080
sitee	-4081
▁ስብሰባ	-4082
▁Homaa	-4083
▁Jecha	-4084
▁beela	-4085
▁Maatii	-4086
▁dhufaa	-4087
▁kubbaa	-4088
▁qofatu	-4089
▁bashann	-4090
▁isaatti	-4091
▁dubbanne	-4092
▁fudhadhu	-4093
▁hojjettu	-4094
ንደ	-4095
ጭቆ	-4096
▁ሩ	-4097
ንጥላ	-4098
▁ልጄ	-4099
▁ብቸ	-4100
irii	-4101
▁ማሰብ	-4102
▁ተወዳ	-4103
▁ፈገግ	-4104
▁አስተዋ	-4105
taniif	-4106
▁urgaa	-4107
▁ወዲያውኑ	-4108
▁Intala	-4109
▁Barsiis	-4110
▁akkanaa	-4111
▁daandii	-4112
▁Magaalaa	-4113
▁Qormaata	-4114
▁barreesse	-4115
▁dandeenyaa	-4116
▁Obboleettiin	-4117
ከኝ	-4118
ገን	-4119
ነበብ	-4120
ጠበቀ	-4121
▁ለል	-4122
▁ለም	-4123
▁ቀር	-4124
▁ዋና	-4125
▁ይም	-4126
▁ana	-4127
▁መፃፍ	-4128
▁Hamm	-4129
▁jeeq	-4130
▁ንገረኝ	-4131
▁አድርጓ	-4132
▁ኮምፒው	-4133
▁ይመስል	-4134
qaaquu	-4135
▁kennu	-4136
▁መፅሀፉን	-4137
▁bilisa	-4138
▁እሄዳለሁ።	-4139
▁dagatinaa	-4140
▁dabarseera	-4141
tta	-4142
ነገረ	-4143
▁ለተ	-4144
▁kom	-4145
▁saa	-4146
▁አላየ	-4147
▁በእግር	-4148
▁anaaf	-4149
▁dhiib	-4150
▁የለንም።	-4151
▁Aniifi	-4152
▁Gatiin	-4153
▁rukute	-4154
▁አያስፈልገ	-4155
▁እንዳልሆነ	-4156
▁poostaa	-4157
▁yaaluun	-4158
▁Otobusii	-4159
pe	-4160
ናቂ	-4161
ኞቹ	-4162
ፋጭ	-4163
▁ሜ	-4164
sin	-4165
በደር	-4166
▁He	-4167
▁Hi	-4168
▁መመ	-4169
▁ውሾ	-4170
▁የፈ	-4171
amte	-4172
▁ለማስ	-4173
▁መደብ	-4174
▁አለኝ	-4175
▁ከቤት	-4176
▁argamu	-4177
▁ciniin	-4178
▁dhufne	-4179
▁fiilmii	-4180
▁sodaachis	-4181
ረዱ	-4182
ተወ	-4183
ዎቹን	-4184
▁ሞክ	-4185
▁ይው	-4186
▁ገበ	-4187
kaak	-4188
▁በቀላሉ	-4189
▁cirra	-4190
▁iddoo	-4191
▁ብስክሌት	-4192
kaakayy	-4193
▁soddoma	-4194
▁dubbadhu	-4195
▁Barattoonni	-4196
▁biskileetii	-4197
▁obboleettii	-4198
vi	-4199
ለቅ	-4200
ርጥ	-4201
ሸራ	-4202
ሽ።	-4203
በኛ	-4204
lle	-4205
ናለሁ	-4206
ዘጋጅ	-4207
ብህም።	-4208
▁ህልም	-4209
▁ምርጥ	-4210
ittan	-4211
▁Balb	-4212
▁adii	-4213
aaleen	-4214
▁Hojje	-4215
▁Qalama	-4216
▁deemna	-4217
▁Namichi	-4218
▁እንችላለን።	-4219
▁dhukkuba	-4220
ሜራ	-4221
ነብ	-4222
▁ጮ	-4223
ver	-4224
▁ሰጥ	-4225
bboo	-4226
wwee	-4227
▁አመጣ	-4228
▁አጭር	-4229
▁እናት	-4230
▁የሴት	-4231
aayin	-4232
llaan	-4233
▁Ofii	-4234
▁Yoon	-4235
▁boru	-4236
▁gahe	-4237
▁ለሶስት	-4238
▁ብርጭቆ	-4239
iyaanoo	-4240
▁Deebii	-4241
eessatti	-4242
▁rakkoon	-4243
▁hubachuu	-4244
▁xiqqaate	-4245
ማሽ	-4246
ፋ።	-4247
res	-4248
umm	-4249
ጠይቃ	-4250
▁Al	-4251
ppaa	-4252
▁ቁልፍ	-4253
▁ክፍሉ	-4254
▁ወይስ	-4255
▁የተወ	-4256
ፈልገውን	-4257
▁daak	-4258
▁ለማንም	-4259
▁መዝገበ	-4260
▁ያለብን	-4261
▁Eessa	-4262
▁Hamma	-4263
▁intala	-4264
▁yaadne	-4265
▁Hiriyaa	-4266
▁dhufeera	-4267
ጡት	-4268
iiz	-4269
ሪዎች	-4270
ስህን	-4271
▁ባል	-4272
▁ሞከር	-4273
▁አለቃ	-4274
▁ካሜራ	-4275
▁ዝርዝ	-4276
▁የፈለ	-4277
▁buna	-4278
▁garg	-4279
▁እንደሌ	-4280
▁ያውቃል	-4281
▁ተመለከተ	-4282
▁Dhaabb	-4283
▁beekna	-4284
▁yaaduu	-4285
▁እፈራለሁ።	-4286
▁bitadhe	-4287
ለቀ	-4288
ሪው	-4289
ርሱ	-4290
qii	-4291
ለው።	-4292
ላችኋ	-4293
ባቸው	-4294
ኛለህ	-4295
▁መከ	-4296
tion	-4297
▁Han	-4298
▁በማን	-4299
▁አሰል	-4300
▁አድራ	-4301
▁እግር	-4302
▁ይበል	-4303
▁ጀርባ	-4304
▁ጥቅም	-4305
aayil	-4306
▁bahu	-4307
choota	-4308
▁Gorsa	-4309
▁dhiif	-4310
▁እውነተኛ	-4311
▁doonii	-4312
▁qabaat	-4313
▁sodaat	-4314
▁gaariidha	-4315
▁bareedduudha	-4316
ላፊ	-4317
ሯል	-4318
ካል	-4319
ጆች	-4320
goo	-4321
oni	-4322
ኖረኝ	-4323
▁ሄጄ	-4324
▁ተደ	-4325
▁ከል	-4326
▁fin	-4327
aarri	-4328
attan	-4329
▁eega	-4330
▁ilma	-4331
▁rafe	-4332
▁መቋቋም	-4333
▁ሰዎችን	-4334
▁በጃፓን	-4335
▁Hiriy	-4336
▁አሰብኩ።	-4337
▁Jalqab	-4338
▁eenyuu	-4339
▁naanna	-4340
▁Naannoo	-4341
▁aanutti	-4342
▁bilbile	-4343
▁Boqonnaa	-4344
▁Kitaabota	-4345
▁jaallattaa	-4346
ያይ	-4347
acc	-4348
xii	-4349
ለኛው	-4350
etti	-4351
ppii	-4352
▁እንጂ	-4353
arree	-4354
▁baas	-4355
▁kufe	-4356
▁አደንቃ	-4357
▁ገዛሁ።	-4358
▁Tapha	-4359
▁hiika	-4360
▁balali	-4361
▁እንደሚችል	-4362
▁argeera	-4363
▁kompiit	-4364
▁tarkaan	-4365
▁tokkotu	-4366
▁muuziqaa	-4367
▁qabadheen	-4368
▁hojjechuun	-4369
▁dinqisiifadha	-4370
መጥ	-4371
ናግ	-4372
ኝታ	-4373
ደደ	-4374
ጋራ	-4375
ጠቀ	-4376
ጣል	-4377
▁ዲ	-4378
ddi	-4379
ያንስ	-4380
ፓርኩ	-4381
▁Ko	-4382
▁በሽ	-4383
መለከት	-4384
▁sar	-4385
▁ቁርስ	-4386
▁ቤተሰ	-4387
▁እየቀ	-4388
▁ፒያኖ	-4389
▁haal	-4390
▁ማስታወ	-4391
▁ቢያንስ	-4392
▁ተወዳጅ	-4393
▁argit	-4394
▁biroo	-4395
▁cinaa	-4396
▁qaana	-4397
▁ልነግርህ	-4398
▁dursee	-4399
▁magaal	-4400
▁qabuuf	-4401
ataniiru	-4402
eeffannoo	-4403
▁Sanduuqa	-4404
▁eessatti	-4405
▁jiraadha	-4406
▁argadheera	-4407
ቶቹ	-4408
ፉ።	-4409
▁እብ	-4410
▁የሌ	-4411
▁የግ	-4412
▁ፈለገ	-4413
ናገረውን	-4414
▁bade	-4415
▁መኪናው	-4416
▁አለብህ	-4417
▁እንደምን	-4418
▁dhuguu	-4419
▁hangam	-4420
▁Saroonni	-4421
▁filannoo	-4422
▁gaafatte	-4423
▁gargaara	-4424
▁galateeff	-4425
ታር	-4426
ሞችን	-4427
▁wh	-4428
▁ልም	-4429
▁ተሸ	-4430
▁ከሌ	-4431
▁ይመ	-4432
alti	-4433
neen	-4434
umsi	-4435
ዎታል።	-4436
▁መነፅ	-4437
▁ሻንጣ	-4438
▁ቡድን	-4439
atama	-4440
▁አለህ።	-4441
▁አልበላ	-4442
▁ከሶስት	-4443
▁Tokko	-4444
▁bitaa	-4445
▁mudaa	-4446
▁መፃህፍት	-4447
▁ግንኙነት	-4448
▁hirribaa	-4449
▁murteesse	-4450
ሬታ	-4451
ዲት	-4452
ent	-4453
▁Ob	-4454
▁de	-4455
▁ምግ	-4456
▁ጋዜ	-4457
▁lol	-4458
▁ችግሩ	-4459
▁የድሮ	-4460
▁fufe	-4461
▁ነበርክ	-4462
▁አላገኘ	-4463
▁ወላጆቼ	-4464
▁darbee	-4465
▁Baabura	-4466
▁Bilbila	-4467
▁doktora	-4468
▁uffatte	-4469
መቱ	-4470
ሩኝ	-4471
ራ።	-4472
ነሱ	-4473
ጠላ	-4474
ፀዳ	-4475
▁ጊ	-4476
org	-4477
▁ሃሳ	-4478
▁መገ	-4479
▁ታም	-4480
▁ጣፋጭ	-4481
▁ትኩረት	-4482
▁አልነበ	-4483
▁Warra	-4484
▁goota	-4485
▁tapha	-4486
▁መኪናውን	-4487
▁saandu	-4488
▁ታደርጋለህ	-4489
▁እናመሰግና	-4490
▁wayinii	-4491
▁barachaa	-4492
▁hojjedheera	-4493
ro	-4494
ላቀ	-4495
ኩም	-4496
ራፊክ	-4497
ብላት	-4498
ቦችን	-4499
ውጣት	-4500
choo	-4501
eekk	-4502
ፈለግክ	-4503
▁man	-4504
▁መፅሃ	-4505
▁በርሳ	-4506
▁ጠበቃ	-4507
▁cicc	-4508
▁have	-4509
▁ችግሩን	-4510
▁የእግር	-4511
▁galch	-4512
▁kabaj	-4513
▁አስቀድሜ	-4514
▁maraat	-4515
▁Sababni	-4516
▁gammada	-4517
▁akkasuma	-4518
▁ያስፈልግዎታል	-4519
▁dandeettii	-4520
▁dubbachuuf	-4521
▁Faransaayiin	-4522
qo	-4523
ባይ	-4524
ele	-4525
ራል።	-4526
ብሰል	-4527
ቧል።	-4528
▁አቀ	-4529
ከባከብ	-4530
▁Gab	-4531
▁ሚስጥ	-4532
▁የምር	-4533
▁ያገኘ	-4534
▁ይሻል	-4535
chaan	-4536
▁ለሁሉም	-4537
▁ትላንት	-4538
▁አይሰማ	-4539
▁የትኛው	-4540
onitti	-4541
▁Waraan	-4542
▁godhaa	-4543
▁ijooll	-4544
▁ሰምቻለሁ።	-4545
▁አልፈልግም	-4546
▁ጥያቄዎችን	-4547
▁አደንቃለሁ።	-4548
▁Wantoonni	-4549
▁liqeessuu	-4550
▁dadhabeera	-4551
▁dubbachuun	-4552
id	-4553
ላሳ	-4554
ገነ	-4555
000	-4556
▁20	-4557
▁me	-4558
▁ጥር	-4559
▁ቅሬታ	-4560
attaa	-4561
▁gale	-4562
▁koma	-4563
▁quuf	-4564
▁ቅዳሜና	-4565
▁ክረምት	-4566
isiisa	-4567
▁galuu	-4568
▁humna	-4569
▁dachaa	-4570
▁deemsa	-4571
▁hundaa	-4572
▁maxxan	-4573
▁roobaa	-4574
stonitti	-4575
▁nyaanne	-4576
▁ትመስላለህ።	-4577
▁Guyyoota	-4578
▁Walgahii	-4579
▁saanduqa	-4580
▁jaalallee	-4581
▁barreessaa	-4582
▁bareedaadha	-4583
ስቃ	-4584
ከሰት	-4585
▁10	-4586
▁Du	-4587
ooti	-4588
ሻለሁ።	-4589
ተሃል።	-4590
▁በቀር	-4591
▁ቢሆን	-4592
▁ትሄዳ	-4593
▁አይታ	-4594
▁ይሞክ	-4595
isuun	-4596
▁aduu	-4597
alatti	-4598
▁keeti	-4599
▁suuta	-4600
▁እንደሆንክ	-4601
uuxannoo	-4602
▁laaqana	-4603
▁gurraacha	-4604
▁xiyyaaraa	-4605
ማል።	-4606
▁ut	-4607
▁ሸሚ	-4608
▁ትል	-4609
▁ነፋ	-4610
▁ድግ	-4611
▁ጠይ	-4612
▁Tik	-4613
▁Way	-4614
▁are	-4615
▁ራሱን	-4616
▁ስህተ	-4617
▁ስልኩ	-4618
▁ተነሳ	-4619
▁እስኪ	-4620
▁እችል	-4621
▁የእኛ	-4622
uutti	-4623
▁Guut	-4624
▁eege	-4625
▁Natti	-4626
▁walga	-4627
▁መልእክት	-4628
▁እያሰብኩ	-4629
▁gurbaa	-4630
▁torbee	-4631
▁እንግሊዝኛ	-4632
spitaala	-4633
▁Intalti	-4634
▁uffatee	-4635
▁Duraanis	-4636
ርድ	-4637
ተሩ	-4638
ኖሩ	-4639
▁ጓ	-4640
ቆየት	-4641
ቻለሁ	-4642
ፈቅድ	-4643
▁Ka	-4644
▁Duu	-4645
▁ልጆቹ	-4646
ubbii	-4647
ግጠኝነት	-4648
▁waam	-4649
▁ወላጆች	-4650
arraan	-4651
eeskii	-4652
▁gudda	-4653
▁seera	-4654
▁ማረጋገጥ	-4655
▁የትኛውን	-4656
poortii	-4657
▁Hammam	-4658
▁Obboleessa	-4659
▁kofalchiis	-4660
▁Boostonitti	-4661
ሙ።	-4662
ሎችን	-4663
ቀበል	-4664
ዶችን	-4665
ገንዘ	-4666
▁ታማ	-4667
hiin	-4668
▁Mil	-4669
▁Muk	-4670
▁aww	-4671
▁tir	-4672
▁umm	-4673
▁ስለሱ	-4674
▁ቤቱን	-4675
▁እሰራ	-4676
▁ድመት	-4677
atame	-4678
▁kuta	-4679
▁qusa	-4680
▁በኣለም	-4681
eessit	-4682
▁Dubar	-4683
▁Gamma	-4684
▁የማውቀው	-4685
▁አምናለሁ።	-4686
▁አይቻለሁ።	-4687
▁jaalala	-4688
▁Wantoota	-4689
▁qabachuu	-4690
▁Yoomiyyuu	-4691
ca	-4692
ዮን	-4693
ጠው	-4694
san	-4695
ረዋል	-4696
ደረሰ	-4697
▁ሞኝ	-4698
▁ስታ	-4699
▁ብታ	-4700
▁ጥን	-4701
jjab	-4702
tuun	-4703
ብኛል።	-4704
▁እገዛ	-4705
▁ጠየቅ	-4706
amuuf	-4707
▁Abaa	-4708
▁መሳሪያ	-4709
▁መክፈል	-4710
▁qaala	-4711
▁የሆነውን	-4712
▁taatee	-4713
▁yaadee	-4714
▁Guyyaan	-4715
▁Jijjiir	-4716
▁dirqama	-4717
▁yaadadha	-4718
▁በእርግጠኝነት	-4719
▁Dhugaatii	-4720
▁jaallatti	-4721
ውም	-4722
ጋይ	-4723
ታቸው	-4724
ንፋን	-4725
ጋችሁ	-4726
▁Wh	-4727
▁od	-4728
▁ይበ	-4729
▁ሀኪም	-4730
▁አልፎ	-4731
▁አገኛ	-4732
eerum	-4733
teela	-4734
▁Fakk	-4735
▁duuba	-4736
▁ገንዘቡን	-4737
▁sanaan	-4738
▁bilbiluu	-4739
▁hojjetame	-4740
▁Hiriyoonni	-4741
ለብ	-4742
ሪክ	-4743
ሰቃ	-4744
ጨት	-4745
ከውን	-4746
ዋለሁ	-4747
ገባኝ	-4748
▁ሃይ	-4749
▁ልጃ	-4750
▁ችሎ	-4751
▁አሏ	-4752
▁ይሄ	-4753
▁ጥፋ	-4754
,000	-4755
lloo	-4756
▁Dhi	-4757
▁በእሱ	-4758
▁አዲሱ	-4759
▁እይታ	-4760
amtee	-4761
oosaa	-4762
▁Daan	-4763
▁ball	-4764
▁hogg	-4765
▁መግባት	-4766
▁አድራሻ	-4767
▁ጦርነት	-4768
▁imala	-4769
▁immoo	-4770
▁ልጠይቅህ	-4771
▁ከእነዚህ	-4772
▁hunduu	-4773
▁nyaatu	-4774
▁seeraa	-4775
▁hawwata	-4776
▁gargaaraa	-4777
▁hojjettee	-4778
▁barbaachisaadha	-4779
መና	-4780
ኩትን	-4781
▁Ee	-4782
▁ህዝ	-4783
▁ሌሊ	-4784
▁በብ	-4785
▁ጠየ	-4786
▁Tas	-4787
▁መጠጥ	-4788
▁ታላቅ	-4789
▁ትሆና	-4790
▁የቅር	-4791
▁በበረዶ	-4792
▁እባክዎ	-4793
▁ወንበር	-4794
▁የነበረ	-4795
▁ያደረግ	-4796
▁bahee	-4797
▁ስለነበር	-4798
iilmiin	-4799
▁dhufte	-4800
▁gootan	-4801
▁እንደሆንኩ	-4802
▁argadhu	-4803
▁Muuziqaa	-4804
▁qabeessa	-4805
▁አልነበረኝም።	-4806
ልባ	-4807
ባብ	-4808
ንጫ	-4809
ኪዮ	-4810
ፈስ	-4811
ree	-4812
ርስቲ	-4813
▁ተው	-4814
▁ናት	-4815
fiin	-4816
▁Bee	-4817
▁was	-4818
▁ሃሳብ	-4819
▁ወንጀ	-4820
siise	-4821
ሬያለሁ።	-4822
▁አጣሁ።	-4823
eetiin	-4824
▁amala	-4825
▁dhork	-4826
▁gorsa	-4827
▁መስኮቱን	-4828
▁ነበረው።	-4829
amarran	-4830
▁hammam	-4831
▁Abaaboo	-4832
▁Buufata	-4833
▁Shaayii	-4834
▁dhabuun	-4835
▁karoora	-4836
▁mijataa	-4837
▁Addunyaa	-4838
▁Balballi	-4839
▁dhiiseen	-4840
▁dubbisaa	-4841
▁qabuudha	-4842
ሄዱ	-4843
ነቀ	-4844
መስል	-4845
▁ko	-4846
▁ሀሳ	-4847
▁ተጋ	-4848
▁ፈር	-4849
oogi	-4850
▁Mar	-4851
▁lam	-4852
▁not	-4853
▁xur	-4854
▁ተግባ	-4855
▁አሉት	-4856
▁እሷን	-4857
▁ያለብ	-4858
▁Hogg	-4859
▁ሳይሆን	-4860
▁እንድን	-4861
▁dhuma	-4862
▁garee	-4863
▁miliq	-4864
▁አውቶቡስ	-4865
▁galmee	-4866
▁ofitti	-4867
▁suukan	-4868
▁nyaadhu	-4869
ቡት	-4870
ነገ	-4871
ገል	-4872
በዋል	-4873
▁የፀ	-4874
▁ይሸ	-4875
▁her	-4876
▁ibs	-4877
▁ሰላም	-4878
▁ሳጥን	-4879
▁ከጓደ	-4880
▁ይጫወ	-4881
▁ጊታር	-4882
▁Lamm	-4883
▁cacc	-4884
▁ባለቤቴ	-4885
▁አትክል	-4886
ootaaf	-4887
▁caala	-4888
▁eegal	-4889
▁ነበረች።	-4890
▁አድርጓል።	-4891
▁አገኘሁት።	-4892
▁Seenaan	-4893
▁dhangala	-4894
▁hojiitti	-4895
▁Qorqorroo	-4896
▁yaadachuu	-4897
መኝ	-4898
ኔን	-4899
እም	-4900
ela	-4901
isu	-4902
▁መላ	-4903
▁ምላ	-4904
▁ቆር	-4905
▁ዳግ	-4906
imni	-4907
tira	-4908
ukaa	-4909
ሰራም።	-4910
▁tuq	-4911
▁ሌሎች	-4912
▁ሰላሳ	-4913
▁ተረድ	-4914
arsii	-4915
▁Paar	-4916
▁sirb	-4917
▁soba	-4918
▁afeer	-4919
▁mucaa	-4920
▁እሄዳለሁ	-4921
▁እናደርጋ	-4922
irratti	-4923
▁Qoosaa	-4924
▁baatee	-4925
▁ይሻልሃል።	-4926
▁Galgala	-4927
▁paarkii	-4928
▁Barsiisaan	-4929
ሃን	-4930
ምጃ	-4931
በሳ	-4932
ገለ	-4933
ጥሞ	-4934
ጥፎ	-4935
▁ሪ	-4936
▁Fe	-4937
▁የሞ	-4938
▁የጎ	-4939
▁ለፊት	-4940
▁ቆሻሻ	-4941
▁ተስማ	-4942
▁ተዘግ	-4943
▁አይቼ	-4944
▁buuf	-4945
▁dide	-4946
▁siin	-4947
▁ሰማያዊ	-4948
▁አይገባ	-4949
▁goonu	-4950
▁ለመጨረሻ	-4951
▁መድሃኒት	-4952
▁በድንገት	-4953
▁ተሰማኝ።	-4954
▁ይቅርታ፣	-4955
▁baabura	-4956
▁qabamee	-4957
taniittuu	-4958
▁እናመሰግናለን።	-4959
▁Biskileetii	-4960
ሳቱ	-4961
ኳር	-4962
ወቀ	-4963
ፃፈ	-4964
ter	-4965
ረዳው	-4966
ረጋግ	-4967
ሳለሁ	-4968
ንቀሳ	-4969
ከረ።	-4970
ግባት	-4971
▁su	-4972
▁ቤቴ	-4973
▁ችላ	-4974
▁ከው	-4975
▁የደ	-4976
iyoo	-4977
sona	-4978
ራለች።	-4979
▁በልጅ	-4980
▁በማለ	-4981
▁በስራ	-4982
▁እኔና	-4983
▁እየጨ	-4984
elevi	-4985
▁Moot	-4986
▁aanu	-4987
▁eegu	-4988
▁wall	-4989
▁መቀመጫ	-4990
▁Dafee	-4991
▁የተሳሳተ	-4992
▁Milkaa	-4993
▁isaati	-4994
▁Akkamittan	-4995
ሳስ	-4996
ሷን	-4997
ቀዝ	-4998
▁3	-4999
▁ጆ	-5000
ess	-5001
ህም።	-5002
ወሰን	-5003
ደረጉ	-5004
ፍራም	-5005
▁ቁጥ	-5006
▁ተሰ	-5007
▁ቲቪ	-5008
▁ቶሎ	-5009
▁ፅሁ	-5010
edha	-5011
isee	-5012
መጣም።	-5013
▁bif	-5014
▁መከረ	-5015
▁ቀሚስ	-5016
▁laaf	-5017
▁ተናገረ	-5018
▁ችግሮች	-5019
▁እየሆነ	-5020
▁ኩባንያ	-5021
baatti	-5022
▁ciree	-5023
▁daree	-5024
▁duruu	-5025
▁fidaa	-5026
▁ሁላችሁም	-5027
▁አልችልም	-5028
▁አገኘሁ።	-5029
▁abbaan	-5030
▁machaa	-5031
▁umriin	-5032
▁warraa	-5033
▁ilaallu	-5034
▁አይፈልግም።	-5035
▁hundatti	-5036
▁gaafatamummaa	-5037
ሮው	-5038
ቡር	-5039
ያዩ	-5040
ugg	-5041
ሪያው	-5042
ዎትም	-5043
▁ኋላ	-5044
▁አሻ	-5045
▁ደወ	-5046
chif	-5047
ድርግ።	-5048
▁ሴቶች	-5049
▁ታክሲ	-5050
▁Ilmi	-5051
▁arga	-5052
▁himu	-5053
▁quba	-5054
▁ቀድሞው	-5055
jiinii	-5056
▁Biyya	-5057
▁Imala	-5058
▁barre	-5059
▁fiduu	-5060
▁ጠየቀኝ።	-5061
▁cimaan	-5062
▁keetti	-5063
▁በጠረጴዛው	-5064
▁Anillee	-5065
▁dadhabe	-5066
▁lakkoof	-5067
▁qorraan	-5068
▁አውስትራሊያ	-5069
▁Fiilmiin	-5070
▁gidduutti	-5071
▁dagadheera	-5072
ረታ	-5073
የሁ	-5074
▁ሾ	-5075
ሶችን	-5076
▁We	-5077
▁ኢን	-5078
▁የሁ	-5079
▁የቆ	-5080
▁የፍ	-5081
jaaj	-5082
ksii	-5083
▁gan	-5084
▁ሆቴል	-5085
▁ቅርብ	-5086
▁በስተ	-5087
dhiin	-5088
▁Saan	-5089
▁aann	-5090
▁imal	-5091
▁this	-5092
▁ሌሊቱን	-5093
eeraan	-5094
▁Mucaa	-5095
▁himte	-5096
▁በሳምንት	-5097
▁ያስፈልጋ	-5098
▁ይሄዳል።	-5099
aggeeff	-5100
▁aannan	-5101
▁እየሞከርኩ	-5102
▁gowwoom	-5103
▁meeshaa	-5104
▁cimaadha	-5105
▁dhiisuun	-5106
▁gaafadhu	-5107
▁Kitaabicha	-5108
መመ	-5109
ቃወ	-5110
ባረ	-5111
ነቴ	-5112
ሳል።	-5113
ቶቡስ	-5114
▁Ha	-5115
▁Og	-5116
▁ለስ	-5117
▁በክ	-5118
▁በዛ	-5119
▁ከቀ	-5120
▁ጤና	-5121
siin	-5122
▁mis	-5123
▁qaj	-5124
▁ባህሪ	-5125
▁እመለ	-5126
▁እቤት	-5127
▁ውሸት	-5128
▁ጉዳት	-5129
▁ጣእም	-5130
▁ጭንቅ	-5131
alaan	-5132
orgom	-5133
▁Xiyy	-5134
▁reef	-5135
▁ሰኣታት	-5136
▁ከመጠን	-5137
▁የጃፓን	-5138
▁ያስቀም	-5139
unyaan	-5140
▁gahuu	-5141
▁roobe	-5142
▁silaa	-5143
▁እርስዎን	-5144
▁ይለኛል።	-5145
▁Karoor	-5146
▁Dargagg	-5147
▁bineens	-5148
▁hafuura	-5149
▁poolisii	-5150
▁አያስፈልገኝም።	-5151
ነቅ	-5152
ድና	-5153
ለተኛ	-5154
ስቃሴ	-5155
ቤተሰ	-5156
▁ግጥ	-5157
▁Amm	-5158
▁ብሆን	-5159
▁ታስባ	-5160
▁አውቀ	-5161
▁ያሉት	-5162
▁Took	-5163
▁Yaal	-5164
▁tuff	-5165
▁ልትነግ	-5166
▁ስድስት	-5167
▁ተኛሁ።	-5168
▁አልሄድ	-5169
▁ወፍራም	-5170
▁ጉንፋን	-5171
▁Hirri	-5172
▁yaala	-5173
▁አውቃለሁ	-5174
▁ደክሞኛል	-5175
▁kaasee	-5176
▁tiraaf	-5177
▁Nyaanni	-5178
▁magaalattii	-5179
ሊስ	-5180
መህ	-5181
ሮቹ	-5182
ሸጥ	-5183
ሽር	-5184
ናሽ	-5185
ካክ	-5186
ዶቹ	-5187
ilb	-5188
ሰማኝ	-5189
በላሽ	-5190
ቶቹን	-5191
ንቀቅ	-5192
ወገድ	-5193
▁ለዛ	-5194
▁ተቆ	-5195
otaa	-5196
ኩትም።	-5197
▁Hii	-5198
iigal	-5199
oores	-5200
▁ሰማሁ።	-5201
▁ስለዚያ	-5202
▁በሁሉም	-5203
▁Abdii	-5204
▁ነበረኝ።	-5205
▁ይሰራል።	-5206
▁Balaan	-5207
▁reefuu	-5208
▁ከትምህርት	-5209
▁Laaqana	-5210
▁koottaa	-5211
▁tasumaa	-5212
▁xalayaa	-5213
▁Karoorri	-5214
▁jabeessa	-5215
ኩለ	-5216
▁ጡ	-5217
rra	-5218
ሄደው	-5219
ስዎን	-5220
ጀምራ	-5221
ጋጣሚ	-5222
▁አሮ	-5223
▁እዳ	-5224
▁ወታ	-5225
▁የኣ	-5226
▁Haf	-5227
▁pir	-5228
▁አሳየ	-5229
▁አስብ	-5230
▁ፈጣን	-5231
▁አሰልቺ	-5232
▁አብረው	-5233
▁እጠብቃ	-5234
▁ይመልከ	-5235
▁ibsuu	-5236
▁ijaan	-5237
▁liqii	-5238
▁sagal	-5239
▁እንዳለህ	-5240
▁Borsaa	-5241
▁turtee	-5242
▁Achitti	-5243
▁argitee	-5244
▁qoricha	-5245
▁yaaddaa	-5246
▁ያስፈልገዋል	-5247
▁dhagahamu	-5248
▁Obboleettii	-5249
ነ።	-5250
ፋር	-5251
▁ኑ	-5252
▁ዩ	-5253
ስበው	-5254
ቻችን	-5255
▁ረድ	-5256
▁ተር	-5257
▁ጥቅ	-5258
▁በቀን	-5259
▁በተለ	-5260
▁ኩባያ	-5261
▁ወሰደ	-5262
amuun	-5263
iyoon	-5264
▁በባህር	-5265
▁አስቀም	-5266
▁አስፈሪ	-5267
▁አቁም።	-5268
▁እናውቃ	-5269
▁እንሄዳ	-5270
eettaa	-5271
ubbiin	-5272
▁rooba	-5273
▁utaal	-5274
▁ብሎኛል።	-5275
▁ቴሌቪዥን	-5276
▁አስደናቂ	-5277
▁እወዳለሁ	-5278
▁dallaa	-5279
▁heerum	-5280
▁Deebiin	-5281
▁Umuriin	-5282
▁beektuu	-5283
▁ogummaa	-5284
▁yaadadhu	-5285
▁Jaalallee	-5286
▁dargaggeessa	-5287
ሎት	-5288
ቧን	-5289
ኒው	-5290
ንሰ	-5291
ካሽ	-5292
ጎበ	-5293
rom	-5294
ያለሁ	-5295
ጨነቃ	-5296
▁ራስ	-5297
▁ቀረ	-5298
▁ተዋ	-5299
▁ነግ	-5300
ደርጉት	-5301
▁Ken	-5302
▁for	-5303
▁ላለመ	-5304
▁ቀልድ	-5305
▁አሸን	-5306
▁የእጅ	-5307
▁ግድግ	-5308
antaa	-5309
zexaa	-5310
▁ያለብኝ	-5311
▁Ilaal	-5312
▁qabuu	-5313
▁ማስታወሻ	-5314
▁በአትክል	-5315
▁አይተሃል	-5316
▁Foddaa	-5317
▁roobuu	-5318
▁caalaan	-5319
▁dhaabuu	-5320
▁hawwatu	-5321
▁Tookiyoo	-5322
▁ilaaluuf	-5323
▁Asirratti	-5324
▁dhageenye	-5325
ሏል	-5326
ራብ	-5327
ፖር	-5328
▁ከጠ	-5329
▁የሙ	-5330
▁የጠ	-5331
soos	-5332
ናገር።	-5333
ጃለሁ።	-5334
▁sim	-5335
▁መሬት	-5336
▁መኝታ	-5337
▁ተጫዋ	-5338
▁ችሎታ	-5339
▁አቁም	-5340
▁ክፍሌ	-5341
▁saam	-5342
iseera	-5343
▁Asoos	-5344
▁እንስሳት	-5345
▁ጥያቄዎች	-5346
▁deeman	-5347
▁dhaquu	-5348
▁himuuf	-5349
▁miilaan	-5350
▁አግኝቻለሁ።	-5351
▁hogganaa	-5352
▁nageenya	-5353
▁barachuuf	-5354
በ።	-5355
ያቂ	-5356
ጣሉ	-5357
ፅፍ	-5358
▁እጥ	-5359
▁ጎረ	-5360
ዎትም።	-5361
ገንዘብ	-5362
▁Ach	-5363
▁baq	-5364
▁can	-5365
▁ለማጥ	-5366
▁ማብራ	-5367
▁በገና	-5368
▁ብለን	-5369
▁ነበራ	-5370
▁አውቅ	-5371
▁እብድ	-5372
▁ይደር	-5373
▁ድመቷ	-5374
▁ድንቅ	-5375
▁ጣቢያ	-5376
essaa	-5377
▁Dhii	-5378
▁soor	-5379
▁ልረዳህ	-5380
▁በተቻለ	-5381
▁ነበር፣	-5382
▁baane	-5383
▁ergaa	-5384
▁oofuu	-5385
▁ስብሰባው	-5386
▁አላቸው።	-5387
▁ጠረጴዛው	-5388
▁turuuf	-5389
▁እያንዳንዱ	-5390
▁Iccitii	-5391
▁gorsite	-5392
▁rakkina	-5393
▁barumsaatti	-5394
ስቶ	-5395
ግሩ	-5396
▁መጨ	-5397
▁ማለ	-5398
▁ስን	-5399
▁በድ	-5400
▁ዝቅ	-5401
▁የኮ	-5402
▁ይን	-5403
kiin	-5404
▁በአደ	-5405
▁የውጭ	-5406
▁ይውሰ	-5407
▁ጀመር	-5408
amtii	-5409
▁sadd	-5410
▁ሞከረ።	-5411
▁እርምጃ	-5412
▁እንገና	-5413
▁Sirba	-5414
▁ይመጣል።	-5415
▁akeekk	-5416
▁biiraa	-5417
▁ይናገራል።	-5418
aashinii	-5419
▁fudhatu	-5420
▁kanatti	-5421
▁piyaanoo	-5422
▁jijjiiruu	-5423
▁yoomiyyuu	-5424
ተን	-5425
ንጉ	-5426
ዲስ	-5427
car	-5428
ማመን	-5429
ምንም	-5430
▁ሀይ	-5431
▁ባይ	-5432
▁እቆ	-5433
iyee	-5434
▁Pir	-5435
▁ስእል	-5436
▁ተቀመ	-5437
▁አስራ	-5438
▁አቅር	-5439
▁አነሳ	-5440
▁እነሱ	-5441
uuzii	-5442
▁ለአንተ	-5443
▁ምልክት	-5444
▁አልፈለ	-5445
▁ይሰራል	-5446
▁Ganna	-5447
▁Mataa	-5448
▁eegga	-5449
▁liqim	-5450
▁መሰለኝ።	-5451
▁መንገዱን	-5452
▁በጥንቃቄ	-5453
▁caccab	-5454
▁geenye	-5455
▁hamaan	-5456
▁ነበረበት።	-5457
▁አይወድም።	-5458
▁እንቅስቃሴ	-5459
▁ይበልጣል።	-5460
aalaatti	-5461
garummaa	-5462
▁filadha	-5463
▁qabadhu	-5464
▁biraatti	-5465
▁kanarraa	-5466
▁Qurxummii	-5467
▁fudhachuuf	-5468
▁ulfaataadha	-5469
መራ	-5470
ቦል	-5471
ኖረ	-5472
ከለ	-5473
ተኞች	-5474
ናደድ	-5475
▁30	-5476
▁Ib	-5477
▁ህግ	-5478
▁ማህ	-5479
▁ማረ	-5480
▁ሽጉ	-5481
▁Lol	-5482
▁Raa	-5483
▁መብት	-5484
▁ስለተ	-5485
eessu	-5486
ችኋለሁ።	-5487
▁Achi	-5488
▁Kaam	-5489
▁foon	-5490
▁ብስክሌ	-5491
▁አማራጭ	-5492
▁እየሄድ	-5493
▁የሆነው	-5494
▁የተሞላ	-5495
▁baase	-5496
▁fiige	-5497
▁gamoo	-5498
▁ሞከርኩ።	-5499
▁Waadaa	-5500
▁hangas	-5501
▁አዝናለሁ።	-5502
▁እንዳደርግ	-5503
▁Simbirr	-5504
▁fincaan	-5505
▁gammade	-5506
▁iccitii	-5507
▁meeqatu	-5508
▁Daandiin	-5509
▁nyaachaa	-5510
▁kitaabota	-5511
xa	-5512
ዘው	-5513
ጋጠ	-5514
▁'	-5515
ውሰድ	-5516
ገኘው	-5517
▁id	-5518
▁መጋ	-5519
▁አወ	-5520
▁ይባ	-5521
▁ጠር	-5522
በትም።	-5523
▁gab	-5524
▁jah	-5525
▁kut	-5526
▁የትም	-5527
▁ገበያ	-5528
▁Dald	-5529
▁bifa	-5530
▁ማብሰል	-5531
▁አደርገ	-5532
▁አድርጎ	-5533
▁abjuu	-5534
▁roobu	-5535
▁ማንኛውም	-5536
▁እንሂድ።	-5537
▁እየጠበቅ	-5538
▁ይሻላል።	-5539
▁ይወዳሉ።	-5540
agantaa	-5541
eessaan	-5542
oogidda	-5543
▁Ayyaan	-5544
▁argina	-5545
▁kamiin	-5546
▁qabate	-5547
▁turuun	-5548
▁waraan	-5549
▁በትምህርት	-5550
▁Meeshaa	-5551
▁guyyoota	-5552
▁qaruuraa	-5553
▁barbaaddan	-5554
ማረ	-5555
ንኩ	-5556
ክብ	-5557
ለዋል	-5558
▁ማእ	-5559
▁ስጠ	-5560
▁አጎ	-5561
▁ካለ	-5562
eeyy	-5563
▁hoo	-5564
▁በታች	-5565
▁አላስ	-5566
▁Aann	-5567
▁boqo	-5568
▁ሁለተኛ	-5569
▁መንሸራ	-5570
▁ማሳለፍ	-5571
▁የመኪና	-5572
itaara	-5573
▁Fuula	-5574
▁rafuu	-5575
▁sirra	-5576
▁በአጋጣሚ	-5577
▁አልነበር	-5578
▁አውቶቡሱ	-5579
▁አይችሉም	-5580
▁እራስህን	-5581
▁የተለመደ	-5582
▁Murtoo	-5583
▁qabame	-5584
▁አይደለህም	-5585
▁yaaddoo	-5586
▁eenyuuti	-5587
▁dhugaadha	-5588
ካኝ	-5589
ong	-5590
our	-5591
▁ሂሳ	-5592
▁መቶ	-5593
▁ራሴ	-5594
▁ባት	-5595
▁ተም	-5596
▁ከሚ	-5597
▁ከፈ	-5598
▁ያዝ	-5599
taaf	-5600
▁mal	-5601
▁መሮጥ	-5602
▁ስኳር	-5603
▁እህት	-5604
▁እስክ	-5605
▁እሷም	-5606
▁hirk	-5607
▁oduu	-5608
▁ለጥቂት	-5609
▁መነፅር	-5610
▁ሰጠኝ።	-5611
▁በማለዳ	-5612
▁በከተማ	-5613
▁በፓርኩ	-5614
▁አንዱን	-5615
▁የሚወዱ	-5616
▁የትርፍ	-5617
▁ደረሰ።	-5618
▁cabse	-5619
▁seenu	-5620
▁አደረገ።	-5621
▁Aannan	-5622
▁Tamboo	-5623
▁gochaa	-5624
▁seenuu	-5625
▁ለመጀመሪያ	-5626
▁የመጨረሻው	-5627
attamaan	-5628
▁argamne	-5629
▁waggoota	-5630
▁agarsiisa	-5631
▁jiraachaa	-5632
▁nyaachuun	-5633
▁qilleensa	-5634
▁tasgabbaa	-5635
▁yoomiitti	-5636
▁meeshaalee	-5637
▁qabadheera	-5638
ht	-5639
ለቲ	-5640
ሌጅ	-5641
ቀበ	-5642
ቀኝ	-5643
የ።	-5644
ila	-5645
ረፍተ	-5646
ንገድ	-5647
▁ለሰ	-5648
▁ማሽ	-5649
▁ምኞ	-5650
▁አቆ	-5651
▁ጎዳ	-5652
aarf	-5653
ብሰባው	-5654
▁kak	-5655
▁war	-5656
▁ርካሽ	-5657
▁ሳምን	-5658
▁ስላል	-5659
▁እሞክ	-5660
▁እየሞ	-5661
aaboo	-5662
atamu	-5663
▁በሶስት	-5664
▁ንግግር	-5665
▁የማይታ	-5666
▁የበረዶ	-5667
ukaasa	-5668
▁Booda	-5669
▁lafaa	-5670
▁yaalu	-5671
▁እንዳንተ	-5672
▁የምችለው	-5673
▁ይገባል።	-5674
▁Waliin	-5675
▁sadiif	-5676
▁እንደሚያስ	-5677
▁Maatiin	-5678
▁abaaboo	-5679
▁baankii	-5680
▁dhumaaf	-5681
▁kennine	-5682
▁amanamaa	-5683
▁daraaraa	-5684
▁gaafadha	-5685
▁አያስፈልግም።	-5686
▁fincaanii	-5687
ንታ	-5688
ኣት	-5689
ይና	-5690
ቀድሞ	-5691
ነቱን	-5692
ገኝህ	-5693
▁ለወ	-5694
▁ሱቅ	-5695
▁በፖ	-5696
▁ብን	-5697
▁ፃፍ	-5698
▁ፍሬ	-5699
▁ሃላፊ	-5700
▁ተራራ	-5701
▁አያቴ	-5702
▁ኣለም	-5703
isuuf	-5704
ርስቲያን	-5705
▁Foon	-5706
▁Gaar	-5707
▁kuma	-5708
▁ለማወቅ	-5709
▁ተጠያቂ	-5710
▁ወረቀት	-5711
▁የሚችል	-5712
attiin	-5713
ibaati	-5714
▁Sagal	-5715
▁baruu	-5716
▁gogaa	-5717
▁gurgu	-5718
▁ቀድሞውኑ	-5719
▁እንዲሆን	-5720
▁Gareen	-5721
▁Magaal	-5722
▁daakuu	-5723
▁furdaa	-5724
▁murtoo	-5725
▁የለብህም።	-5726
▁Hirriba	-5727
▁deeskii	-5728
▁kunooti	-5729
▁ofumaan	-5730
▁አይደለንም።	-5731
▁Akaakayy	-5732
▁Bilbilli	-5733
▁Doktarri	-5734
elevijiinii	-5735
ብቅ	-5736
ደገ	-5737
ፍር	-5738
now	-5739
ሆንክ	-5740
ረጋጋ	-5741
▁ስኬ	-5742
▁ቸኮ	-5743
▁ወለ	-5744
▁ጀም	-5745
▁ጠበ	-5746
amtu	-5747
በታል።	-5748
▁don	-5749
▁qal	-5750
▁saf	-5751
▁tuu	-5752
▁የስራ	-5753
▁olka	-5754
▁ሄድኩ።	-5755
▁መከላከ	-5756
▁ማጥፋት	-5757
▁አልሰማ	-5758
▁የቅርብ	-5759
▁mirga	-5760
▁እንደምታ	-5761
▁እየፈለግ	-5762
▁ደቂቃዎች	-5763
▁Kennaa	-5764
▁dhuftu	-5765
▁አደርጋለሁ	-5766
lleejjii	-5767
▁Wayinii	-5768
▁እናውቃለን።	-5769
▁Barreeff	-5770
▁Hiriyaan	-5771
▁dubbatte	-5772
▁kaffaluu	-5773
▁qormaata	-5774
▁Walgahiin	-5775
▁keenyayyuu	-5776
ji	-5777
ሩህ	-5778
ራይ	-5779
ይዛ	-5780
koo	-5781
ራቢያ	-5782
ናንተ	-5783
ጨረቃ	-5784
▁It	-5785
▁Ul	-5786
▁ቢላ	-5787
▁እጄ	-5788
ቸዋል።	-5789
▁did	-5790
▁ሀገር	-5791
▁ለማሳ	-5792
▁በራሴ	-5793
▁ነሽ።	-5794
▁አቀረ	-5795
▁ከማን	-5796
▁የሚል	-5797
▁ያነሰ	-5798
▁gama	-5799
▁በክፍሉ	-5800
▁የወንድ	-5801
▁Ciree	-5802
▁badaa	-5803
▁ታስባለህ	-5804
ukkaara	-5805
uuziyee	-5806
▁amanne	-5807
▁geessu	-5808
▁ሰርቻለሁ።	-5809
▁አይሆንም።	-5810
▁Jalqaba	-5811
▁keenyaa	-5812
▁የሚያስፈልገ	-5813
▁deebisee	-5814
▁dubbannu	-5815
▁hawwataa	-5816
▁Lakkoofsi	-5817
▁barachuun	-5818
▁jiraachuun	-5819
zi	-5820
ሀኝ	-5821
መኛ	-5822
ካማ	-5823
ዞር	-5824
ጣሪ	-5825
ሽም።	-5826
ቀዝቀ	-5827
በላው	-5828
ቦቹን	-5829
ቱንም	-5830
▁ቀስ	-5831
▁በኮ	-5832
▁አነ	-5833
▁ያኔ	-5834
▁ይል	-5835
▁ጫጫ	-5836
ህንነት	-5837
▁Ibi	-5838
▁ምላሽ	-5839
▁ባህር	-5840
▁ትልቁ	-5841
▁አራት	-5842
▁ግብዣ	-5843
xaxaa	-5844
ፌያለሁ።	-5845
▁Dhih	-5846
▁ሁኔታው	-5847
▁አጋጥሞ	-5848
▁እናንተ	-5849
▁ከጥቂት	-5850
▁ክብደት	-5851
▁የሚሆን	-5852
eessee	-5853
tummaa	-5854
▁Garee	-5855
▁jirru	-5856
▁ነበርን።	-5857
▁ይቻላል።	-5858
ataatti	-5859
▁Biiraa	-5860
▁godhan	-5861
▁ትችላላችሁ	-5862
▁Dubbiin	-5863
▁Dambalii	-5864
▁argamuun	-5865
▁isaaniif	-5866
▁jalqabuu	-5867
▁agarsiise	-5868
▁barbaannu	-5869
▁hanqaaquu	-5870
oh	-5871
ቁት	-5872
ኮች	-5873
ዙ።	-5874
ጮህ	-5875
ፅሀ	-5876
sib	-5877
ቁረጥ	-5878
ወሰድ	-5879
ፍትሄ	-5880
▁በነ	-5881
▁ተነ	-5882
▁ናፍ	-5883
▁ንፋ	-5884
▁ከብ	-5885
▁ጠላ	-5886
anta	-5887
uroo	-5888
ሳለች።	-5889
ቀዝቀዣ	-5890
▁dig	-5891
▁ተሳስ	-5892
▁ውሾች	-5893
▁ያስደ	-5894
aasii	-5895
▁ዝርዝር	-5896
▁Chaay	-5897
▁Seera	-5898
▁ትሄዳለህ	-5899
▁ትወዳለች።	-5900
onsartii	-5901
▁Kaardii	-5902
▁nyaadha	-5903
▁dhuunfaa	-5904
▁qaroodha	-5905
▁sanaatti	-5906
▁isheetiin	-5907
▁gaafachuuf	-5908
▁kofalchiisu	-5909
▁Konkolaachis	-5910
ያት	-5911
ፋሪ	-5912
ምስት	-5913
▁we	-5914
▁ቀለ	-5915
▁ተብ	-5916
▁እጁ	-5917
▁የቴ	-5918
▁ዳቦ	-5919
▁Gam	-5920
▁but	-5921
▁fir	-5922
▁haq	-5923
▁በሚያ	-5924
▁ወታደ	-5925
amisa	-5926
▁Saff	-5927
▁falm	-5928
▁morm	-5929
▁ለመማር	-5930
▁ማጥናት	-5931
▁በጉጉት	-5932
▁ወንድም	-5933
▁sirba	-5934
▁በእንግሊ	-5935
▁አስቀድሞ	-5936
▁የማይቻል	-5937
▁ፈተናውን	-5938
▁Kubbaa	-5939
▁dhiisi	-5940
▁ibidda	-5941
▁qawwee	-5942
▁sirbuu	-5943
▁በአትክልቱ	-5944
▁ታውቃለህ።	-5945
▁hayyama	-5946
▁አልፈለኩም።	-5947
▁አይሰማኝም።	-5948
▁Sagaleen	-5949
▁dubbattu	-5950
▁hangamii	-5951
▁hojjetan	-5952
▁wantoota	-5953
▁Lakkoofsa	-5954
▁barbaadan	-5955
▁dandeessi	-5956
ሎቹ	-5957
ሮፓ	-5958
አይ	-5959
ከፈ	-5960
ያየ	-5961
ይዝ	-5962
ዮች	-5963
ጎብ	-5964
ሰጠኝ	-5965
ፋል።	-5966
▁fo	-5967
▁ለት	-5968
▁ማም	-5969
▁ቃላ	-5970
▁ነፍ	-5971
aloo	-5972
ffal	-5973
inee	-5974
ለዋል።	-5975
▁ለስራ	-5976
▁ሬዲዮ	-5977
▁በሆነ	-5978
▁አበባ	-5979
▁የአው	-5980
▁ያውቅ	-5981
▁ይደው	-5982
▁ጨለማ	-5983
shiin	-5984
▁Muka	-5985
▁suph	-5986
▁ልጃገረ	-5987
▁ማንሳት	-5988
▁አልሆነ	-5989
▁ይመለከ	-5990
▁ፈለገ።	-5991
▁Miila	-5992
▁dabar	-5993
▁ለመብላት	-5994
▁ረሳሁት።	-5995
▁Kaffal	-5996
▁michuu	-5997
▁ሁለታችንም	-5998
▁በማንኛውም	-5999
▁ኮምፒውተር	-6000
▁Waraqaa	-6001
▁waraqaa	-6002
▁waraanaa	-6003
▁keenyatti	-6004
ንቱ	-6005
ካን	-6006
ኳይ	-6007
ዘዝ	-6008
ገቡ	-6009
▁ቻ	-6010
oul	-6011
ከተል	-6012
ዝቦል	-6013
▁If	-6014
▁ስነ	-6015
▁እሆ	-6016
▁ከዛ	-6017
ሰብኩም	-6018
ብኝም።	-6019
ናግርህ	-6020
▁qub	-6021
▁ቀጠሮ	-6022
▁ነፋሱ	-6023
▁አመለ	-6024
▁ደስታ	-6025
▁ድልድ	-6026
▁Dhuf	-6027
▁Dukk	-6028
▁Koph	-6029
▁turu	-6030
▁ለሁለት	-6031
▁መቀመጥ	-6032
▁ቀጠለ።	-6033
▁ተቀመጥ	-6034
▁አንዳን	-6035
▁እራሱን	-6036
▁ይገባል	-6037
zidaan	-6038
▁Kanaa	-6039
▁Siree	-6040
▁Suuta	-6041
▁xuraa	-6042
▁አልቋል።	-6043
▁የምኖረው	-6044
▁Awuroo	-6045
▁beeknu	-6046
▁fakkaa	-6047
▁nyaate	-6048
▁turtan	-6049
▁አላሰብኩም	-6050
▁እሆናለሁ።	-6051
▁የማርያምን	-6052
▁የማደርገው	-6053
iigaltee	-6054
▁Eenyutu	-6055
▁argadha	-6056
▁ibiddaa	-6057
▁ilaalle	-6058
▁jirutti	-6059
▁kanarra	-6060
▁nyaadhe	-6061
▁አመሰግናለሁ	-6062
▁Rifeensa	-6063
▁Xiyyeeff	-6064
▁agarsiif	-6065
▁dhaabbate	-6066
▁ulfaatina	-6067
▁kompiitara	-6068
ባበ	-6069
ብዛ	-6070
እር	-6071
ጠሩ	-6072
ጡን	-6073
▁ቼ	-6074
eeb	-6075
ita	-6076
ለብስ	-6077
ቸዋል	-6078
ነው።	-6079
▁ተጣ	-6080
▁ነች	-6081
▁ዘፈ	-6082
aall	-6083
ysib	-6084
ንሰርቱ	-6085
▁had	-6086
▁በኩል	-6087
▁ብቃት	-6088
▁ተገኝ	-6089
▁አሉኝ	-6090
▁የገባ	-6091
▁ያስተ	-6092
▁ጠርሙ	-6093
▁ፀሀይ	-6094
oodha	-6095
▁abda	-6096
▁adab	-6097
▁erge	-6098
▁saax	-6099
▁መንቀጥ	-6100
▁መደብር	-6101
▁መፍትሄ	-6102
▁በህይወ	-6103
▁ተመልሶ	-6104
▁አእምሮ	-6105
▁ዘግይቶ	-6106
▁የተሰራ	-6107
▁Abjuu	-6108
▁የሚያምር	-6109
alayaan	-6110
ooressa	-6111
▁kolfaa	-6112
▁umurii	-6113
▁dubbise	-6114
▁Achumaan	-6115
▁Tikeetii	-6116
▁nyaachis	-6117
▁walgahii	-6118
▁amanachuu	-6119
▁Maariyaamiif	-6120
ቅ።	-6121
ታተ	-6122
ዘዘ	-6123
ዳር	-6124
▁ዣ	-6125
ink	-6126
ለፊያ	-6127
ሳለህ	-6128
ቃላይ	-6129
▁OK	-6130
▁qo	-6131
▁ልማ	-6132
imaa	-6133
okol	-6134
yyoo	-6135
ለህም።	-6136
ዘጋጀት	-6137
ፈልጉት	-6138
▁ቤቶች	-6139
▁አለን	-6140
▁አውጥ	-6141
▁ከስራ	-6142
▁ውጤት	-6143
▁ያለኝ	-6144
▁ጥፋት	-6145
anaan	-6146
ወደውም።	-6147
▁laga	-6148
▁tole	-6149
▁ልዩነት	-6150
▁መደወል	-6151
▁ተጫዋች	-6152
▁እወስዳ	-6153
▁እየበላ	-6154
▁ከፈለጉ	-6155
▁የሚገር	-6156
▁boona	-6157
▁kaase	-6158
▁qacar	-6159
▁በስተቀር	-6160
▁Keekii	-6161
▁argame	-6162
▁baraar	-6163
▁daftee	-6164
▁tarree	-6165
▁ይመስላችኋ	-6166
▁Kanneen	-6167
▁እንደምትችል	-6168
▁akkaataa	-6169
▁barnoota	-6170
▁በአውስትራሊያ	-6171
th	-6172
ቋር	-6173
ናገ	-6174
ካት	-6175
ጓዴ	-6176
ger	-6177
jek	-6178
noo	-6179
ሸንፍ	-6180
ቋረጥ	-6181
ደደ።	-6182
▁መሀ	-6183
▁ሞት	-6184
▁እዛ	-6185
▁ከስ	-6186
▁ክራ	-6187
▁ዝና	-6188
▁ጉድ	-6189
aang	-6190
gaan	-6191
ould	-6192
መለከተ	-6193
ረንጓዴ	-6194
▁230	-6195
▁ሚስት	-6196
▁ትሰራ	-6197
▁ነግሬ	-6198
▁ከአው	-6199
▁ደረሰ	-6200
▁ጨካኝ	-6201
▁know	-6202
▁ክፍሉን	-6203
▁ውሻውን	-6204
▁ዣንጥላ	-6205
▁ጓደኞቼ	-6206
▁Amala	-6207
▁cimee	-6208
▁እንቁላል	-6209
eessite	-6210
▁bosona	-6211
▁furtuu	-6212
▁ማስተካከል	-6213
▁የፈረንሳይ	-6214
▁ifaadha	-6215
▁jedhama	-6216
▁dhumeera	-6217
▁fuuldura	-6218
▁Chaayinaa	-6219
▁dubbachaa	-6220
▁lakkoofsa	-6221
▁qilleensi	-6222
▁dandeessan	-6223
▁fudhachuun	-6224
▁gammachiisu	-6225
▁gammachiisaa	-6226
lo	-6227
ማል	-6228
ብረ	-6229
ቦት	-6230
ዙን	-6231
ጦች	-6232
ፉት	-6233
ሰጥህ	-6234
ትንሽ	-6235
ክምና	-6236
ዝናና	-6237
ፎችን	-6238
▁Ur	-6239
▁ማል	-6240
▁ሽታ	-6241
▁በፀ	-6242
▁ዘጋ	-6243
▁ፀጥ	-6244
yoon	-6245
ገናኘት	-6246
▁uww	-6247
▁ምስል	-6248
▁ተጫው	-6249
▁ትኩስ	-6250
▁ነጥብ	-6251
▁ንግድ	-6252
▁አልቆ	-6253
▁አቅም	-6254
▁የተቻ	-6255
▁ይገር	-6256
eensi	-6257
iirri	-6258
oofne	-6259
▁Lubb	-6260
▁hiyy	-6261
▁kaam	-6262
▁marg	-6263
▁that	-6264
▁your	-6265
▁ትናገራ	-6266
▁ኣረፍተ	-6267
▁እፈልግ	-6268
▁ያለብህ	-6269
varsii	-6270
▁qaama	-6271
▁አልነገር	-6272
▁Fedhii	-6273
▁Kanatu	-6274
▁bahuun	-6275
▁dhaaba	-6276
▁አትፈልግም	-6277
▁Intalli	-6278
▁jalatti	-6279
▁ትመስላለች።	-6280
▁Dhukkubs	-6281
▁እንደምትፈልግ	-6282
▁Shamarran	-6283
omboleettii	-6284
▁bilcheessuu	-6285
ልም	-6286
መጡ	-6287
ኑ።	-6288
ኗል	-6289
ጋግ	-6290
ፊቱ	-6291
arm	-6292
raw	-6293
ባከን	-6294
ኋት።	-6295
ውያን	-6296
▁በጀ	-6297
▁ብላ	-6298
▁ይሰ	-6299
iruu	-6300
ojek	-6301
teen	-6302
tima	-6303
toob	-6304
የኝም።	-6305
ፓርታማ	-6306
▁fee	-6307
▁xix	-6308
▁ለመጠ	-6309
▁ሌሊት	-6310
▁ማሽን	-6311
▁ስምም	-6312
▁ሸሚዝ	-6313
▁ቆመ።	-6314
▁ባለሙ	-6315
▁የሚቆ	-6316
▁ያለህ	-6317
▁ጥገና	-6318
aanna	-6319
iizaa	-6320
kaana	-6321
tonni	-6322
▁Baan	-6323
▁Call	-6324
▁Ilma	-6325
▁Lafa	-6326
▁batt	-6327
▁cabe	-6328
▁fide	-6329
▁galu	-6330
▁milk	-6331
▁qaan	-6332
▁ብቻህን	-6333
▁አሉን።	-6334
▁እንስሳ	-6335
▁እንዳታ	-6336
▁የባህር	-6337
▁ያደረገው	-6338
▁Hundaa	-6339
▁Seerri	-6340
▁ajjeef	-6341
▁dhiisu	-6342
▁dhufan	-6343
▁qophii	-6344
▁ምክንያታዊ	-6345
▁argattu	-6346
▁dhaqeen	-6347
▁ilaalte	-6348
▁አውቀዋለሁ።	-6349
▁ይመስላችኋል	-6350
ysiboolii	-6351
▁Dogoggor	-6352
▁fudhanne	-6353
▁gaaddisa	-6354
▁qabnedha	-6355
▁agarsiisi	-6356
▁dhalootaa	-6357
▁fayyadama	-6358
▁qabaadhee	-6359
▁sirreessuu	-6360
▁Odeeffannoo	-6361
▁haasofsiisuu	-6362
ስቸ	-6363
ኖሚ	-6364
ጫው	-6365
▁z	-6366
ibu	-6367
tis	-6368
ሰበ።	-6369
▁ማሰ	-6370
▁ክሬ	-6371
▁የዋ	-6372
chii	-6373
iish	-6374
ባለሁ።	-6375
▁ለእር	-6376
▁ልምድ	-6377
▁ሙዚየ	-6378
▁በሽታ	-6379
▁ነው፣	-6380
▁እኩል	-6381
▁ገዛ።	-6382
▁ጫጫታ	-6383
ናገርም።	-6384
ደርግም።	-6385
▁መልቀቅ	-6386
▁መጀመር	-6387
▁አሳለፍ	-6388
▁ይመጣል	-6389
▁Keess	-6390
▁Salph	-6391
▁dhugu	-6392
▁umrii	-6393
▁አልፈለገ	-6394
▁ከፈለግክ	-6395
▁ይወስዳል	-6396
ezidaan	-6397
▁baasii	-6398
▁gubbaa	-6399
▁Fuuldur	-6400
▁shakkii	-6401
▁እንደሚፈልግ	-6402
▁Gaaddisa	-6403
▁cirracha	-6404
▁dubartii	-6405
▁fakkaataa	-6406
▁hospitaala	-6407
▁bilcheessuun	-6408
19	-6409
ረኛ	-6410
ቃል	-6411
ንዙ	-6412
ካታ	-6413
ውል	-6414
abb	-6415
ole	-6416
qqo	-6417
ton	-6418
ሊዮን	-6419
ሰማህ	-6420
▁Qa	-6421
▁ለሌ	-6422
▁ላለ	-6423
▁ማቆ	-6424
▁ነን	-6425
▁ኩኪ	-6426
▁የፖ	-6427
kkaa	-6428
ቸውም።	-6429
▁Ana	-6430
▁Nag	-6431
▁Tur	-6432
▁fii	-6433
▁sak	-6434
▁መርከ	-6435
▁ታማኝ	-6436
▁እሆና	-6437
▁እሰማ	-6438
▁እኛን	-6439
▁እየደ	-6440
▁ወዴት	-6441
▁ደካማ	-6442
▁ጀልባ	-6443
▁ፈረስ	-6444
llama	-6445
▁Aman	-6446
▁Fiig	-6447
▁fida	-6448
▁qaal	-6449
▁መምህሩ	-6450
▁ይህንኑ	-6451
annaan	-6452
atanii	-6453
▁siyaa	-6454
▁tolle	-6455
▁ለመረዳት	-6456
▁አረንጓዴ	-6457
▁dhagaa	-6458
▁አለባቸው።	-6459
▁duubaan	-6460
▁gammadu	-6461
▁hubanne	-6462
▁taphata	-6463
▁እሞክራለሁ።	-6464
▁እንደተፈጠረ	-6465
▁እንድታደርግ	-6466
▁የመጀመሪያው	-6467
▁Miillaan	-6468
▁walxaxaa	-6469
▁Caalaatti	-6470
▁qabaachuun	-6471
ለሽ	-6472
ለጥ	-6473
ቢሮ	-6474
ታይ	-6475
ፋው	-6476
aaw	-6477
ሌክት	-6478
ቻቸው	-6479
ንያው	-6480
ንግድ	-6481
ፊያው	-6482
▁መካ	-6483
▁ርእ	-6484
▁ኣመ	-6485
▁ከበ	-6486
▁የሳ	-6487
▁የቡ	-6488
ቶኛል።	-6489
▁Bad	-6490
▁Kir	-6491
▁all	-6492
▁arr	-6493
▁laf	-6494
▁ለመዋ	-6495
▁መያዝ	-6496
▁ሻወር	-6497
▁ትመጣ	-6498
▁አስቆ	-6499
▁እወድ	-6500
▁እገባ	-6501
▁የገዛ	-6502
▁ገናን	-6503
▁ጋዜጣ	-6504
▁ግምት	-6505
▁cufe	-6506
▁gahu	-6507
▁ibsa	-6508
▁መሆኔን	-6509
▁መራመድ	-6510
▁ሳይቆይ	-6511
▁ብርሃን	-6512
▁የለኝም	-6513
▁ያስታው	-6514
▁ይወዳል	-6515
▁ዳግመኛ	-6516
aansii	-6517
amadii	-6518
eessan	-6519
▁Daaww	-6520
▁Ergaa	-6521
▁baatu	-6522
▁gaara	-6523
▁መብራቱን	-6524
▁ማብራሪያ	-6525
▁ተውኩት።	-6526
▁እንደማል	-6527
▁እንድሄድ	-6528
▁Galmee	-6529
▁Kanaan	-6530
▁በመጀመሪያ	-6531
▁አታውቅም።	-6532
▁Hafuura	-6533
▁gitaara	-6534
▁keetiin	-6535
▁dubbatin	-6536
▁fudhannu	-6537
▁Barsiisaa	-6538
▁dhiheesse	-6539
▁amanamummaa	-6540
▁Guutummaatti	-6541
ly	-6542
ራበ	-6543
ባ።	-6544
ቤቱ	-6545
ታሉ	-6546
ናዳ	-6547
ኩኝ	-6548
ክም	-6549
ዘር	-6550
ገደ	-6551
ጉ።	-6552
ጥረ	-6553
and	-6554
ምህር	-6555
ከንድ	-6556
ወስደ	-6557
ዳመጥ	-6558
ጠብቁ	-6559
▁Re	-6560
▁ስቴ	-6561
▁ቀል	-6562
▁በቡ	-6563
▁አፈ	-6564
unni	-6565
መልከት	-6566
ታችንን	-6567
▁Kol	-6568
▁out	-6569
▁ለእሱ	-6570
▁ሊነግ	-6571
▁ስራው	-6572
▁ባለው	-6573
▁ተንኮ	-6574
▁ተጠም	-6575
▁አሮጌ	-6576
▁ክፍያ	-6577
▁ዘመን	-6578
▁ይረዳ	-6579
▁Joon	-6580
▁ለእራት	-6581
▁መበደር	-6582
▁ሚስጥር	-6583
▁በግልፅ	-6584
▁ብሏል።	-6585
▁እስማማ	-6586
▁እየሄደ	-6587
atamne	-6588
▁dubar	-6589
▁fufuu	-6590
▁haati	-6591
▁hawwa	-6592
▁lamaa	-6593
▁wanta	-6594
▁yaali	-6595
▁ትወዳለህ	-6596
▁እነዚያን	-6597
▁የሚያውቅ	-6598
▁የሚፈልጉ	-6599
attanii	-6600
▁Qamisa	-6601
▁Umurii	-6602
▁jajjab	-6603
▁ለማንኛውም	-6604
▁አደረግሁ።	-6605
▁እንዳለብን	-6606
▁Carraan	-6607
▁kaardii	-6608
▁sakatta	-6609
▁ulfaata	-6610
▁Waggoota	-6611
▁deebisuu	-6612
▁isaatiif	-6613
▁እናደርጋለን።	-6614
▁barsiisuu	-6615
▁tiraafikaa	-6616
ሪካ	-6617
ስን	-6618
ሻው	-6619
ቀዘ	-6620
ቀይ	-6621
ቃጠ	-6622
ኮር	-6623
ዳም	-6624
▁ቪ	-6625
eff	-6626
ith	-6627
ሃለሁ	-6628
ብስብ	-6629
▁ሞተ	-6630
▁ሰረ	-6631
▁በጎ	-6632
▁ከጎ	-6633
▁ውሸ	-6634
▁ፍን	-6635
eell	-6636
fama	-6637
ፈዋል።	-6638
▁She	-6639
▁far	-6640
▁ለመክ	-6641
▁መጓዝ	-6642
▁ሞተ።	-6643
▁ቢላዋ	-6644
▁ተገቢ	-6645
▁አልታ	-6646
▁አሳይ	-6647
▁አትፍ	-6648
▁Beek	-6649
▁Jaar	-6650
▁wagg	-6651
▁ማጠቢያ	-6652
▁በባቡር	-6653
▁በተሻለ	-6654
▁አንዲት	-6655
▁የአካል	-6656
▁የጥርስ	-6657
▁ድንጋይ	-6658
teetti	-6659
▁gaabb	-6660
▁kanan	-6661
▁ንገረኝ።	-6662
▁አድርግ።	-6663
▁እሆናለሁ	-6664
▁እየሰራሁ	-6665
▁ደርሷል።	-6666
▁Daftee	-6667
▁aangoo	-6668
▁beekan	-6669
▁beekee	-6670
▁eeguun	-6671
▁jennee	-6672
▁jijjii	-6673
▁lubbuu	-6674
▁qajeel	-6675
▁መንሸራተት	-6676
▁በስብሰባው	-6677
▁እንድትሄድ	-6678
duraalee	-6679
▁Ammatti	-6680
▁Hoteela	-6681
▁Kopheen	-6682
▁baranne	-6683
▁jiraate	-6684
▁taasisa	-6685
▁Daraaraa	-6686
▁Kanaadaa	-6687
▁mallattoo	-6688
▁mudateera	-6689
▁buufataatti	-6690
▁ijoollummaa	-6691
13	-6692
ምሩ	-6693
ቲክ	-6694
ንባ	-6695
ንጀ	-6696
ኪያ	-6697
ኮራ	-6698
ድግ	-6699
ጮች	-6700
one	-6701
ብስክ	-6702
ቸውም	-6703
ጊዜው	-6704
▁Ba	-6705
▁ምት	-6706
▁ሰክ	-6707
▁ወዳ	-6708
▁ጫፍ	-6709
▁ጮሀ	-6710
aase	-6711
ekon	-6712
ilab	-6713
▁Taa	-6714
▁dug	-6715
▁አርጅ	-6716
▁አየሩ	-6717
▁ከኋላ	-6718
iinsa	-6719
▁hate	-6720
▁kaaf	-6721
▁leen	-6722
▁taan	-6723
▁ላገኝህ	-6724
▁አላቸው	-6725
▁አንብቤ	-6726
▁አዲሱን	-6727
▁እንዳላ	-6728
▁ያልሆነ	-6729
▁ጫማዎች	-6730
arreen	-6731
▁baate	-6732
▁samii	-6733
▁ለመድረስ	-6734
▁ሳምንታት	-6735
▁አቅራቢያ	-6736
▁እየጨመረ	-6737
▁ያለብዎት	-6738
ekondii	-6739
onkumaa	-6740
qqolloo	-6741
▁Haasaa	-6742
▁Karaan	-6743
▁argite	-6744
▁darbuu	-6745
▁deebif	-6746
▁ይፈልጋሉ።	-6747
kkeettii	-6748
▁wallaal	-6749
▁Ayyaanni	-6750
▁Dubartii	-6751
▁Gaaffiin	-6752
▁Sirritti	-6753
▁jaalalaa	-6754
▁kamiinuu	-6755
▁አስታውሳለሁ።	-6756
▁አደርገዋለሁ።	-6757
▁dubbisuun	-6758
▁kudhaniin	-6759
▁agarsiisuu	-6760
▁dhukkubbii	-6761
▁keessanitti	-6762
▁Xiyyeeffannoo	-6763
aw	-6764
መታ	-6765
ርሃ	-6766
ሹን	-6767
ዳሚ	-6768
ገስ	-6769
ጎድ	-6770
ጤን	-6771
ፍን	-6772
dde	-6773
eey	-6774
ነግር	-6775
ፅዳት	-6776
▁oo	-6777
▁st	-6778
▁ለሚ	-6779
▁ወፍ	-6780
▁ይስ	-6781
▁ገደ	-6782
▁Eeg	-6783
▁ለመን	-6784
▁ልሄድ	-6785
▁በመቶ	-6786
▁በኣል	-6787
▁ናፈቀ	-6788
▁እመክ	-6789
▁የምና	-6790
▁ደርሶ	-6791
▁ድንገ	-6792
ddoon	-6793
▁Siin	-6794
▁bare	-6795
▁moot	-6796
▁መስመር	-6797
▁ስጠኝ።	-6798
▁አድርግ	-6799
▁እውነታ	-6800
▁ከወላጆ	-6801
▁ወደቀ።	-6802
▁የሚሰራ	-6803
▁የምችል	-6804
▁የነገር	-6805
▁ያስከፍ	-6806
▁ያደርገ	-6807
▁ጥፋተኛ	-6808
▁Nagaa	-6809
▁Sitti	-6810
▁አስተዋይ	-6811
▁battal	-6812
▁himuun	-6813
▁jedhan	-6814
▁mirgaa	-6815
▁murtaa	-6816
▁መከረችው።	-6817
▁እንደሚሰራ	-6818
▁ክርስቲያን	-6819
▁Gabaasa	-6820
▁Qoricha	-6821
▁Tokkoon	-6822
▁ajjeese	-6823
▁biratti	-6824
▁bitatte	-6825
▁hundaan	-6826
▁shaayii	-6827
▁አይታየኝም።	-6828
▁አይደለችም።	-6829
▁እጠብቃለሁ።	-6830
▁qabeenya	-6831
▁xumurame	-6832
▁barreessi	-6833
▁dhumarratti	-6834
ሃዊ	-6835
ላዊ	-6836
ind	-6837
ቃል።	-6838
ኮኖሚ	-6839
ገናኝ	-6840
ጠበቁ	-6841
ፈጥሮ	-6842
▁ቀበ	-6843
▁ፈራ	-6844
aamp	-6845
ጣለች።	-6846
▁Roo	-6847
▁ህፃኑ	-6848
▁ለዚያ	-6849
▁አርፍ	-6850
▁አውሎ	-6851
▁አጥብ	-6852
▁እሰጥ	-6853
▁ይሁን	-6854
▁ይሆን	-6855
▁ጥንድ	-6856
aanne	-6857
eetti	-6858
ulluu	-6859
ቼዋለሁ።	-6860
▁Taak	-6861
▁baat	-6862
▁kute	-6863
▁raaf	-6864
▁መጨረስ	-6865
▁ሰከንድ	-6866
▁ቁልፉን	-6867
▁በአሁኑ	-6868
▁ተመልከ	-6869
▁አመታት	-6870
▁የምግብ	-6871
▁ድመቶች	-6872
eessii	-6873
▁deegg	-6874
▁maraa	-6875
▁መንግስት	-6876
▁የነበረው	-6877
▁ciisee	-6878
▁dubbii	-6879
▁hinaaf	-6880
▁qabdan	-6881
▁መንከባከብ	-6882
▁የለብኝም።	-6883
▁ይወስዳል።	-6884
anneerra	-6885
▁Uffanni	-6886
▁አልወደውም።	-6887
▁Gonkumaa	-6888
▁Waajjira	-6889
▁amansiis	-6890
▁barsiisa	-6891
▁Ulfaatina	-6892
▁gaarummaa	-6893
▁hayyamamu	-6894
▁Awurooppaa	-6895
▁dabalataan	-6896
omboleettiin	-6897
ልዎ	-6898
ንን	-6899
ከፊ	-6900
ደን	-6901
ደይ	-6902
▁ጌ	-6903
ddu	-6904
ባል።	-6905
ታለሁ	-6906
ጥጥር	-6907
▁ce	-6908
▁እጆ	-6909
▁ዘዴ	-6910
▁ፀሀ	-6911
itan	-6912
ሄድበት	-6913
ታቸውን	-6914
ጎብኘት	-6915
ፈጠረው	-6916
▁ሄዱ።	-6917
▁ሰውዬ	-6918
▁በቁም	-6919
▁ተሸፍ	-6920
▁ትእዛ	-6921
▁አብራ	-6922
▁አገል	-6923
▁አገባ	-6924
▁እመጣ	-6925
▁ወንዝ	-6926
▁የማል	-6927
▁ጨርሰ	-6928
ddaan	-6929
indaa	-6930
▁Tola	-6931
▁boba	-6932
▁will	-6933
▁ለመያዝ	-6934
▁መክፈት	-6935
▁መደነስ	-6936
▁ማሸነፍ	-6937
▁ስምህን	-6938
▁በመስኮ	-6939
▁አበቦች	-6940
▁ይንከባ	-6941
immaan	-6942
▁ለማንበብ	-6943
▁ለእርዳታ	-6944
▁ላናግርህ	-6945
▁በመንገድ	-6946
▁ተመለከት	-6947
▁የማርያም	-6948
▁ጓደኛሞች	-6949
▁Dadhab	-6950
▁awwaal	-6951
▁qabatu	-6952
▁sareen	-6953
▁ይመልከቱ።	-6954
▁Gurbaan	-6955
▁Manneen	-6956
▁amantaa	-6957
▁dabalaa	-6958
▁dhuftee	-6959
▁kaasuun	-6960
▁qamadii	-6961
▁xumuruu	-6962
▁Waraanni	-6963
▁Xalayaan	-6964
▁tokkodha	-6965
▁Dhiheenya	-6966
▁barnootaa	-6967
▁bishaaniin	-6968
▁jijjiirame	-6969
▁tarkaanfii	-6970
▁Akaakayyuun	-6971
▁dhageessanii	-6972
ct	-6973
ሩም	-6974
ሰቡ	-6975
ባቴ	-6976
ወግ	-6977
ፈ።	-6978
ረዱኝ	-6979
ራችን	-6980
ገባት	-6981
ፈጠር	-6982
▁ልቦ	-6983
▁ቀና	-6984
▁በካ	-6985
▁ከቁ	-6986
▁የኢ	-6987
▁ፈጅ	-6988
▁ፕሬ	-6989
ላችሁ።	-6990
▁sib	-6991
▁በሌላ	-6992
▁ንፋስ	-6993
▁አውቄ	-6994
▁እየዘ	-6995
▁ከእሷ	-6996
▁ዘገባ	-6997
▁የቀረ	-6998
▁ይበላ	-6999
▁ደግሞ	-7000
▁Naaf	-7001
▁ማቆሚያ	-7002
▁በተለይ	-7003
▁ባለሙያ	-7004
▁የእሱን	-7005
▁ይጀምራ	-7006
▁ገባሁ።	-7007
▁ጓደኛህ	-7008
▁Balal	-7009
▁Deemi	-7010
▁Teess	-7011
▁jabaa	-7012
▁kamtu	-7013
▁አፓርታማ	-7014
▁ያድርጉ።	-7015
▁Doonii	-7016
▁hirmaa	-7017
▁idilee	-7018
▁murtii	-7019
▁shakka	-7020
▁ተመልከት።	-7021
▁ነበረብህ።	-7022
▁አብዛኛውን	-7023
▁እንዳለብህ	-7024
▁እንገናኝ።	-7025
▁ደብዳቤውን	-7026
▁barbaad	-7027
▁Minjaala	-7028
▁godhinaa	-7029
▁hundarra	-7030
▁uffachuu	-7031
▁Gammachuu	-7032
▁baradheera	-7033
▁jijjiirama	-7034
▁nuffisiisaa	-7035
ላማ	-7036
ከም	-7037
ደጋ	-7038
ጭን	-7039
ፈታ	-7040
ፈፀ	-7041
ami	-7042
che	-7043
ttu	-7044
መልስ	-7045
ኖችን	-7046
ኩበት	-7047
▁Fu	-7048
▁ዘፋ	-7049
▁ፎቅ	-7050
aguu	-7051
ለችም።	-7052
ቻቸውን	-7053
▁Him	-7054
▁Moo	-7055
▁ለመቀ	-7056
▁መልሱ	-7057
▁አምል	-7058
▁እስር	-7059
▁እበላ	-7060
▁እኩለ	-7061
▁እውን	-7062
▁እጄን	-7063
▁እግሬ	-7064
▁የተሻ	-7065
▁ያዘ።	-7066
▁ይሻለ	-7067
▁ድግስ	-7068
▁ገንዳ	-7069
▁ጡረታ	-7070
▁ጥልቅ	-7071
▁ፅሁፍ	-7072
▁ፕሮጀ	-7073
aniif	-7074
ullaa	-7075
▁Jarm	-7076
▁with	-7077
▁በቅርብ	-7078
▁ቢኖረኝ	-7079
▁አታስብ	-7080
▁ወሰደ።	-7081
▁የሚገባ	-7082
▁ይኖራል	-7083
atamuu	-7084
ooniin	-7085
▁Injif	-7086
▁ተመልከት	-7087
▁አልፏል።	-7088
▁አይሆንም	-7089
▁የአትክል	-7090
▁Poolis	-7091
▁dhaqee	-7092
▁እንደሚችሉ	-7093
orgommii	-7094
▁daabboo	-7095
▁kireeff	-7096
▁sanarra	-7097
▁የምፈልገውን	-7098
▁Jechoota	-7099
▁gaggeeff	-7100
▁xixiqqoo	-7101
▁አልነበርኩም።	-7102
▁የምትፈልገውን	-7103
▁injifachuu	-7104
▁jaallattan	-7105
ለታ	-7106
ረጠ	-7107
ሯን	-7108
ሰረ	-7109
ስበ	-7110
ባሪ	-7111
ዛኝ	-7112
ዩ።	-7113
chu	-7114
der	-7115
rii	-7116
vii	-7117
ቶኪዮ	-7118
▁lo	-7119
▁በጨ	-7120
▁ብል	-7121
▁አፅ	-7122
▁ደም	-7123
▁ጠራ	-7124
ziin	-7125
ሰብኩት	-7126
▁abd	-7127
▁ሃይል	-7128
▁ለእኛ	-7129
▁ስሙን	-7130
▁በራሱ	-7131
▁ታምሜ	-7132
▁አጎቴ	-7133
▁ከክፍ	-7134
▁የከፋ	-7135
▁የወደ	-7136
▁የግል	-7137
▁ጠፋ።	-7138
▁ፈልጎ	-7139
▁ፖስታ	-7140
sanii	-7141
unyoo	-7142
ንቀሳቀስ	-7143
▁Dhiy	-7144
▁Laga	-7145
▁malu	-7146
▁ተበላሽ	-7147
▁ተናጋሪ	-7148
▁አሰበ።	-7149
▁አሳፋሪ	-7150
▁ወንጀል	-7151
▁ያላቸው	-7152
▁ጭንቅላ	-7153
▁ፊልሞች	-7154
▁ፓርቲው	-7155
▁badii	-7156
▁dhuge	-7157
▁shaak	-7158
▁ሁለቱንም	-7159
▁መኪናዬን	-7160
▁በህይወቴ	-7161
▁ተንኮለኛ	-7162
▁አስቸኳይ	-7163
▁እራስዎን	-7164
▁እየጠበቀ	-7165
▁የእንግሊ	-7166
▁argatu	-7167
▁dhibaa	-7168
▁fakkii	-7169
▁sochii	-7170
▁አውሮፕላን	-7171
▁አይደለሁም	-7172
▁ያልተለመደ	-7173
atteetti	-7174
▁baradhe	-7175
▁deemtee	-7176
▁fuudhuu	-7177
▁hayyamu	-7178
▁koochoo	-7179
▁meetira	-7180
▁nyaannu	-7181
▁seeraan	-7182
▁ትክክለኛውን	-7183
▁caaludha	-7184
▁xumuruuf	-7185
▁fayyadamu	-7186
▁muuxannoo	-7187
▁qabachuuf	-7188
▁tikkeettii	-7189
▁tilmaamuun	-7190
▁mirkaneessuu	-7191
▁suukaneessaa	-7192
▁garaagarummaa	-7193
▁dhaggeeffachuu	-7194
ልን	-7195
ሪስ	-7196
ችም	-7197
ፀፀ	-7198
ፋል	-7199
▁ቱ	-7200
▁ዱ	-7201
alk	-7202
ist	-7203
ብኝ።	-7204
ዘገየ	-7205
ደርደ	-7206
ዳል።	-7207
ጣጠር	-7208
▁fa	-7209
▁or	-7210
▁ሂድ	-7211
▁ህመ	-7212
▁ባር	-7213
▁ጆሮ	-7214
erii	-7215
qqii	-7216
ታለን።	-7217
▁100	-7218
▁Kuf	-7219
▁jaa	-7220
▁pil	-7221
▁ሳንቲ	-7222
▁በአጠ	-7223
▁ብሩህ	-7224
▁አባቱ	-7225
▁አካል	-7226
▁አይቻ	-7227
▁እጠላ	-7228
▁ወንበ	-7229
▁ዝናቡ	-7230
▁የጠፋ	-7231
▁ጤናማ	-7232
chiif	-7233
iisha	-7234
▁Adaa	-7235
▁bane	-7236
▁digd	-7237
▁mars	-7238
▁muda	-7239
▁መቀበል	-7240
▁መቀጠል	-7241
▁ስለሆነ	-7242
▁ተስማሚ	-7243
▁ታስታው	-7244
▁እየመጣ	-7245
▁ክራባት	-7246
▁ዜናውን	-7247
▁ያስባል	-7248
▁ጃንጥላ	-7249
aannee	-7250
▁gurra	-7251
▁ማስወገድ	-7252
▁ይቅርታ።	-7253
aateera	-7254
aayilii	-7255
iyyaara	-7256
▁baasee	-7257
▁deemin	-7258
▁dhibba	-7259
▁ittiin	-7260
▁mannaa	-7261
▁sibiil	-7262
▁በአውቶቡስ	-7263
▁ተመለከተ።	-7264
▁cufamee	-7265
▁lammata	-7266
▁tureera	-7267
▁turetti	-7268
▁waraana	-7269
▁አላገኘሁም።	-7270
▁የሚፈልጉትን	-7271
▁Ingiliff	-7272
▁beekamaa	-7273
▁dhiibbaa	-7274
▁jedhanii	-7275
▁Akkaataan	-7276
▁Yaadannoo	-7277
▁dhaabatee	-7278
▁Dhugumatti	-7279
▁barattoota	-7280
▁guutameera	-7281
op	-7282
ለፅ	-7283
ሪፍ	-7284
ርሲ	-7285
ቃድ	-7286
ቼው	-7287
ክሰ	-7288
ክፈ	-7289
ወጡ	-7290
ፌር	-7291
doo	-7292
per	-7293
ለት።	-7294
ራጠራ	-7295
ተኛው	-7296
ጌረዳ	-7297
▁at	-7298
▁ለበ	-7299
▁ልና	-7300
▁ምቹ	-7301
▁ከጣ	-7302
▁የቻ	-7303
▁ገም	-7304
▁ጓጉ	-7305
▁ፓስ	-7306
atni	-7307
fame	-7308
▁Cim	-7309
▁Riq	-7310
▁and	-7311
▁oom	-7312
▁ህዝብ	-7313
▁ለመል	-7314
▁ለመፍ	-7315
▁ልጁን	-7316
▁ሰባት	-7317
▁ተባረ	-7318
▁ኣይነ	-7319
▁ክብደ	-7320
▁ይጠቀ	-7321
ataaf	-7322
▁Tole	-7323
▁faay	-7324
▁kuuf	-7325
▁መልበስ	-7326
▁መረዳት	-7327
▁መርከብ	-7328
▁ስልኩን	-7329
▁በላሁ።	-7330
▁አዘጋጅ	-7331
▁ይሄዳል	-7332
▁ጠንክሮ	-7333
aartii	-7334
ariisa	-7335
▁baasu	-7336
▁dhuga	-7337
▁haroo	-7338
▁qofti	-7339
▁ለመቆየት	-7340
▁በእነዚህ	-7341
▁አስተካክ	-7342
▁እንዲሄድ	-7343
▁ያደርጋል	-7344
achiisa	-7345
▁Kottaa	-7346
▁balaan	-7347
▁fiiguu	-7348
▁keekii	-7349
▁oomish	-7350
▁ruuzii	-7351
▁tasuma	-7352
▁አልሆነም።	-7353
▁አዝኛለሁ።	-7354
▁የምችለውን	-7355
▁የትምህርት	-7356
▁ያደርጋል።	-7357
▁ይመስላሉ።	-7358
aleessaa	-7359
▁Adeerri	-7360
▁Mallatt	-7361
▁daldala	-7362
▁dandama	-7363
▁miidhaa	-7364
▁rakkisa	-7365
▁simbirr	-7366
▁Qaruuraa	-7367
▁Teessoon	-7368
▁bilbilli	-7369
▁dubbadha	-7370
▁eeggadha	-7371
▁hordofaa	-7372
▁jaalanne	-7373
▁yaaleera	-7374
▁አልነበረውም።	-7375
▁Xiyyaarri	-7376
▁argateera	-7377
▁barreessa	-7378
▁ciisichaa	-7379
▁jaalalaan	-7380
▁xumureera	-7381
▁አልነበረብኝም።	-7382
▁murteessuu	-7383
▁taphachuun	-7384
ሎጂ	-7385
ረስ	-7386
በባ	-7387
ይ።	-7388
ጋሚ	-7389
ibe	-7390
ላችን	-7391
መጣም	-7392
ማማኝ	-7393
ምንቱ	-7394
ርሲቲ	-7395
ተሮች	-7396
ከሰተ	-7397
ኳት።	-7398
ወድቅ	-7399
ፃፈው	-7400
▁Ga	-7401
▁Gi	-7402
▁ለዘ	-7403
▁ሳል	-7404
▁ትኬ	-7405
▁ውይ	-7406
▁ያየ	-7407
▁ይዋ	-7408
▁ግዴ	-7409
juun	-7410
ቻችንን	-7411
▁ስለእ	-7412
▁ቁልፎ	-7413
▁ባንክ	-7414
▁አባል	-7415
▁ኣይን	-7416
▁እርዳ	-7417
▁ወለድ	-7418
▁የሰው	-7419
▁ይወጣ	-7420
▁ግማሽ	-7421
amiin	-7422
laqaa	-7423
ሌክትሪክ	-7424
ያንዳንዱ	-7425
▁Barn	-7426
▁Boor	-7427
▁Buuf	-7428
▁Irra	-7429
▁Siif	-7430
▁biyy	-7431
▁ciif	-7432
▁dhuk	-7433
▁kall	-7434
▁መቀነስ	-7435
▁መቀየር	-7436
▁መንገር	-7437
▁መፅሃፍ	-7438
▁ማባከን	-7439
▁አሳልፈ	-7440
▁አስገባ	-7441
▁እጠይቃ	-7442
▁የአንተ	-7443
▁cufuu	-7444
▁dhaqe	-7445
▁duraa	-7446
▁inter	-7447
▁marga	-7448
▁ofuma	-7449
▁rafee	-7450
▁ለመመለስ	-7451
▁ለመውጣት	-7452
▁ትሆናለህ	-7453
▁እንደሆኑ	-7454
▁እንደሰራ	-7455
▁እያደረገ	-7456
iironni	-7457
▁biyyaa	-7458
▁ummata	-7459
▁ልጃገረዶች	-7460
▁ትክክለኛው	-7461
▁አልነበረም	-7462
▁አውሮፕላኑ	-7463
▁የሚፈልጉት	-7464
▁ያድርጉት።	-7465
▁Tasumaa	-7466
▁taphatu	-7467
▁deebitee	-7468
▁jalqabaaf	-7469
▁magariisa	-7470
▁barreeffame	-7471
▁dogoggoraan	-7472
ማን	-7473
ረተ	-7474
ችኝ	-7475
ነቃ	-7476
ያዙ	-7477
ጀም	-7478
ቃት።	-7479
ክበር	-7480
ዮርክ	-7481
▁Wa	-7482
▁un	-7483
▁ውስ	-7484
▁ያቺ	-7485
ohin	-7486
ዋለች።	-7487
▁Arg	-7488
▁Liq	-7489
▁ሊያስ	-7490
▁ሹራብ	-7491
▁በሰማ	-7492
▁ታሪኩ	-7493
▁አሪፍ	-7494
▁Yeen	-7495
▁haqa	-7496
▁obsa	-7497
▁walq	-7498
▁ሄድን።	-7499
▁መድረስ	-7500
▁ስራህን	-7501
▁አደጋው	-7502
▁እምነት	-7503
▁እናገራ	-7504
▁ከመሄድ	-7505
▁የመሬት	-7506
▁የእሳት	-7507
▁ጉዳዩን	-7508
oolfii	-7509
▁Waaqa	-7510
▁በልጅነቴ	-7511
▁ትእግስት	-7512
▁እንደሌለ	-7513
▁እየሰራህ	-7514
▁ድንገተኛ	-7515
▁beekaa	-7516
▁hantuu	-7517
▁jiruuf	-7518
▁ነገርኩት።	-7519
▁እሰራለሁ።	-7520
▁የለብዎትም	-7521
▁የአትክልት	-7522
▁Dhaabba	-7523
▁deebitu	-7524
▁duratti	-7525
▁eegalee	-7526
▁guutuun	-7527
▁kaffala	-7528
▁አልፈለገም።	-7529
▁እንደማስበው	-7530
▁ይመስልዎታል	-7531
▁ፈረንሳይኛን	-7532
▁hordofuu	-7533
▁akkanatti	-7534
▁dhangalaa	-7535
▁maallaqaa	-7536
▁akkasumaan	-7537
▁gaddisiisa	-7538
▁hojjetamuu	-7539
▁qaxxaamuree	-7540
▁xiyyeeffannaa	-7541
▁dhaggeeffachaa	-7542
▁konkolaachisaa	-7543
ላም	-7544
ሳም	-7545
ያል	-7546
ዱት	-7547
ዳዩ	-7548
ጣው	-7549
ጣጠ	-7550
ሁትን	-7551
ሂሳብ	-7552
ላንድ	-7553
ራዊት	-7554
ስቀም	-7555
ስተዋ	-7556
ደጋው	-7557
ግሎት	-7558
▁ሚስ	-7559
▁ማራ	-7560
▁ስው	-7561
▁በች	-7562
▁በኩ	-7563
▁በዘ	-7564
▁አሸ	-7565
▁ኮት	-7566
▁ወሬ	-7567
▁ዘና	-7568
▁ገላ	-7569
▁ገፅ	-7570
▁ጠፋ	-7571
▁ፋይ	-7572
መዋል።	-7573
ፓርቲው	-7574
▁መፅሄ	-7575
▁ማንን	-7576
▁ማጣት	-7577
▁ተሰር	-7578
▁የበዛ	-7579
▁ጥበብ	-7580
innoo	-7581
siisa	-7582
▁Jeeq	-7583
▁Qoph	-7584
▁fokk	-7585
▁ልጆቹን	-7586
▁መምህር	-7587
▁መነሳት	-7588
▁በዝርዝ	-7589
▁ባለቤት	-7590
▁ቸኮሌት	-7591
▁አስቀመ	-7592
▁አሻንጉ	-7593
▁አንድም	-7594
▁እንዳሉ	-7595
▁የለህም	-7596
▁የሚችሉ	-7597
▁የተመሰ	-7598
▁ጥንቃቄ	-7599
▁ፕሮግራ	-7600
eekiin	-7601
jjirri	-7602
maanni	-7603
▁Gatii	-7604
▁galte	-7605
▁herre	-7606
▁uwwif	-7607
▁የሚለውን	-7608
▁የትራፊክ	-7609
▁የእረፍት	-7610
▁Hojjet	-7611
▁qalama	-7612
▁tajaaj	-7613
▁ቴሌቪዥኑን	-7614
▁ነበረብን።	-7615
▁እናድርግ።	-7616
▁እናገራለሁ	-7617
rawattii	-7618
▁barataa	-7619
▁dhaabba	-7620
▁olaanaa	-7621
▁የምትፈልገው	-7622
▁darbeera	-7623
▁raadiyoo	-7624
▁soogidda	-7625
▁fudhadhaa	-7626
▁murteesseen	-7627
ሊን	-7628
ራሲ	-7629
ሰለ	-7630
ቀሳ	-7631
ቆት	-7632
ቲቪ	-7633
ዘም	-7634
▁ጂ	-7635
ght	-7636
ሩም።	-7637
ራመድ	-7638
ቦታው	-7639
ቱካን	-7640
▁my	-7641
▁ne	-7642
▁ሆን	-7643
▁መዘ	-7644
▁ተቸ	-7645
▁ዩኒ	-7646
▁ይሂ	-7647
▁ይጨ	-7648
▁ጉል	-7649
▁ጥሪ	-7650
ooma	-7651
qaan	-7652
saaf	-7653
ሮፕላን	-7654
▁Fag	-7655
▁gog	-7656
▁ሁለቱ	-7657
▁ሊኖር	-7658
▁ምድር	-7659
▁በማየ	-7660
▁ተገረ	-7661
▁አላማ	-7662
▁አምጡ	-7663
▁አወጣ	-7664
▁ካርታ	-7665
▁ደረስ	-7666
▁ጎረቤ	-7667
▁ጥረት	-7668
arqee	-7669
▁Hidh	-7670
▁Paas	-7671
▁hodh	-7672
▁ለእግር	-7673
▁መመሪያ	-7674
▁ቤዝቦል	-7675
▁እያለቀ	-7676
▁ወጣሁ።	-7677
iyoona	-7678
▁Lafti	-7679
▁Maash	-7680
▁Shubb	-7681
▁asoos	-7682
▁cufaa	-7683
▁tarii	-7684
▁ስምምነት	-7685
▁በርሳቸው	-7686
▁አለባቸው	-7687
▁እያደረግ	-7688
▁እጠራጠራ	-7689
uushiin	-7690
▁Gamoon	-7691
▁Miilli	-7692
▁Sammuu	-7693
▁alagaa	-7694
▁suuqii	-7695
▁በአጠቃላይ	-7696
▁አለብዎት።	-7697
▁ይመስልሃል	-7698
▁barumsi	-7699
▁qabudha	-7700
▁uffadhu	-7701
▁yookaan	-7702
eessaadha	-7703
▁kunuunsa	-7704
▁saffisaa	-7705
▁የሚያስፈልገኝ	-7706
▁Kaffaltii	-7707
▁kolleejjii	-7708
▁fuulduratti	-7709
▁obomboleettii	-7710
Ee	-7711
ke	-7712
mm	-7713
ሄር	-7714
መነ	-7715
ባቂ	-7716
ነካ	-7717
ኳኳ	-7718
ዛወ	-7719
ዲያ	-7720
ድሩ	-7721
ግና	-7722
ጓዛ	-7723
ፏል	-7724
ሁን።	-7725
ለኛል	-7726
ርመን	-7727
ሳሳተ	-7728
ችውን	-7729
ከፍት	-7730
▁ለፖ	-7731
▁ማዶ	-7732
▁ረክ	-7733
▁ከሱ	-7734
▁ከቻ	-7735
▁የካ	-7736
▁የዛ	-7737
▁ጣል	-7738
amti	-7739
elaa	-7740
ፈራም።	-7741
▁Isp	-7742
▁Sad	-7743
▁ምሳሌ	-7744
▁ተሰበ	-7745
▁ተሰጥ	-7746
▁ከንቱ	-7747
▁ካርድ	-7748
▁ዘፋኝ	-7749
▁ዛፎች	-7750
▁ያለፈ	-7751
▁ይወድ	-7752
▁ይይዛ	-7753
ብስክሌት	-7754
▁dhoo	-7755
▁ሃይለኛ	-7756
▁መልሱን	-7757
▁መንገዱ	-7758
▁መገመት	-7759
▁መጨነቅ	-7760
▁መፈለግ	-7761
▁በፍቅር	-7762
▁ብቸኛው	-7763
▁አባትህ	-7764
▁ከጓደኞ	-7765
▁ወደፊት	-7766
▁ውሸታም	-7767
▁ጠየቀ።	-7768
▁ፅጌረዳ	-7769
ደርገውም።	-7770
▁Humna	-7771
▁Kunoo	-7772
▁Ollaa	-7773
▁abjoo	-7774
▁arrab	-7775
▁barii	-7776
▁dhimm	-7777
▁gadda	-7778
▁godhi	-7779
▁መፅሀፍት	-7780
▁በርሳችን	-7781
▁አያውቅም	-7782
▁አይደሉም	-7783
▁እንዳለው	-7784
▁እየተጫወ	-7785
▁የሚኖረው	-7786
achiise	-7787
iidiyoo	-7788
▁jechaa	-7789
▁qabnaa	-7790
▁saaxil	-7791
▁xumura	-7792
▁አልሄድም።	-7793
▁አስተማማኝ	-7794
▁እመጣለሁ።	-7795
▁እንደነበረ	-7796
▁እየፈለግኩ	-7797
▁Kootiin	-7798
▁dagadhe	-7799
▁dhiigaa	-7800
▁dhuguuf	-7801
▁nyaattu	-7802
▁Adaadaan	-7803
▁Rifeensi	-7804
▁dadhabde	-7805
▁keenyaaf	-7806
▁tilmaame	-7807
▁Kaameeraa	-7808
▁Muuxannoo	-7809
▁dulloomaa	-7810
▁kunuunsuu	-7811
▁Kitaabonni	-7812
▁Yeroodhaan	-7813
▁gaafachuun	-7814
el	-7815
ic	-7816
ረህ	-7817
ራሉ	-7818
ያዘ	-7819
ድጃ	-7820
ጋባ	-7821
ጠባ	-7822
ፍታ	-7823
ixa	-7824
ted	-7825
ust	-7826
zex	-7827
ወያይ	-7828
▁Ol	-7829
▁መቅ	-7830
▁መና	-7831
▁በቴ	-7832
▁ተይ	-7833
▁የኪ	-7834
ስታወስ	-7835
ዋለን።	-7836
▁Dab	-7837
▁Dir	-7838
▁Man	-7839
▁Mul	-7840
▁ham	-7841
▁siq	-7842
▁ልጅቷ	-7843
▁ስኬት	-7844
▁በቤተ	-7845
▁በውሃ	-7846
▁አልጠ	-7847
▁እንዴ	-7848
▁እያየ	-7849
awaar	-7850
duraa	-7851
ukaat	-7852
▁Dilb	-7853
▁Teen	-7854
▁They	-7855
▁bitu	-7856
▁dhib	-7857
▁lall	-7858
▁ማግባት	-7859
▁ስፖርት	-7860
▁ቤታችን	-7861
▁ነበረኝ	-7862
▁አልሰጠ	-7863
▁እቃዎች	-7864
▁ዝቅተኛ	-7865
▁የእኔን	-7866
Eeyyee	-7867
▁Xumur	-7868
▁ajaje	-7869
▁rasaa	-7870
▁በማርያም	-7871
▁አስቆራጭ	-7872
▁ዘግይቷል	-7873
▁የሚወዱት	-7874
▁የአሜሪካ	-7875
▁ደህንነት	-7876
▁Dallaa	-7877
▁Harkif	-7878
▁Miirri	-7879
▁callis	-7880
▁hiikuu	-7881
▁hubatu	-7882
▁መንቀጥቀጥ	-7883
▁መፅሀፍትን	-7884
▁የምትወደው	-7885
▁ጨርሻለሁ።	-7886
▁Jarreen	-7887
▁argatta	-7888
▁baasuun	-7889
▁dhalate	-7890
▁Asoosama	-7891
▁baaburaa	-7892
▁fudhadhe	-7893
▁hojjenna	-7894
▁siyaasaa	-7895
▁Dhaabbata	-7896
▁Loltoonni	-7897
▁dhaabbata	-7898
▁guddachaa	-7899
▁krawattii	-7900
▁bitadheera	-7901
▁daawwachuu	-7902
▁Dhukkubbiin	-7903
▁beeysiboolii	-7904
▁televijiinii	-7905
▁Maariyaamitti	-7906
ss	-7907
ሰጡ	-7908
ቀኛ	-7909
ነፈ	-7910
አብ	-7911
ግኘ	-7912
▁9	-7913
Ani	-7914
ard	-7915
her	-7916
ለቲካ	-7917
ላት።	-7918
ርሃት	-7919
በሳጨ	-7920
ቧንቧ	-7921
ናደደ	-7922
ውንም	-7923
▁ሰበ	-7924
▁ሰብ	-7925
▁ሳህ	-7926
▁ቁም	-7927
▁በሃ	-7928
▁ቢያ	-7929
▁ተፅ	-7930
▁ከታ	-7931
▁ያም	-7932
▁ጮክ	-7933
ገኛል።	-7934
ጠዋል።	-7935
▁Bir	-7936
▁Mis	-7937
▁ሰነፍ	-7938
▁ቀጭን	-7939
▁ተቀበ	-7940
▁ተቃር	-7941
▁ተብሎ	-7942
▁አይኖ	-7943
▁ካናዳ	-7944
▁ውሃው	-7945
▁ያውቁ	-7946
▁ይፈራ	-7947
▁ጉድጓ	-7948
▁ጨረቃ	-7949
Lakki	-7950
sinee	-7951
▁balb	-7952
▁qoon	-7953
▁utuu	-7954
▁yakk	-7955
▁መለወጥ	-7956
▁መፍታት	-7957
▁በወንዙ	-7958
▁ነበርኩ	-7959
▁አራዊት	-7960
▁ከሁለት	-7961
▁ከሁሉም	-7962
▁ይሞክሩ	-7963
▁afuuf	-7964
▁eegne	-7965
▁haguu	-7966
▁rafaa	-7967
▁ለተወሰነ	-7968
▁አላደረግ	-7969
▁አሳየኝ።	-7970
▁አብዛኞቹ	-7971
▁የምወደው	-7972
▁Fayyaa	-7973
▁barame	-7974
▁kiisha	-7975
▁lamaaf	-7976
▁lammii	-7977
▁ሁለታችሁም	-7978
▁ይጫወታል።	-7979
▁Daandii	-7980
▁Qorichi	-7981
▁Suuraan	-7982
▁saddeet	-7983
▁taaksii	-7984
▁taasise	-7985
▁እሰጥሃለሁ።	-7986
▁እንዲያደርግ	-7987
aarfannaa	-7988
urxummiin	-7989
▁barattuu	-7990
▁gargaare	-7991
▁liqeesse	-7992
▁tarkaanf	-7993
▁Hanqaaquu	-7994
▁Waajjirri	-7995
▁bishaanii	-7996
▁fudhachaa	-7997
▁fudhatama	-7998
▁hammaataa	-7999
▁jechuudha	-8000
▁shubbisaa	-8001
▁yaadannoo	-8002
▁Jijjiirama	-8003
▁buruushiin	-8004
▁gargaaruun	-8005
▁torbanitti	-8006
ts	-8007
ረዝ	-8008
ሪት	-8009
ራል	-8010
ሰስ	-8011
ሰጣ	-8012
በሉ	-8013
ኮል	-8014
ዋወ	-8015
ድሜ	-8016
ike	-8017
xee	-8018
ስቶራ	-8019
ቀላቀ	-8020
ኛለሁ	-8021
ዚአብ	-8022
ዝናብ	-8023
ፈቀደ	-8024
▁Mo	-8025
▁sp	-8026
▁መረ	-8027
▁ርቦ	-8028
▁ሽል	-8029
▁ቁር	-8030
▁ቅፅ	-8031
▁በሆ	-8032
▁ቡድ	-8033
▁አዎ	-8034
▁ያላ	-8035
▁ጠቅ	-8036
eeti	-8037
ikii	-8038
ቀዋል።	-8039
ዳለች።	-8040
▁Her	-8041
▁Mir	-8042
▁qon	-8043
▁መቆም	-8044
▁ሜትር	-8045
▁ሽጉጥ	-8046
▁ቁራጭ	-8047
▁ተጠቅ	-8048
▁ታናሽ	-8049
▁አይፈ	-8050
▁እሳቱ	-8051
▁እጁን	-8052
▁ወራት	-8053
▁ይኖር	-8054
▁ግዴታ	-8055
ameef	-8056
iinii	-8057
itara	-8058
oorii	-8059
tirii	-8060
▁Meer	-8061
▁Orom	-8062
▁tura	-8063
▁ሄዷል።	-8064
▁መፍቀድ	-8065
▁ሞኝነት	-8066
▁በአስራ	-8067
▁አይቀር	-8068
▁አፍንጫ	-8069
▁የፀሀይ	-8070
▁ይውሰዱ	-8071
▁ግድግዳ	-8072
amizii	-8073
gaaraa	-8074
iileen	-8075
isiisu	-8076
teetta	-8077
▁Ariif	-8078
▁furuu	-8079
▁iskii	-8080
▁urjii	-8081
▁መገናኘት	-8082
▁ተሰማው።	-8083
▁አመለካከ	-8084
▁ያስደስተ	-8085
▁ደንቦቹን	-8086
▁ጀመርኩ።	-8087
ineerra	-8088
▁Sochii	-8089
▁gaabba	-8090
▁hubate	-8091
▁sarara	-8092
▁xinnoo	-8093
▁እንሄዳለን	-8094
ompitara	-8095
▁dhuftan	-8096
▁guutame	-8097
▁jedhamu	-8098
▁እንደምንችል	-8099
▁እጠይቃለሁ።	-8100
▁Dhukkuba	-8101
▁Lamaanuu	-8102
▁dubbatta	-8103
▁sukkaara	-8104
▁እጠራጠራለሁ።	-8105
▁Hogganaan	-8106
▁ajjeesuuf	-8107
▁barbaaduu	-8108
▁Kanaafidha	-8109
▁Ijoollummaa	-8110
▁daawwachuuf	-8111
▁Obomboleettiin	-8112
▁eeggannoodhaan	-8113
▁jaallatamaadha	-8114
ለደ	-8115
ቱት	-8116
ክቶ	-8117
ወሩ	-8118
ዲሱ	-8119
ጫካ	-8120
ሄድም	-8121
መለሰ	-8122
ራለሁ	-8123
ናገሩ	-8124
ንገዱ	-8125
ጋገብ	-8126
▁ሰሌ	-8127
▁ቆዳ	-8128
▁በዋ	-8129
▁ታጋ	-8130
▁ከለ	-8131
▁ከግ	-8132
▁ያዙ	-8133
▁ግር	-8134
▁ጎን	-8135
▁ጠጣ	-8136
arsh	-8137
rraa	-8138
teef	-8139
ሞክር።	-8140
ኳቸው።	-8141
ደረገው	-8142
▁Aww	-8143
▁Hub	-8144
▁ele	-8145
▁quf	-8146
▁ቀጥሎ	-8147
▁በረራ	-8148
▁ባውቅ	-8149
▁ተለው	-8150
▁ተሰብ	-8151
▁ንገሩ	-8152
▁ከመስ	-8153
▁ወረቀ	-8154
▁ውድቅ	-8155
▁ጎልፍ	-8156
▁ፀሀፊ	-8157
▁ፍቃድ	-8158
iitii	-8159
ootti	-8160
ቸዋለሁ።	-8161
ዚአብሄር	-8162
ደርገውን	-8163
▁kala	-8164
▁shee	-8165
▁ሄደች።	-8166
▁ማልቀስ	-8167
▁በመጥፎ	-8168
▁በአለም	-8169
▁ተገናኘ	-8170
▁አሏት።	-8171
▁የአንድ	-8172
▁ያሉትን	-8173
▁ዶክተሩ	-8174
▁ጠርሙስ	-8175
aannis	-8176
▁Anaaf	-8177
▁aanaa	-8178
▁cabee	-8179
▁deemi	-8180
▁dugda	-8181
▁gorse	-8182
▁muraa	-8183
▁onnee	-8184
▁safuu	-8185
▁ለመፍታት	-8186
▁መከላከያ	-8187
▁ማረፊያው	-8188
▁ማስተማር	-8189
▁ቦርሳዬን	-8190
▁ተናገረ።	-8191
▁አላደረገ	-8192
▁አስበዋል	-8193
▁አየሁት።	-8194
▁እውነትን	-8195
▁የተለያዩ	-8196
▁argitu	-8197
▁cimtee	-8198
▁geesse	-8199
▁liqimf	-8200
▁qullaa	-8201
▁ምክንያቱም	-8202
▁አስቀድመው	-8203
▁እበላለሁ።	-8204
▁ጠየቅኩት።	-8205
▁Borsaan	-8206
▁Waraana	-8207
▁dhoksaa	-8208
▁ulfaate	-8209
▁dhukaasa	-8210
▁ilaalcha	-8211
▁injifate	-8212
▁jalqabnu	-8213
▁qorannoo	-8214
▁jaallatan	-8215
▁jaallatta	-8216
▁dandamachuu	-8217
▁odeeffannoo	-8218
uw	-8219
ረጀ	-8220
ዚቃ	-8221
ዴን	-8222
ጎም	-8223
omm	-8224
ርማር	-8225
ሰች።	-8226
ስተር	-8227
ብህም	-8228
ቻችሁ	-8229
ንድዊ	-8230
ኖሩት	-8231
ዝቃዜ	-8232
ድርገ	-8233
ገረመ	-8234
ገሩ።	-8235
ጠይቁ	-8236
▁On	-8237
▁ሰነ	-8238
▁ስሙ	-8239
▁በቅ	-8240
▁ተኩ	-8241
▁የኤ	-8242
▁ደበ	-8243
▁ገመ	-8244
tota	-8245
ረዋል።	-8246
ስተዋል	-8247
ናደርግ	-8248
ደርግም	-8249
▁Fir	-8250
▁Lag	-8251
▁haw	-8252
▁too	-8253
▁ላንተ	-8254
▁ልማድ	-8255
▁ማለፍ	-8256
▁ሰጠ።	-8257
▁በቤት	-8258
▁ብቸኛ	-8259
▁እያለ	-8260
▁የሰራ	-8261
▁የጎደ	-8262
▁ይንገ	-8263
eenyu	-8264
iiloo	-8265
ቄያለሁ።	-8266
▁Hayy	-8267
▁Soba	-8268
▁jaha	-8269
▁ላይሆን	-8270
▁ልሰጥህ	-8271
▁መኪናዬ	-8272
▁መዘመር	-8273
▁ማጨስን	-8274
▁ረሳሁ።	-8275
▁ስምንት	-8276
▁በወጣት	-8277
▁ቢሆንም	-8278
▁ተቀባይ	-8279
▁ትምህር	-8280
▁አሳዛኝ	-8281
▁አውሮፓ	-8282
▁እንሆና	-8283
▁እንዳያ	-8284
▁እደውል	-8285
▁እድገት	-8286
▁የተነሳ	-8287
▁ያረጋግ	-8288
▁ይበላሉ	-8289
▁ደብተር	-8290
chifne	-8291
▁dhaba	-8292
▁giddu	-8293
▁himtu	-8294
▁kolfe	-8295
▁ለብሷል።	-8296
▁ነበረብኝ	-8297
▁ኮንሰርቱ	-8298
▁የሁለተኛ	-8299
▁የህይወት	-8300
▁የሚቆጠሩ	-8301
▁Qawwee	-8302
▁Waaree	-8303
▁bittaa	-8304
▁galata	-8305
▁gannaa	-8306
▁hawwat	-8307
▁maalii	-8308
▁qabxii	-8309
▁saayin	-8310
▁ለብሳለች።	-8311
▁ቀድሞውንም	-8312
▁አሳለፍኩ።	-8313
▁እንደሚመጣ	-8314
▁Deemuun	-8315
▁dubbisu	-8316
▁galmaan	-8317
▁guddina	-8318
▁qabaman	-8319
▁soorama	-8320
▁waggaan	-8321
▁yaaleen	-8322
▁አልቻለችም።	-8323
garummaan	-8324
▁barsiise	-8325
▁jeequmsa	-8326
▁muraasni	-8327
▁qabaadhu	-8328
▁taphadha	-8329
▁Teenisiin	-8330
▁dubbisuuf	-8331
▁fakkaattu	-8332
▁hiyyeessa	-8333
▁kaleessaa	-8334
▁konsartii	-8335
▁barbaadeen	-8336
▁dhukkubsatee	-8337
▁dhukkubsattee	-8338
▁mirkaneeffachuu	-8339
ሆኔ	-8340
ለቱ	-8341
ማግ	-8342
ሜን	-8343
ሽና	-8344
ቀያ	-8345
ቦቹ	-8346
ተኩ	-8347
ናይ	-8348
ዝብ	-8349
ጉር	-8350
ጥፍ	-8351
ሁኑ።	-8352
ማግሌ	-8353
ናይት	-8354
ካሄደ	-8355
ወድም	-8356
ጠች።	-8357
▁ልደ	-8358
▁ሰል	-8359
▁ነቀ	-8360
▁አዛ	-8361
▁እፅ	-8362
ilba	-8363
omaa	-8364
qiin	-8365
xaba	-8366
ማለሁ።	-8367
ችሁንም	-8368
የትኛው	-8369
▁dho	-8370
▁kur	-8371
▁qux	-8372
▁መካነ	-8373
▁ምታት	-8374
▁ርቀት	-8375
▁ስለሌ	-8376
▁ሹፌር	-8377
▁ሾርባ	-8378
▁በግራ	-8379
▁ነገራ	-8380
▁አለም	-8381
▁ወሰነ	-8382
▁ወደድ	-8383
▁ወፎች	-8384
▁ይሀው	-8385
▁ጥብቅ	-8386
ርማርኬት	-8387
▁eebb	-8388
▁faal	-8389
▁fufi	-8390
▁work	-8391
▁ለመኖር	-8392
▁መልእክ	-8393
▁ሬስቶራ	-8394
▁ሳንድዊ	-8395
▁በሁለት	-8396
▁አልወደ	-8397
▁አልጋው	-8398
▁እርጥብ	-8399
▁እያወራ	-8400
▁ይደውሉ	-8401
▁ደክሞኝ	-8402
aantii	-8403
ametti	-8404
atamaa	-8405
isiise	-8406
siisaa	-8407
tootaa	-8408
▁aarii	-8409
▁darbu	-8410
▁erguu	-8411
▁fanni	-8412
▁ganna	-8413
▁madaa	-8414
▁ተነጋገር	-8415
▁ተናደደ።	-8416
▁አልደረሰ	-8417
▁አልፈቅድ	-8418
▁አድርገው	-8419
▁የሚያስደ	-8420
▁የተናገር	-8421
▁ያስቀምጡ	-8422
iriimii	-8423
▁Abjuun	-8424
▁Amalli	-8425
▁Gowwaa	-8426
▁Waxaba	-8427
▁dhaabe	-8428
▁eeguuf	-8429
▁guutee	-8430
▁kabaja	-8431
▁mudatu	-8432
▁yaadni	-8433
▁በብስክሌት	-8434
▁አላየሁም።	-8435
▁አይሰራም።	-8436
▁ይመስለኛል	-8437
▁ይሰማዎታል	-8438
▁Dilbata	-8439
▁Doktora	-8440
▁Qulqull	-8441
▁galchuu	-8442
▁hubadhe	-8443
▁jalqabu	-8444
▁miidhuu	-8445
▁mudatee	-8446
▁tolchuu	-8447
▁በእንግሊዝኛ	-8448
▁Gaazexaa	-8449
▁Sekondii	-8450
▁ajjeesuu	-8451
▁dubbatan	-8452
▁hojjennu	-8453
▁አድርጌዋለሁ።	-8454
▁Saffisaan	-8455
iskileetiin	-8456
▁Meeshaalee	-8457
▁Torbanitti	-8458
▁fakkaachuu	-8459
▁isaaniitti	-8460
▁barumsichaa	-8461
▁hatattamaan	-8462
▁kofalchiisa	-8463
▁sodaachisaa	-8464
ry	-8465
ሪቱ	-8466
ቶቼ	-8467
ነሰ	-8468
ናድ	-8469
ንህ	-8470
ዩት	-8471
end	-8472
ich	-8473
ማማት	-8474
ትም።	-8475
ዘገይ	-8476
ያል።	-8477
ደረስ	-8478
▁ለቀ	-8479
▁ሩቅ	-8480
▁ክፉ	-8481
▁የሀ	-8482
▁የሱ	-8483
▁ይሞ	-8484
▁ጨው	-8485
መኛል።	-8486
ማለች።	-8487
ችሁም።	-8488
▁Ala	-8489
▁Umm	-8490
▁boh	-8491
▁jii	-8492
▁ver	-8493
▁ለብዙ	-8494
▁በምን	-8495
▁በአቅ	-8496
▁በጥቅ	-8497
▁ብሄድ	-8498
▁ተማር	-8499
▁ትኬት	-8500
▁አንዴ	-8501
▁እጆች	-8502
▁የለሽ	-8503
▁የልጅ	-8504
▁የሰጠ	-8505
▁የውሻ	-8506
▁ይሆና	-8507
▁ይከብ	-8508
▁ጎዳና	-8509
aamil	-8510
anaaf	-8511
bilii	-8512
onsar	-8513
ሬአለሁ።	-8514
▁Heey	-8515
▁Shor	-8516
▁haar	-8517
▁like	-8518
▁qood	-8519
▁sobe	-8520
▁መመገብ	-8521
▁ሰራሁ።	-8522
▁በስልክ	-8523
▁ነበረች	-8524
▁አዳዲስ	-8525
▁ከአስር	-8526
▁የምለው	-8527
▁የአበባ	-8528
▁የጠየቅ	-8529
▁ይስማማ	-8530
▁ይጠብቁ	-8531
tistii	-8532
▁Jechi	-8533
▁mudat	-8534
▁mukaa	-8535
▁waraa	-8536
▁ለመዋኘት	-8537
▁ልትሰጠኝ	-8538
▁በተሳሳተ	-8539
▁እየሞከረ	-8540
▁የመጣሁት	-8541
▁ጠየቃት።	-8542
▁Jaarsi	-8543
▁baraan	-8544
▁duukaa	-8545
▁waldaa	-8546
▁warqee	-8547
▁አልሰራም።	-8548
▁አልበላም።	-8549
▁አገኛለሁ።	-8550
▁እንደነበር	-8551
▁ወስኛለሁ።	-8552
▁የተናገረው	-8553
achiisaa	-8554
▁Manatti	-8555
▁baasuuf	-8556
▁lallaaf	-8557
▁maallaq	-8558
▁xiqqaan	-8559
▁በዝቶብኛል።	-8560
▁እስማማለሁ።	-8561
ibsiifate	-8562
varsiitii	-8563
▁Hogganaa	-8564
▁Sagantaa	-8565
▁asoosama	-8566
▁banaadha	-8567
▁beekutti	-8568
▁dhabeera	-8569
▁dhagahuu	-8570
▁miidhame	-8571
▁rakkisuu	-8572
▁sirritti	-8573
▁sooressa	-8574
▁Filannoon	-8575
▁Kompitara	-8576
▁baratamne	-8577
▁eeggadhaa	-8578
▁hubachuun	-8579
▁mootummaa	-8580
▁jalqabeera	-8581
▁keessattin	-8582
ላ።	-8583
ርን	-8584
ትስ	-8585
ንሽ	-8586
አዎ	-8587
የን	-8588
ጋና	-8589
ፋፋ	-8590
jji	-8591
roo	-8592
መፅሀ	-8593
ረች።	-8594
ረጡ።	-8595
ርሳ።	-8596
ሸከም	-8597
ሽከር	-8598
ቀያሚ	-8599
ቀይር	-8600
ብረት	-8601
ኣመቱ	-8602
ከታተ	-8603
ካባቢ	-8604
▁te	-8605
▁up	-8606
▁ህገ	-8607
▁ለጥ	-8608
▁ላከ	-8609
▁ሞል	-8610
▁ሲል	-8611
▁ቀኝ	-8612
▁ቅድ	-8613
▁ብቁ	-8614
▁ንጉ	-8615
▁ከደ	-8616
▁የዘ	-8617
▁ያጥ	-8618
▁ድሃ	-8619
▁ዶሮ	-8620
andh	-8621
ccaa	-8622
eraa	-8623
mail	-8624
ላትም።	-8625
ገናል።	-8626
▁Kon	-8627
▁Yuu	-8628
▁aja	-8629
▁qus	-8630
▁quu	-8631
▁ለሰኣ	-8632
▁በጊዜ	-8633
▁ትበል	-8634
▁አለች	-8635
▁አብሬ	-8636
▁አንቺ	-8637
▁እርሳ	-8638
▁እየጠ	-8639
▁እደው	-8640
▁እጅግ	-8641
▁ውሻዬ	-8642
▁ዘንድ	-8643
▁ያመጣ	-8644
aasni	-8645
oojii	-8646
uulee	-8647
▁Dand	-8648
▁Ijji	-8649
▁Lola	-8650
▁This	-8651
▁dibu	-8652
▁mata	-8653
▁what	-8654
▁ሂሳቡን	-8655
▁ለስላሳ	-8656
▁ልጆችን	-8657
▁ሰራተኛ	-8658
▁ስርኣት	-8659
▁በአስር	-8660
▁ብቻዋን	-8661
▁ተመለስ	-8662
▁ነበረው	-8663
▁አለዎት	-8664
▁አምልጦ	-8665
▁አገሮች	-8666
▁እናትህ	-8667
▁ካናዳዊ	-8668
▁የልብስ	-8669
▁የሚበላ	-8670
▁የታመመ	-8671
▁ይለኛል	-8672
▁ይላሉ።	-8673
▁ይባላል	-8674
▁ጀመሩ።	-8675
eeyyii	-8676
▁Cirra	-8677
▁Farda	-8678
▁darba	-8679
▁duree	-8680
▁hadoo	-8681
▁hiriy	-8682
▁morma	-8683
▁seena	-8684
▁ለመጨረስ	-8685
▁በየኣመቱ	-8686
▁አልተሳካ	-8687
▁አስቀያሚ	-8688
▁የሚገርም	-8689
▁ይኖራል።	-8690
eenyaan	-8691
ojektii	-8692
▁Ilkaan	-8693
▁argata	-8694
▁burjaa	-8695
▁kaasuu	-8696
▁saanii	-8697
▁አግኝቷል።	-8698
▁እመርጣለሁ	-8699
eellisaa	-8700
▁Jaalala	-8701
▁Koochoo	-8702
▁bittaaf	-8703
▁deemtaa	-8704
▁yaaddee	-8705
▁አንፈልግም።	-8706
▁እመለሳለሁ።	-8707
▁akaakayy	-8708
▁eeggadhu	-8709
▁laafessa	-8710
▁nyaattan	-8711
▁Guyyaatti	-8712
▁Meeriitti	-8713
▁eenyullee	-8714
▁guyyaatti	-8715
▁harkifate	-8716
▁Dhukkubbii	-8717
▁Waxabajjii	-8718
▁bineensota	-8719
▁Biskileetiin	-8720
▁Garaagarummaan	-8721
ሁህ	-8722
ረጡ	-8723
ናቴ	-8724
ንቺ	-8725
እኔ	-8726
እኖ	-8727
ካይ	-8728
ወች	-8729
ዝን	-8730
ዞች	-8731
ደሩ	-8732
ዳዳ	-8733
ጅሙ	-8734
ጉዞ	-8735
ጣሬ	-8736
ፍቱ	-8737
ari	-8738
qaq	-8739
ስቲክ	-8740
ነዚያ	-8741
ናንት	-8742
ንጨት	-8743
▁ለህ	-8744
▁ሮጥ	-8745
▁ተፀ	-8746
▁ታጥ	-8747
▁ነር	-8748
▁ከሩ	-8749
▁ዋሽ	-8750
▁ይጣ	-8751
▁ደነ	-8752
ddee	-8753
ijii	-8754
isan	-8755
▁Fal	-8756
▁Lan	-8757
▁his	-8758
▁ሂሳብ	-8759
▁መላክ	-8760
▁ሲጋራ	-8761
▁ስምህ	-8762
▁በላ።	-8763
▁ብርድ	-8764
▁ተጣብ	-8765
▁አሰቃ	-8766
▁እናስ	-8767
▁እከፍ	-8768
▁ወሰድ	-8769
▁ዋጋው	-8770
▁የሆኑ	-8771
▁የማት	-8772
▁የደም	-8773
▁ያለን	-8774
▁ይምጡ	-8775
▁ይቀጥ	-8776
▁ይችል	-8777
▁ደፋር	-8778
▁ጮሀ።	-8779
ariin	-8780
famee	-8781
oofaa	-8782
መፅሀፍት	-8783
▁Saam	-8784
▁rafa	-8785
▁ለመጓዝ	-8786
▁መደበኛ	-8787
▁ሚሊዮን	-8788
▁ምርመራ	-8789
▁ስኬታማ	-8790
▁ሽማግሌ	-8791
▁በርካታ	-8792
▁ትላለህ	-8793
▁አሉዎት	-8794
▁እህቶች	-8795
▁ውሻዬን	-8796
▁ዘግይቼ	-8797
▁የኣለም	-8798
▁ይመርጣ	-8799
▁ደወልኩ	-8800
▁Iddoo	-8801
▁Oduun	-8802
▁ajaja	-8803
▁argan	-8804
▁jenne	-8805
▁jibbu	-8806
▁ህይወቴን	-8807
▁ለመጠበቅ	-8808
▁ለሰኣታት	-8809
▁ሰርቷል።	-8810
▁በመኪናው	-8811
▁ናፈቀኝ።	-8812
▁የተወለድ	-8813
▁ጥያቄውን	-8814
▁Gurbaa	-8815
▁Landan	-8816
▁chokol	-8817
▁dambal	-8818
▁dhabne	-8819
▁dhuunf	-8820
▁jiidha	-8821
▁karaan	-8822
▁taasif	-8823
▁ለትምህርት	-8824
▁አናውቅም።	-8825
▁Bineens	-8826
▁Meeriif	-8827
▁Taaksii	-8828
▁Walitti	-8829
▁baradha	-8830
▁bitanne	-8831
▁dagadhu	-8832
▁deemnee	-8833
▁sirnaan	-8834
▁xuuxuun	-8835
▁እንደምፈልግ	-8836
▁Buufatni	-8837
▁beellama	-8838
▁gaafanne	-8839
▁gaazexaa	-8840
▁jechoota	-8841
▁nyaadhee	-8842
▁shamizii	-8843
▁Dhugaadha	-8844
▁barbaaddi	-8845
▁bohaartii	-8846
▁fakkaatti	-8847
▁jaallachuu	-8848
▁yaabbachuu	-8849
▁chokoleetii	-8850
▁guddaadhaan	-8851
▁qulqulluudha	-8852
ሀት	-8853
ለበ	-8854
ሞተ	-8855
ረካ	-8856
ሽቱ	-8857
ፌን	-8858
ሆንኩ	-8859
ላለም	-8860
ምጣት	-8861
ሳሳት	-8862
ባባይ	-8863
ቻት።	-8864
ዘፍን	-8865
ግባር	-8866
ጠይቀ	-8867
▁aa	-8868
▁ሙዝ	-8869
▁ቆየ	-8870
▁በጋ	-8871
▁ነቅ	-8872
▁ካየ	-8873
▁ፃፈ	-8874
▁ፍት	-8875
adaa	-8876
dhim	-8877
immi	-8878
ofaa	-8879
tiri	-8880
ረንም።	-8881
ነጋገራ	-8882
ናይትድ	-8883
▁Dug	-8884
▁car	-8885
▁isk	-8886
▁ላሳይ	-8887
▁ልጆቼ	-8888
▁ሚስቱ	-8889
▁ሰማይ	-8890
▁ሰራተ	-8891
▁ብእር	-8892
▁ተቃው	-8893
▁ተነስ	-8894
▁ተጨና	-8895
▁ተፀፅ	-8896
▁ነግሮ	-8897
▁ኣይኖ	-8898
▁እንቆ	-8899
▁እድሉ	-8900
▁ዋናው	-8901
▁የራቀ	-8902
▁የተከ	-8903
▁ያሳዝ	-8904
▁ይከሰ	-8905
agaan	-8906
agdee	-8907
eezii	-8908
tutti	-8909
ስማማም።	-8910
▁Baga	-8911
▁Suur	-8912
▁bahe	-8913
▁qabe	-8914
▁ለፖሊስ	-8915
▁ማጥመድ	-8916
▁በእሳት	-8917
▁አስከፊ	-8918
▁አደርግ	-8919
▁አገኘ።	-8920
▁አጋጣሚ	-8921
▁እርሳስ	-8922
▁የፍቅር	-8923
▁ይላል።	-8924
koolii	-8925
neetii	-8926
ootaan	-8927
▁Sirna	-8928
▁boqon	-8929
▁duras	-8930
▁manni	-8931
▁oofaa	-8932
▁warri	-8933
▁ለዘላለም	-8934
▁መተማመን	-8935
▁ተቀመጠ።	-8936
▁ተጠያቂው	-8937
▁አትፍቀድ	-8938
▁እንዳልተ	-8939
▁የለብህም	-8940
▁የምንችል	-8941
▁የገንዘብ	-8942
▁ጓደኛዬን	-8943
alkanii	-8944
tukaana	-8945
▁Dhufuu	-8946
▁Fakkii	-8947
▁aartii	-8948
▁adeera	-8949
▁dhabde	-8950
▁dhabee	-8951
▁dhihaa	-8952
▁dhufee	-8953
▁dirqis	-8954
▁furuuf	-8955
▁guddif	-8956
▁jabina	-8957
▁kolfuu	-8958
▁አመለካከት	-8959
▁አይቻልም።	-8960
▁እንደሆነች	-8961
▁ደክሞኛል።	-8962
▁Kompiit	-8963
▁sodaata	-8964
▁xumurre	-8965
▁አይደለህም።	-8966
▁burjaaja	-8967
▁fokkisaa	-8968
▁gahaadha	-8969
▁jedhamee	-8970
▁kenneera	-8971
▁raawwate	-8972
▁Dhukkubni	-8973
▁hojiirraa	-8974
▁milkoofne	-8975
▁እደውልልሃለሁ።	-8976
▁Qurxummiin	-8977
▁Dhaabbatichi	-8978
ሰሙ	-8979
ቀደ	-8980
በኘ	-8981
ነር	-8982
ናቀ	-8983
ኙ።	-8984
ጣጫ	-8985
luu	-8986
ልህ።	-8987
መች።	-8988
ረዳን	-8989
ራጮች	-8990
ሳችን	-8991
ቀጥታ	-8992
በል።	-8993
ብሪካ	-8994
ታለህ	-8995
ነቀ።	-8996
ኩህ።	-8997
ዋለህ	-8998
▁ሩዝ	-8999
▁ቅጠ	-9000
▁ኪሎ	-9001
▁ክን	-9002
ituu	-9003
maat	-9004
ሁትም።	-9005
ኛለች።	-9006
ጠናቀቅ	-9007
▁Aja	-9008
▁Mas	-9009
▁dog	-9010
▁gib	-9011
▁som	-9012
▁yen	-9013
▁ሀይቁ	-9014
▁ለብሶ	-9015
▁መሃል	-9016
▁ሙከራ	-9017
▁ረዘም	-9018
▁ስውር	-9019
▁በረሃ	-9020
▁በአን	-9021
▁አለቀ	-9022
▁አታው	-9023
▁አይስ	-9024
▁ከጊዜ	-9025
▁ፊልሙ	-9026
iftii	-9027
▁Biyy	-9028
▁elek	-9029
▁jaam	-9030
▁ሊገባኝ	-9031
▁ማክበር	-9032
▁ሰውዬው	-9033
▁በሌሊት	-9034
▁ተኝቷል	-9035
▁አሳውቀ	-9036
▁የሉም።	-9037
▁የሙቀት	-9038
▁Dugda	-9039
▁Kunis	-9040
▁bakki	-9041
▁lakki	-9042
▁rafne	-9043
▁think	-9044
▁ለመጠየቅ	-9045
▁ማስቀመጫ	-9046
▁ሰራተኞች	-9047
eessine	-9048
▁Kootii	-9049
▁Ofitti	-9050
▁barate	-9051
▁cimsee	-9052
▁fiigaa	-9053
▁ለመነጋገር	-9054
▁ብስክሌቴን	-9055
▁አልመጣም።	-9056
▁አንዳቸውም	-9057
▁አይቀርም።	-9058
▁እገባለሁ።	-9059
▁የማይታመን	-9060
qaqsanii	-9061
▁Daldala	-9062
▁baradhu	-9063
▁barsiif	-9064
▁carraan	-9065
▁dambali	-9066
▁dhaquuf	-9067
▁qabneef	-9068
▁saffisa	-9069
▁እንሄዳለን።	-9070
▁ያስፈልገኛል	-9071
▁Jarmanii	-9072
▁amansiif	-9073
▁dhukkube	-9074
▁fagoodha	-9075
▁furmaata	-9076
▁fuudhuuf	-9077
▁hadoochu	-9078
▁hantuuta	-9079
▁hayyamuu	-9080
▁jijjiiru	-9081
▁የምትናገረውን	-9082
▁barreessu	-9083
▁hojjetamu	-9084
▁ijoolleen	-9085
▁xumuramuu	-9086
attaniittuu	-9087
▁carraaqqii	-9088
▁dubbiseera	-9089
▁gaddisiisaa	-9090
zz	-9091
ሁም	-9092
ምሳ	-9093
ሪብ	-9094
ራመ	-9095
ራን	-9096
ቁም	-9097
ታ።	-9098
ኒክ	-9099
ከመ	-9100
ካሚ	-9101
ዋኝ	-9102
ጅት	-9103
ous	-9104
ለቅስ	-9105
መገብ	-9106
ተናል	-9107
ተኮር	-9108
ነበሩ	-9109
ነጋግ	-9110
ክስቴ	-9111
ዘምር	-9112
ጦችን	-9113
▁በቢ	-9114
▁በጣ	-9115
▁ተሻ	-9116
▁ትከ	-9117
▁የይ	-9118
▁የዶ	-9119
▁ጃፓ	-9120
▁ፒዛ	-9121
orri	-9122
uune	-9123
ረናል።	-9124
ነግረኝ	-9125
ንደዚህ	-9126
ጠብቀው	-9127
ጦርነቱ	-9128
▁Bur	-9129
▁Sob	-9130
▁Tiy	-9131
▁fid	-9132
▁ለሌላ	-9133
▁ለመደ	-9134
▁መጡ።	-9135
▁ሮጠ።	-9136
▁ሰበብ	-9137
▁ሳለሁ	-9138
▁በጫካ	-9139
▁ቤትህ	-9140
▁ተሳት	-9141
▁አላወ	-9142
▁አርቲ	-9143
▁አይቶ	-9144
▁እረዳ	-9145
▁እሳት	-9146
▁እጥፍ	-9147
▁ከለከ	-9148
▁ወለሉ	-9149
▁ደርሰ	-9150
▁ጠብቄ	-9151
▁ፈቃድ	-9152
geree	-9153
iixee	-9154
▁Mary	-9155
▁Quba	-9156
▁qora	-9157
▁መደረግ	-9158
▁ማዳመጥ	-9159
▁ስቴትስ	-9160
▁በመሆኔ	-9161
▁በመካከ	-9162
▁በምሽት	-9163
▁በረዶው	-9164
▁በቀጥታ	-9165
▁በአየር	-9166
▁በዚያን	-9167
▁ተፅእኖ	-9168
▁አሰቃቂ	-9169
▁ካለፈው	-9170
▁ወጣች።	-9171
▁የራሱን	-9172
▁ጨዋታው	-9173
ooftaa	-9174
tichaa	-9175
ukkeen	-9176
▁Aduun	-9177
▁Baree	-9178
▁Dafii	-9179
▁Kukii	-9180
▁Shakk	-9181
▁ammoo	-9182
▁bitte	-9183
▁galma	-9184
▁ሰምተሃል	-9185
▁በጥቅምት	-9186
▁በፓርቲው	-9187
▁እስክሪብ	-9188
▁እየጠበቁ	-9189
▁እያንዳን	-9190
▁ወላጆችህ	-9191
▁ውስብስብ	-9192
▁የለብንም	-9193
▁የሚፈልግ	-9194
▁ግድግዳው	-9195
▁ጠፍቷል።	-9196
ukaatoo	-9197
▁Muuziq	-9198
▁Oromoo	-9199
▁Saayin	-9200
▁Tarree	-9201
▁aansee	-9202
▁dhandh	-9203
▁dhiisa	-9204
▁eebbif	-9205
▁ስህተቶችን	-9206
▁ተቀባይነት	-9207
▁ተዘግቷል።	-9208
▁አልተናገረ	-9209
▁አልነገርከ	-9210
▁Dhugaan	-9211
▁Lammata	-9212
▁Paarkii	-9213
▁Riqichi	-9214
▁Walaloo	-9215
▁argitan	-9216
▁beekuuf	-9217
▁dabarsa	-9218
▁dubbisa	-9219
▁fedhiin	-9220
▁jedhiin	-9221
▁kunneen	-9222
▁manneen	-9223
▁qophoof	-9224
▁saawwan	-9225
▁ታስታውሳለህ	-9226
▁አልቻልንም።	-9227
▁dhiphina	-9228
▁haasofne	-9229
▁hammamii	-9230
▁jiraadhu	-9231
▁jiraatan	-9232
▁kuufamaa	-9233
▁muuziyee	-9234
▁qabattee	-9235
▁Daraaraan	-9236
▁bilbiluun	-9237
▁gadhiisuu	-9238
▁ispoortii	-9239
▁Hospitaala	-9240
▁argiteettaa	-9241
▁gargaareera	-9242
▁konkolaataan	-9243
ps	-9244
ላጅ	-9245
ልጋ	-9246
ሮት	-9247
ቡብ	-9248
ከል	-9249
ጎች	-9250
ers	-9251
ick	-9252
ሄድክ	-9253
ቃወም	-9254
ቶቼን	-9255
ከላከ	-9256
ዳንቱ	-9257
ጨርስ	-9258
▁መወ	-9259
▁ሱሪ	-9260
▁ቅጂ	-9261
▁ቼዝ	-9262
▁እኮ	-9263
▁ካላ	-9264
▁የሃ	-9265
▁የጭ	-9266
▁የፊ	-9267
▁ጨም	-9268
oomi	-9269
tara	-9270
ሄድም።	-9271
ላለች።	-9272
ልህም።	-9273
ንቋል።	-9274
ዘግየት	-9275
ድናችን	-9276
ፋለሁ።	-9277
▁Bid	-9278
▁Hat	-9279
▁Nii	-9280
▁bid	-9281
▁gee	-9282
▁kor	-9283
▁ሁን።	-9284
▁ሆነው	-9285
▁መፍቻ	-9286
▁ማለቴ	-9287
▁ማስጠ	-9288
▁ማይል	-9289
▁ርእሰ	-9290
▁ሰራ።	-9291
▁በእጅ	-9292
▁ተደብ	-9293
▁ተጎድ	-9294
▁እስረ	-9295
▁እያሳ	-9296
▁ኮሌጅ	-9297
▁ይመለ	-9298
nikii	-9299
ticha	-9300
yyoon	-9301
ስተካከል	-9302
ገኛለች።	-9303
▁Fayy	-9304
▁Gudd	-9305
▁ibse	-9306
▁jilb	-9307
▁very	-9308
▁መወሰን	-9309
▁መገኘት	-9310
▁ስእሎች	-9311
▁ቢዘንብ	-9312
▁ተዘጋጅ	-9313
▁ተግባቢ	-9314
▁አቅጣጫ	-9315
▁አይርሱ	-9316
▁እንቁላ	-9317
▁እየሰሩ	-9318
▁ከቤተሰ	-9319
▁ካፖርት	-9320
▁ክፍሎች	-9321
▁ውይይት	-9322
▁ድልድይ	-9323
alleen	-9324
eechaa	-9325
▁Boqon	-9326
▁Bunni	-9327
▁Meeqa	-9328
▁aadaa	-9329
▁akeek	-9330
▁sirna	-9331
▁ሁኔታዎች	-9332
▁መሆንህን	-9333
▁ማነጋገር	-9334
▁ቆይቷል።	-9335
▁እንደማላ	-9336
▁እየዘነበ	-9337
▁ኩባንያው	-9338
▁የሚኖሩት	-9339
▁ይሞክሩ።	-9340
ariitii	-9341
▁Dhagaa	-9342
▁Eessaa	-9343
▁banuun	-9344
▁ciisuu	-9345
▁feetan	-9346
▁ilaali	-9347
▁jaamaa	-9348
▁yaalne	-9349
▁እየተካሄደ	-9350
▁የተመሰረተ	-9351
▁የእርስዎን	-9352
▁ይንከባከባ	-9353
▁dhufuuf	-9354
▁dhufuun	-9355
▁dhuguun	-9356
▁filadhu	-9357
▁galchaa	-9358
▁himeera	-9359
▁hoteela	-9360
▁ittisuu	-9361
▁ነግሬሃለሁ።	-9362
▁Hojiitti	-9363
▁ilaalamu	-9364
▁michoota	-9365
▁qabsiise	-9366
▁qunnamuu	-9367
▁Dhiironni	-9368
▁bashannan	-9369
▁fuulduraa	-9370
▁gammaddan	-9371
▁gurgurtaa	-9372
▁Lammiileen	-9373
▁Pirezidaan	-9374
▁Qorqorroon	-9375
▁taphachuuf	-9376
▁Dubartoonni	-9377
▁dhukkubbiin	-9378
▁waliigaltee	-9379
20	-9380
ci	-9381
ሀብ	-9382
ለጫ	-9383
ር።	-9384
ናዊ	-9385
ዎቼ	-9386
ያጭ	-9387
ይዘ	-9388
ዮሀ	-9389
ዳይ	-9390
ጠመ	-9391
ፁን	-9392
ፍሬ	-9393
▁ቸ	-9394
uni	-9395
ure	-9396
ቋርጥ	-9397
ንቀት	-9398
ዋወቅ	-9399
ገሪቱ	-9400
ጨማሪ	-9401
▁ro	-9402
▁ማር	-9403
▁ቀዶ	-9404
▁ባን	-9405
▁ይጮ	-9406
▁ደሞ	-9407
▁ድፍ	-9408
▁ገቢ	-9409
▁ጎማ	-9410
dhab	-9411
ogaa	-9412
reen	-9413
ting	-9414
tive	-9415
unaa	-9416
ቀሳቀስ	-9417
ተማመን	-9418
ችኋል።	-9419
ናግረኝ	-9420
ዮሀንስ	-9421
ጀምረው	-9422
ጣለሁ።	-9423
▁ማህተ	-9424
▁ማራኪ	-9425
▁ሰማዩ	-9426
▁ቀበቶ	-9427
▁በብዙ	-9428
▁በተራ	-9429
▁በተቻ	-9430
▁ተኛ።	-9431
▁ተደር	-9432
▁ተገድ	-9433
▁ንግግ	-9434
▁አስታ	-9435
▁እተኛ	-9436
▁እጫወ	-9437
▁የመስ	-9438
▁የአፍ	-9439
▁ደወል	-9440
ummii	-9441
ላቸውም።	-9442
▁Kubb	-9443
▁Sirb	-9444
▁badh	-9445
▁bool	-9446
▁dibe	-9447
▁ibsu	-9448
▁ለስራው	-9449
▁መታጠብ	-9450
▁መዝነብ	-9451
▁መዝፈን	-9452
▁ማውጣት	-9453
▁በዝናብ	-9454
▁ተበሳጨ	-9455
▁ተናገር	-9456
▁አዛውን	-9457
▁ከወንድ	-9458
▁የሚሆነ	-9459
▁ይልሃል	-9460
▁ጊዜዬን	-9461
▁ጠንክሬ	-9462
▁ፎቶግራ	-9463
▁Gabaa	-9464
▁Herre	-9465
▁Sunis	-9466
▁Urgaa	-9467
▁falma	-9468
▁kadha	-9469
▁ollaa	-9470
▁oolle	-9471
▁ለምንድን	-9472
▁ልትረዳኝ	-9473
▁መታጠቢያ	-9474
▁መጎብኘት	-9475
▁መጠንቀቅ	-9476
▁ማቀዝቀዣ	-9477
▁ሳንድዊች	-9478
▁በቁጥጥር	-9479
▁በየትኛው	-9480
▁ብርቱካን	-9481
▁አላውቀው	-9482
▁እንደመጣ	-9483
▁እንጀምር	-9484
▁ይሻለኛል	-9485
▁ፕሮጀክት	-9486
▁Hantuu	-9487
▁Qabxii	-9488
▁deemti	-9489
▁haarom	-9490
▁hatame	-9491
▁taphaa	-9492
▁tolche	-9493
▁ተሸፍኗል።	-9494
▁አምጡልኝ።	-9495
▁እቆያለሁ።	-9496
▁እንዳደረግ	-9497
▁እወስዳለሁ	-9498
▁እየጠበቅኩ	-9499
▁ከጠረጴዛው	-9500
▁የመጣሁት።	-9501
▁Bashann	-9502
▁Daabboo	-9503
▁Hayyama	-9504
▁Kubbaan	-9505
▁cheezii	-9506
▁dhugoom	-9507
▁gahumsa	-9508
▁goolfii	-9509
▁kenname	-9510
▁kennitu	-9511
▁kennuuf	-9512
▁miiccaa	-9513
▁Duubatti	-9514
▁Qabeenya	-9515
▁argachaa	-9516
▁dhaamsuu	-9517
▁dheeraan	-9518
▁dhiisuuf	-9519
▁dursitee	-9520
▁gammadde	-9521
▁irrattis	-9522
▁jiraatti	-9523
▁keenyaan	-9524
▁komachuu	-9525
▁koobilii	-9526
▁sagantaa	-9527
▁sodaadhu	-9528
▁አሳልፌያለሁ።	-9529
▁Dubartiin	-9530
▁bilbilame	-9531
▁dhiqannaa	-9532
▁ooltummaa	-9533
▁yaaddessa	-9534
▁balaadhaaf	-9535
▁nuffisiisa	-9536
▁Barreeffama	-9537
▁gammachiise	-9538
▁sodaadheera	-9539
▁hojjetteetta	-9540
ምድ	-9541
ስኤ	-9542
ቃጨ	-9543
ቆዩ	-9544
ብቻ	-9545
ኩባ	-9546
ወጠ	-9547
arf	-9548
out	-9549
ሁህ።	-9550
ለምን	-9551
ለወጥ	-9552
ስትሪ	-9553
ጀመረ	-9554
ጠቀሙ	-9555
▁ሊታ	-9556
▁ተክ	-9557
▁ታች	-9558
▁ከኔ	-9559
▁የክ	-9560
▁ጭስ	-9561
atuu	-9562
dina	-9563
very	-9564
ለመደው	-9565
ምራል።	-9566
ኖርበት	-9567
ዣለሁ።	-9568
ፖርቱን	-9569
▁Gad	-9570
▁ለምሳ	-9571
▁ለራሴ	-9572
▁ሙቀት	-9573
▁ምርት	-9574
▁ምንጣ	-9575
▁ቆየ።	-9576
▁በግል	-9577
▁ተከተ	-9578
▁ተጠር	-9579
▁ትጫወ	-9580
▁ቶም።	-9581
▁አይን	-9582
▁እነሆ	-9583
▁እንባ	-9584
▁እየሮ	-9585
▁የሚታ	-9586
▁የሰማ	-9587
▁የበጋ	-9588
▁የተደ	-9589
▁የዚያ	-9590
▁ድካም	-9591
▁ጎበኘ	-9592
▁ጥርስ	-9593
aniin	-9594
essuu	-9595
ommuu	-9596
seera	-9597
zinaa	-9598
▁2013	-9599
▁Diin	-9600
▁Ibsa	-9601
▁beel	-9602
▁fann	-9603
▁here	-9604
▁sada	-9605
▁ሃሳቡን	-9606
▁ለማቆም	-9607
▁መለየት	-9608
▁መቁረጥ	-9609
▁መዝጋት	-9610
▁ማስረጃ	-9611
▁ሳንቲም	-9612
▁ስለወደ	-9613
▁ባይሆን	-9614
▁ተዋናይ	-9615
▁እነግራ	-9616
▁እያደረ	-9617
▁ከእርሱ	-9618
▁ወረደ።	-9619
▁ውጤታማ	-9620
▁የንግድ	-9621
▁የከተማ	-9622
chisee	-9623
▁Badii	-9624
▁Biqil	-9625
▁Lagni	-9626
▁dhume	-9627
▁ganda	-9628
▁hafuu	-9629
▁kaans	-9630
▁manca	-9631
▁ragaa	-9632
▁sadan	-9633
▁ለመልቀቅ	-9634
▁በአእምሮ	-9635
▁አትሁን።	-9636
▁እንዳለኝ	-9637
▁እንዳገኘ	-9638
▁እየሄድኩ	-9639
▁ከትናንት	-9640
▁ከጓደኞቼ	-9641
▁ካርዶችን	-9642
▁ወንድሞች	-9643
▁ያውቃሉ።	-9644
alaatti	-9645
eessitu	-9646
▁Barbaa	-9647
▁Dhohin	-9648
▁beekti	-9649
▁himame	-9650
▁ifatti	-9651
▁nagaan	-9652
▁seenin	-9653
▁yaaltu	-9654
▁በአደባባይ	-9655
▁እሰማለሁ።	-9656
▁እንነጋገር	-9657
▁እኮራለሁ።	-9658
▁የሚናገረው	-9659
▁የፈለከውን	-9660
▁dabarsi	-9661
▁jilbeen	-9662
▁yaaddan	-9663
▁ትፈልጋለች።	-9664
▁የሚፈልገውን	-9665
▁Fiigicha	-9666
▁Meeshaan	-9667
▁Muuziyee	-9668
▁beeksisa	-9669
▁halkanii	-9670
▁jiraatin	-9671
▁kabajuuf	-9672
▁biraatiin	-9673
▁boqqolloo	-9674
▁dirqisiis	-9675
▁jaallanne	-9676
▁lallaafaa	-9677
▁rakkachaa	-9678
▁tokkoffaa	-9679
▁Mootummaan	-9680
▁fayyadamaa	-9681
▁Dhugumayyuu	-9682
▁Kompiitarri	-9683
▁Meeshaaleen	-9684
▁dhaabbachuu	-9685
▁ilaalchisee	-9686
▁barbaachifne	-9687
ge	-9688
ሙና	-9689
ምብ	-9690
ርጂ	-9691
ሸ።	-9692
ቀል	-9693
ቋል	-9694
ተሬ	-9695
ናቱ	-9696
ወን	-9697
ዋሽ	-9698
ዩን	-9699
ዳል	-9700
ጌጥ	-9701
ጣፋ	-9702
ጥኑ	-9703
▁ሎ	-9704
add	-9705
art	-9706
tni	-9707
መናዊ	-9708
ሴቶች	-9709
ሻሻል	-9710
ቅረብ	-9711
ታወት	-9712
ያቸው	-9713
▁ለኣ	-9714
▁ቢጫ	-9715
▁ትው	-9716
▁አክ	-9717
▁እጣ	-9718
▁ከረ	-9719
▁ከኮ	-9720
▁ከጥ	-9721
▁ዝጋ	-9722
▁የሆ	-9723
▁ይተ	-9724
▁ጫካ	-9725
▁ፕላ	-9726
essu	-9727
shur	-9728
wiit	-9729
በዛበት	-9730
ጠይቀው	-9731
▁Qaj	-9732
▁bet	-9733
▁one	-9734
▁ሀብት	-9735
▁ሀኪሙ	-9736
▁ህፃን	-9737
▁ለብሰ	-9738
▁መፃህ	-9739
▁ስልኬ	-9740
▁ሶፋው	-9741
▁በማይ	-9742
▁በሞት	-9743
▁በቤቱ	-9744
▁በወር	-9745
▁ቤትዎ	-9746
▁ተናድ	-9747
▁ትፈራ	-9748
▁ቶኪዮ	-9749
▁አብሮ	-9750
▁አውቶ	-9751
▁አይተ	-9752
▁ካልተ	-9753
▁ወሰን	-9754
▁ወስደ	-9755
▁ውጣ።	-9756
▁የልብ	-9757
▁ያሳል	-9758
▁ደመና	-9759
▁ጥሩው	-9760
ክክለኛው	-9761
ፈለጋችሁ	-9762
ፈልጋቸው	-9763
▁Giif	-9764
▁Leen	-9765
▁Niiw	-9766
▁alar	-9767
▁bubb	-9768
▁cufi	-9769
▁didn	-9770
▁gamm	-9771
▁tuul	-9772
▁ላደርግ	-9773
▁መምረጥ	-9774
▁መንስኤ	-9775
▁መፅሀፉ	-9776
▁ሳጥኑን	-9777
▁ቅዝቃዜ	-9778
▁በሌሎች	-9779
▁በማየቴ	-9780
▁በቶኪዮ	-9781
▁በዝቶብ	-9782
▁በደስታ	-9783
▁አንተም	-9784
▁አደረጉ	-9785
▁ኣይኖች	-9786
▁እስከማ	-9787
▁እንሰራ	-9788
▁እንይ።	-9789
▁እያጠና	-9790
▁እድሜው	-9791
▁ወጣቶች	-9792
▁ውድቀት	-9793
▁የመጣው	-9794
▁የሚቻል	-9795
▁ይበላል	-9796
▁ፍትሃዊ	-9797
ilabii	-9798
▁Deebi	-9799
▁dhiir	-9800
▁gadde	-9801
▁hiike	-9802
▁sheel	-9803
▁sobaa	-9804
▁yakka	-9805
▁ለማሳመን	-9806
▁ማሳለፊያ	-9807
▁ተሰበረ።	-9808
▁ነበርክ።	-9809
▁አለመግባ	-9810
▁አልኩት።	-9811
▁እያነበብ	-9812
▁ጨዋታውን	-9813
▁Qophii	-9814
▁Sirrii	-9815
▁beelof	-9816
▁dhorke	-9817
▁kiiloo	-9818
▁qofaan	-9819
▁walakk	-9820
▁waliig	-9821
▁xumure	-9822
▁yommuu	-9823
▁ተቃርቧል።	-9824
▁አሳልፏል።	-9825
▁አይገባም።	-9826
▁ያስከፍላል	-9827
▁ያደረኩት።	-9828
▁ጠየቀችው።	-9829
▁ጨዋታዎችን	-9830
eessituu	-9831
▁Kaayyoo	-9832
▁Tarkaan	-9833
▁Walumaa	-9834
▁baratte	-9835
▁dabarsu	-9836
▁kanaati	-9837
▁keelloo	-9838
▁አሜሪካውያን	-9839
▁እንፈልጋለን	-9840
▁የለብዎትም።	-9841
▁dhaladhe	-9842
▁fageenya	-9843
▁fudhatte	-9844
▁jijjiire	-9845
▁jiraattu	-9846
▁rukutame	-9847
▁yakkamaa	-9848
▁dabarsine	-9849
▁jaallanna	-9850
▁konkolaat	-9851
▁gaafatamaa	-9852
▁jiraachuuf	-9853
▁amansiisuuf	-9854
▁barbaachise	-9855
▁bineensotaa	-9856
▁dhukkubsate	-9857
▁Simbirroonni	-9858
▁poostaadhaan	-9859
▁xiyyaaraatti	-9860
▁suukaneessaadha	-9861
ak	-9862
ys	-9863
ሜል	-9864
ሱት	-9865
ስም	-9866
ናጋ	-9867
ኗን	-9868
ወረ	-9869
ዝግ	-9870
ደኝ	-9871
ጠቅ	-9872
ጫት	-9873
ፍቀ	-9874
yii	-9875
yla	-9876
ሎቹን	-9877
ረቀት	-9878
ራጣሪ	-9879
ርባው	-9880
ቀውን	-9881
ቆርጥ	-9882
ብዛም	-9883
ጎበኝ	-9884
ጣውን	-9885
▁Af	-9886
▁li	-9887
▁ሄይ	-9888
▁ሳያ	-9889
▁ቀባ	-9890
▁ትቶ	-9891
▁ትዝ	-9892
▁ነዳ	-9893
▁ኑሮ	-9894
▁የኛ	-9895
▁ይዞ	-9896
ally	-9897
ላችሁም	-9898
ሳምንቱ	-9899
ሽርሽር	-9900
ተርጎም	-9901
ፈልግህ	-9902
ፋለች።	-9903
▁Ajj	-9904
▁Gan	-9905
▁Iyy	-9906
▁Kom	-9907
▁Qon	-9908
▁Qub	-9909
▁bin	-9910
▁ሊሆኑ	-9911
▁ላለማ	-9912
▁መድረ	-9913
▁ሰሌዳ	-9914
▁ሰልች	-9915
▁ሲመጣ	-9916
▁ስሄድ	-9917
▁በከን	-9918
▁ባለመ	-9919
▁ባለቤ	-9920
▁ተቀብ	-9921
▁ታጋሽ	-9922
▁አወቅ	-9923
▁አጠፋ	-9924
▁እጠባ	-9925
▁ውለታ	-9926
▁የኪስ	-9927
▁ደንበ	-9928
▁ግብር	-9929
▁ፈጅቶ	-9930
aakee	-9931
aangu	-9932
imman	-9933
siisu	-9934
uusaa	-9935
ኒውዮርክ	-9936
▁Goww	-9937
▁anga	-9938
▁baal	-9939
▁duum	-9940
▁galg	-9941
▁yuni	-9942
▁ሊዘንብ	-9943
▁መሰረት	-9944
▁መስኮት	-9945
▁መከተል	-9946
▁ማረፊያ	-9947
▁ቀረሁ።	-9948
▁በፖስታ	-9949
▁ተረጋጋ	-9950
▁ተሳስተ	-9951
▁አለመታ	-9952
▁አልረሳ	-9953
▁ይሰራሉ	-9954
▁ገንዘቡ	-9955
▁Harki	-9956
▁Jaakk	-9957
▁Yuuni	-9958
▁aduun	-9959
▁duute	-9960
▁eegdu	-9961
▁himee	-9962
▁jilba	-9963
▁sirbu	-9964
▁ሁልጊዜም	-9965
▁ለመስጠት	-9966
▁ለመክፈል	-9967
▁ለመጀመር	-9968
▁በልተሃል	-9969
▁በመስኮቱ	-9970
▁በስድስት	-9971
▁ተማሪዎቹ	-9972
▁ተኝቷል።	-9973
▁ትመጣለህ	-9974
▁ነበራት።	-9975
▁ንገረው።	-9976
▁ያስታውሰ	-9977
▁ያገኘሁት	-9978
▁ጭንቅላት	-9979
amtoota	-9980
galatti	-9981
▁Adaraa	-9982
▁Qajeel	-9983
▁Saanii	-9984
▁Sanaaf	-9985
▁baqate	-9986
▁guddoo	-9987
▁maqaan	-9988
▁ሁላችሁንም	-9989
▁ቋንቋዎችን	-9990
▁እመለሳለሁ	-9991
▁የለበትም።	-9992
▁Lubbuun	-9993
▁Waaqayy	-9994
▁argatan	-9995
▁eenyuuf	-9996
▁galaana	-9997
▁እስከማውቀው	-9998
▁የሚያደርገው	-9999
▁Piyaanoo	-10000
▁Raadiyoo	-10001
▁dhihaate	-10002
▁dubbanna	-10003
▁filachuu	-10004
▁gammadaa	-10005
▁jalqabee	-10006
▁jilbeenf	-10007
▁kufaatii	-10008
▁qabadhaa	-10009
▁viidiyoo	-10010
▁yaadattu	-10011
▁Dhaggeeff	-10012
▁Sirriitti	-10013
▁bilbilaan	-10014
▁dhiqachuu	-10015
▁fakkaatuu	-10016
▁miliyoona	-10017
▁Dhaabbanni	-10018
▁dhungachuu	-10019
▁Hatattamaan	-10020
▁kennitaniif	-10021
▁yaadachiisa	-10022
▁Hojjettoonni	-10023
ሮቼ	-10024
ስ።	-10025
ቁን	-10026
በራ	-10027
ቶን	-10028
ንፈ	-10029
ዷል	-10030
ግን	-10031
መጣው	-10032
ማርኩ	-10033
ሰበረ	-10034
ቃታማ	-10035
ታሉ።	-10036
ነግራ	-10037
ንደን	-10038
ንዶች	-10039
ንፈስ	-10040
ኖረን	-10041
ወራው	-10042
ይዘው	-10043
ደንቅ	-10044
ዳደር	-10045
ገራሚ	-10046
ገናል	-10047
ጠው።	-10048
ጨነቀ	-10049
▁50	-10050
▁ሌባ	-10051
▁በኪ	-10052
▁ነክ	-10053
▁አቃ	-10054
▁ከህ	-10055
▁ካሉ	-10056
▁ይዘ	-10057
▁ገዝ	-10058
▁ጋራ	-10059
▁ፈታ	-10060
ሆናችሁ	-10061
ለናል።	-10062
መሳሳይ	-10063
ቀድሞው	-10064
ቷታል።	-10065
ንቅልፍ	-10066
ደኛል።	-10067
ገኛሉ።	-10068
ጠይቀኝ	-10069
ጫለሁ።	-10070
▁Isk	-10071
▁Kor	-10072
▁Til	-10073
▁ሀይቅ	-10074
▁ሆኗል	-10075
▁መንግ	-10076
▁መጣህ	-10077
▁ምግቡ	-10078
▁በራስ	-10079
▁ተከስ	-10080
▁ታምና	-10081
▁ትርኢ	-10082
▁ትከሻ	-10083
▁አስጠ	-10084
▁አቀላ	-10085
▁እንው	-10086
▁ካሉት	-10087
▁ወስነ	-10088
▁የክፍ	-10089
▁ያበቃ	-10090
▁ይተኛ	-10091
▁ደራሲ	-10092
▁ጠባብ	-10093
▁ጥንቸ	-10094
ggaas	-10095
itiin	-10096
micha	-10097
▁Haww	-10098
▁Hiik	-10099
▁Yoor	-10100
▁door	-10101
▁ህገወጥ	-10102
▁ማሰሪያ	-10103
▁ቀርፋፋ	-10104
▁በምድር	-10105
▁በትንሽ	-10106
▁ትኩሳት	-10107
▁አያውቁ	-10108
▁ኢኮኖሚ	-10109
▁እስክት	-10110
▁ከማንም	-10111
▁ከከተማ	-10112
▁የሌለው	-10113
▁የቀድሞ	-10114
▁ይምጡ።	-10115
▁ጊዜህን	-10116
▁ፍንዳታ	-10117
atudha	-10118
ላችኋለሁ።	-10119
▁Lakki	-10120
▁boruu	-10121
▁email	-10122
▁fayya	-10123
▁haxaa	-10124
▁hotee	-10125
▁kutuu	-10126
▁sabab	-10127
▁shant	-10128
▁turaa	-10129
▁ለመተኛት	-10130
▁ሰጠሁት።	-10131
▁ሰጠችኝ።	-10132
▁አምኗል።	-10133
▁አስገራሚ	-10134
▁አንችልም	-10135
▁እንዲሰራ	-10136
▁እየሰራን	-10137
▁የምትችል	-10138
▁ይኖራሉ።	-10139
▁ይውሰዱ።	-10140
▁ጓደኝነት	-10141
▁Tasgab	-10142
▁darban	-10143
▁dhufta	-10144
▁diriir	-10145
▁egeree	-10146
▁gadhee	-10147
▁garaan	-10148
▁haasaa	-10149
▁madaal	-10150
▁qabuun	-10151
▁sobduu	-10152
▁አሳውቀኝ።	-10153
▁እስክሪብቶ	-10154
toobisii	-10155
wiiterii	-10156
▁Doktara	-10157
▁Dooniin	-10158
▁amantii	-10159
▁bidiruu	-10160
▁gabaasa	-10161
▁geessuu	-10162
▁keetiif	-10163
▁raggaas	-10164
▁shawaar	-10165
▁sodaate	-10166
▁uumamaa	-10167
▁yaadame	-10168
▁yaaduun	-10169
▁ተፀፅቻለሁ።	-10170
▁አላደረገም።	-10171
▁አልበላሁም።	-10172
▁አልነበሩም።	-10173
▁እመክራለሁ።	-10174
▁እንደሚመስል	-10175
▁የምንፈልገው	-10176
▁ይመለከታል።	-10177
▁ይገርመኛል።	-10178
onsartiin	-10179
▁Faayidaa	-10180
▁Jaalalli	-10181
▁Kaayyoon	-10182
▁caccabee	-10183
▁dubbatti	-10184
▁duraanuu	-10185
▁hojjetta	-10186
▁imimmaan	-10187
▁jedhetti	-10188
▁jiraanna	-10189
▁taphataa	-10190
▁xumurama	-10191
▁አግኝቼዋለሁ።	-10192
▁እንደማደርገው	-10193
▁የመጀመሪያውን	-10194
▁Asoosamni	-10195
▁deebisuuf	-10196
▁eessayyuu	-10197
▁fagaachuu	-10198
▁gurguddoo	-10199
▁dulloomeera	-10200
▁interneetii	-10201
▁qaxxaamuraa	-10202
▁dargaggummaa	-10203
▁jaalladhudha	-10204
▁galateeffadha	-10205
▁Walumaagalatti	-10206
!"	-10207
50	-10208
qe	-10209
wa	-10210
xe	-10211
መች	-10212
ማሉ	-10213
ማሙ	-10214
ሳቁ	-10215
ቅል	-10216
በህ	-10217
በለ	-10218
ቧራ	-10219
ክር	-10220
pii	-10221
sed	-10222
ሰጠው	-10223
ስተም	-10224
ባችን	-10225
ቦት።	-10226
ነውን	-10227
ኖቹን	-10228
ያትር	-10229
ድርግ	-10230
ጠዋል	-10231
ፓርክ	-10232
▁Di	-10233
▁ሞቅ	-10234
▁ሞዴ	-10235
▁ሳቅ	-10236
▁ቁስ	-10237
▁በን	-10238
▁ተላ	-10239
▁ትግ	-10240
▁እሳ	-10241
▁እዚ	-10242
▁ውሰ	-10243
▁ይዝ	-10244
▁ጠጥ	-10245
▁ጥላ	-10246
▁ፍቅ	-10247
hing	-10248
ibni	-10249
ottu	-10250
xiin	-10251
ስተኞች	-10252
ችኋለሁ	-10253
ገኝም።	-10254
▁Saf	-10255
▁icc	-10256
▁ስሜን	-10257
▁በቲቪ	-10258
▁ትበላ	-10259
▁አትን	-10260
▁አይጥ	-10261
▁ከሩቅ	-10262
▁ካልሲ	-10263
▁ክስተ	-10264
▁የሚጠ	-10265
▁ይኖረ	-10266
▁ጥናት	-10267
aawun	-10268
alaqq	-10269
bbeen	-10270
ddeen	-10271
kirri	-10272
▁Wagg	-10273
▁chaa	-10274
▁hafu	-10275
▁hanq	-10276
▁huba	-10277
▁kurn	-10278
▁qufa	-10279
▁ህይወቱ	-10280
▁ሙዚየም	-10281
▁ማፅዳት	-10282
▁ሬዲዮን	-10283
▁ሳይንቲ	-10284
▁ስሜታዊ	-10285
▁በግማሽ	-10286
▁ተስማም	-10287
▁አልተኛ	-10288
▁እያለሁ	-10289
▁ከረጅም	-10290
▁የሚመስ	-10291
▁የውሸት	-10292
▁የዝናብ	-10293
▁ይጠይቃ	-10294
amanii	-10295
siyoon	-10296
▁Cidha	-10297
▁ciise	-10298
▁diina	-10299
▁firii	-10300
▁kolfa	-10301
▁torba	-10302
▁መቆጣጠር	-10303
▁ማስገባት	-10304
▁ሰጠችው።	-10305
▁በከተማው	-10306
▁ተናገር።	-10307
▁ነገራት።	-10308
▁አለባት።	-10309
▁አለቦት።	-10310
▁አርቲስት	-10311
▁አነጋገር	-10312
▁አዝናለሁ	-10313
▁እምብዛም	-10314
▁እሰራለሁ	-10315
▁እንዳለን	-10316
▁የሚናገር	-10317
▁ደስተኞች	-10318
▁Baasii	-10319
▁Halluu	-10320
▁Paaris	-10321
▁dhaabu	-10322
▁funyoo	-10323
▁himtee	-10324
▁hodhuu	-10325
▁mararf	-10326
▁ልትነግረኝ	-10327
▁ስብሰባውን	-10328
▁ስጦታዎችን	-10329
▁አልፈራም።	-10330
aaliyaan	-10331
▁arganna	-10332
▁badeera	-10333
▁dhadhaa	-10334
▁geessan	-10335
▁kaffalu	-10336
▁lamatti	-10337
▁walaloo	-10338
▁ተመለከትኩ።	-10339
▁እጫወታለሁ።	-10340
▁Barnoota	-10341
▁Doolaara	-10342
▁callisee	-10343
▁fudhattu	-10344
▁hedduutu	-10345
▁kaameraa	-10346
▁keessumm	-10347
▁saddeeti	-10348
▁xumuruun	-10349
shuraansii	-10350
▁Akkanatti	-10351
▁eegaleera	-10352
▁galatoomi	-10353
▁kaffaluuf	-10354
▁qabachuun	-10355
▁qophiidha	-10356
▁qunnamtii	-10357
▁አልነበረብህም።	-10358
▁Barbaachis	-10359
▁Dandeettii	-10360
▁Dhiyeessii	-10361
▁Maashiniin	-10362
▁hirmaachuu	-10363
▁Waliigaltee	-10364
▁fuulduraatti	-10365
be	-10366
he	-10367
ህቴ	-10368
ሻል	-10369
ቆሙ	-10370
ከና	-10371
ካካ	-10372
ጊት	-10373
ጣኝ	-10374
ጨና	-10375
ber	-10376
est	-10377
ice	-10378
isi	-10379
zaa	-10380
ሞክሮ	-10381
ሳልፍ	-10382
ሳሰብ	-10383
ሽከረ	-10384
ባይል	-10385
ብም።	-10386
ኖሪያ	-10387
ከኝን	-10388
ክም።	-10389
ያለህ	-10390
ያችን	-10391
ዶቹን	-10392
ገበያ	-10393
ገነዘ	-10394
▁Qo	-10395
▁ex	-10396
▁ለፈ	-10397
▁ሜዳ	-10398
▁ሞላ	-10399
▁ሰአ	-10400
▁ሲደ	-10401
▁ሳላ	-10402
▁ስሟ	-10403
▁በዩ	-10404
▁ቤቷ	-10405
▁ቲኬ	-10406
▁ነጥ	-10407
▁ይር	-10408
▁ጥግ	-10409
▁ፈጠ	-10410
መለከቱ	-10411
ሰብሰብ	-10412
ነግራት	-10413
ጫወት።	-10414
▁Min	-10415
▁Mor	-10416
▁ለራሱ	-10417
▁ልደት	-10418
▁መጮህ	-10419
▁ምኞቴ	-10420
▁ሞተር	-10421
▁ረጅሙ	-10422
▁በርስ	-10423
▁በእኛ	-10424
▁ተከሰ	-10425
▁ታዲያ	-10426
▁ናት።	-10427
▁አረጋ	-10428
▁አቆም	-10429
▁አይብ	-10430
▁ኣላማ	-10431
▁ኣመቱ	-10432
▁ከቤቴ	-10433
▁ክሬም	-10434
▁የለበ	-10435
▁ይታጠ	-10436
▁ይያዙ	-10437
▁ደጋግ	-10438
▁ዳግም	-10439
▁ድግሱ	-10440
▁ጃክሰ	-10441
▁ፀደይ	-10442
▁ፓርኩ	-10443
▁ፕሮፌ	-10444
ation	-10445
oogii	-10446
oolee	-10447
ulfii	-10448
▁adam	-10449
▁dirq	-10450
▁ህክምና	-10451
▁ለማመን	-10452
▁ለራስህ	-10453
▁ለወላጆ	-10454
▁ሽልማት	-10455
▁በሰላም	-10456
▁በክፍል	-10457
▁በዙሪያ	-10458
▁ብትሄድ	-10459
▁ተደሰት	-10460
▁አለርጂ	-10461
▁አልገዛ	-10462
▁አይኖር	-10463
▁እንዳን	-10464
▁እየሮጠ	-10465
▁እጥረት	-10466
▁ወንዙን	-10467
▁ያስፈል	-10468
▁ይበሉ።	-10469
▁ይወጣል	-10470
▁ደነገጥ	-10471
▁ገመዱን	-10472
▁ጠብቅ።	-10473
▁ጥርጣሬ	-10474
aansoo	-10475
aasaan	-10476
aayiin	-10477
attuun	-10478
▁Gamoo	-10479
▁Haasa	-10480
▁Sodaa	-10481
▁Yakka	-10482
▁Yoork	-10483
▁bobba	-10484
▁dursa	-10485
▁goona	-10486
▁jennu	-10487
▁ሃሳብህን	-10488
▁ለመውሰድ	-10489
▁ልብሶችን	-10490
▁በትራፊክ	-10491
▁በእርስዎ	-10492
▁አልነገረ	-10493
▁አትችልም	-10494
▁አጥቷል።	-10495
▁የጎደለው	-10496
▁ፈረንሳይ	-10497
▁ፊልሞችን	-10498
amnedha	-10499
eesseen	-10500
iknikii	-10501
tirikii	-10502
▁Dursee	-10503
▁Haroon	-10504
▁Ifatti	-10505
▁Suuqii	-10506
▁Tilmaa	-10507
▁amanee	-10508
▁boolla	-10509
▁cabsee	-10510
▁dagate	-10511
▁eegeen	-10512
▁fuudhe	-10513
▁gabaab	-10514
▁ibiddi	-10515
▁miidhe	-10516
▁mindaa	-10517
▁qabsaa	-10518
▁qofaaf	-10519
▁should	-10520
▁ልትነግሩኝ	-10521
▁በማቀዝቀዣ	-10522
▁በተመሳሳይ	-10523
▁ትችላለች።	-10524
▁ነገረችው።	-10525
▁አለመታደል	-10526
▁አሻንጉሊት	-10527
▁አያመጣም።	-10528
▁የሚጀምረው	-10529
▁Baankii	-10530
▁Boorsaa	-10531
▁Yaaluun	-10532
▁abdannu	-10533
▁beekuun	-10534
▁dabaluu	-10535
▁deebinu	-10536
▁dhabdee	-10537
▁fagaata	-10538
▁gaafata	-10539
▁ilaalan	-10540
▁kaffale	-10541
▁rukutte	-10542
▁sodaatu	-10543
▁ተረድቻለሁ።	-10544
▁እናደርጋለን	-10545
▁እወስዳለሁ።	-10546
▁Waaqayyo	-10547
▁chaappaa	-10548
▁dhiistee	-10549
▁dinagdee	-10550
▁heerumte	-10551
▁jalqabne	-10552
▁maayilii	-10553
▁xiyyaara	-10554
▁አድርጌያለሁ።	-10555
▁Tikeetiin	-10556
▁shubbisuu	-10557
▁weellisaa	-10558
▁ያስፈልግዎታል።	-10559
▁gaariidhaa	-10560
▁raawwatame	-10561
▁rakkadheera	-10562
▁sirreessuuf	-10563
▁Dargaggoonni	-10564
▁galateeffachuu	-10565
▁karoorfadheera	-10566
▁qulqulleessuun	-10567
10	-10568
ማቂ	-10569
ምጣ	-10570
ምፕ	-10571
ሳሉ	-10572
ሳራ	-10573
ባባ	-10574
ኔት	-10575
ኙት	-10576
ዋቱ	-10577
ጋጤ	-10578
ምፒዩ	-10579
ሰማው	-10580
ሻለሁ	-10581
በልጥ	-10582
ዎቼን	-10583
ዘቀዘ	-10584
ገዛው	-10585
ጉዳት	-10586
ጭበር	-10587
▁መሞ	-10588
▁ባላ	-10589
▁አረ	-10590
▁የን	-10591
▁ይፃ	-10592
▁ግማ	-10593
▁ጤን	-10594
leen	-10595
ቤተሰብ	-10596
ቶታል።	-10597
▁Baq	-10598
▁Jim	-10599
▁Kib	-10600
▁see	-10601
▁ህዝቡ	-10602
▁ለመቆ	-10603
▁ሞዴል	-10604
▁ቁማር	-10605
▁በመር	-10606
▁ተቃጥ	-10607
▁ተፈጥ	-10608
▁ትንፋ	-10609
▁አሉህ	-10610
▁አረፈ	-10611
▁አቋር	-10612
▁ኪራይ	-10613
▁የሉም	-10614
▁የማያ	-10615
▁ያረጀ	-10616
▁ያሸን	-10617
▁ይህች	-10618
▁ይለብ	-10619
▁ጣልቃ	-10620
▁ጭማቂ	-10621
▁ፈንታ	-10622
▁ፖሊሱ	-10623
aasti	-10624
alaaf	-10625
▁Gama	-10626
▁What	-10627
▁absh	-10628
▁daan	-10629
▁galm	-10630
▁ulee	-10631
▁ለመፃፍ	-10632
▁ለንደን	-10633
▁መደብሩ	-10634
▁ማተኮር	-10635
▁ምስጋና	-10636
▁ሞቃታማ	-10637
▁ቀለበት	-10638
▁በሳጥኑ	-10639
▁በአዲሱ	-10640
▁በከንቱ	-10641
▁በጭንቅ	-10642
▁ተቃውሞ	-10643
▁ተቸግሬ	-10644
▁ተንከባ	-10645
▁አላደረ	-10646
▁አላገባ	-10647
▁አይቼው	-10648
▁ኣይነቱ	-10649
▁እንድረ	-10650
▁ከእራት	-10651
▁የወይን	-10652
▁የዚህን	-10653
▁ያለበት	-10654
▁ገባች።	-10655
▁ፈራሁ።	-10656
▁ፖሊሶች	-10657
▁Hotee	-10658
▁Ragaa	-10659
▁amane	-10660
▁baala	-10661
▁farda	-10662
▁hafne	-10663
▁ሃላፊነት	-10664
▁ለመጠጣት	-10665
▁ልታደርግ	-10666
▁ማስቀመጥ	-10667
▁ማስጠንቀ	-10668
▁ተመለሰ።	-10669
▁ተነሳሁ።	-10670
▁አልተቀበ	-10671
▁አታድርገ	-10672
▁አትክልት	-10673
▁አንዳንዴ	-10674
▁አደረግክ	-10675
▁አደጋውን	-10676
▁አጋጥሞኝ	-10677
▁እባክህ።	-10678
▁እንዳለብ	-10679
▁እየሄድን	-10680
▁እየፈለገ	-10681
▁እያለቀሰ	-10682
▁ከቦስተን	-10683
▁ወታደሮቹ	-10684
▁ወጥቷል።	-10685
▁የሚሰራው	-10686
▁ያስባል።	-10687
▁ይናገራል	-10688
oolessa	-10689
▁Ibidda	-10690
▁Ibiddi	-10691
▁Ispeen	-10692
▁Murtee	-10693
▁mudata	-10694
▁አይተናል።	-10695
▁አግኝተሃል	-10696
▁እንደሚሄድ	-10697
▁የአውቶቡስ	-10698
aaqanaaf	-10699
▁baratta	-10700
▁godhame	-10701
▁kaadhim	-10702
▁masaraa	-10703
▁አለመግባባት	-10704
▁አላደርግም።	-10705
▁አድርገናል።	-10706
▁እንሆናለን።	-10707
▁Dhukaasa	-10708
▁Kanaafuu	-10709
▁Tiyoorii	-10710
▁aksiyoon	-10711
▁bineensa	-10712
▁bitaatti	-10713
▁dhibbeen	-10714
▁dhufutti	-10715
▁gammaduu	-10716
▁hojiirra	-10717
▁ijaarame	-10718
▁ilaaleen	-10719
▁kunuunsu	-10720
▁piknikii	-10721
▁እንደሚያደርግ	-10722
▁bilbiluuf	-10723
▁ciniiname	-10724
▁kaffaluun	-10725
▁shamarran	-10726
▁Faarfannaa	-10727
▁Keessattuu	-10728
▁Konsartiin	-10729
▁amansiisuu	-10730
▁bashannana	-10731
▁dhugaadhaa	-10732
▁kuduraalee	-10733
▁raawwachuu	-10734
▁taasiseera	-10735
▁Jijjiiramni	-10736
▁harkifachuu	-10737
▁marsariitii	-10738
▁Faransaayitti	-10739
fi	-10740
qu	-10741
ላክ	-10742
መኑ	-10743
ሳሰ	-10744
ሷል	-10745
ኋት	-10746
ነኝ	-10747
ኩስ	-10748
ይም	-10749
ደዱ	-10750
ፋሉ	-10751
ali	-10752
ast	-10753
esh	-10754
gni	-10755
irt	-10756
ome	-10757
qni	-10758
ላቀል	-10759
ልቀት	-10760
መንጃ	-10761
ቀጥል	-10762
በላሸ	-10763
ነበበ	-10764
ነትህ	-10765
ከፈለ	-10766
ፈለክ	-10767
▁le	-10768
▁ሃያ	-10769
▁መሪ	-10770
▁መኪ	-10771
▁ማና	-10772
▁ሻማ	-10773
▁በሞ	-10774
▁ንቁ	-10775
▁ይግ	-10776
ddug	-10777
eser	-10778
ላቸው።	-10779
ልኝም።	-10780
ማቋረጥ	-10781
በለዚያ	-10782
ድግዳው	-10783
▁App	-10784
▁መብረ	-10785
▁መከራ	-10786
▁ሰክሮ	-10787
▁ስለሚ	-10788
▁ስጋት	-10789
▁በምት	-10790
▁በእሷ	-10791
▁በከፍ	-10792
▁ቢሮዬ	-10793
▁ብረት	-10794
▁ተጋብ	-10795
▁አልክ	-10796
▁አልደ	-10797
▁አዳም	-10798
▁አግብ	-10799
▁ከፈት	-10800
▁ክብር	-10801
▁ዘነበ	-10802
▁ዘጠኝ	-10803
▁የሞተ	-10804
▁የሞት	-10805
▁የብር	-10806
▁ያቀረ	-10807
▁ደሴት	-10808
▁ጉልበ	-10809
▁ጠላት	-10810
▁ጠባቂ	-10811
▁ፈለግ	-10812
▁ፍላጎ	-10813
▁ፕሬዚ	-10814
agant	-10815
iraaf	-10816
umaaf	-10817
▁Chaa	-10818
▁Haal	-10819
▁barb	-10820
▁diig	-10821
▁falf	-10822
▁fidu	-10823
▁gagg	-10824
▁jaar	-10825
▁ring	-10826
▁time	-10827
▁መቀባት	-10828
▁መደርደ	-10829
▁ማምጣት	-10830
▁ምግቦች	-10831
▁ሰውየው	-10832
▁ስልጣን	-10833
▁ቆሟል።	-10834
▁በማግኘ	-10835
▁በእጥፍ	-10836
▁ቦታዎች	-10837
▁ታሪኩን	-10838
▁ትእዛዝ	-10839
▁ትጠብቃ	-10840
▁አልሆን	-10841
▁አልሰራ	-10842
▁አዘጋጀ	-10843
▁አይወዱ	-10844
▁እንደታ	-10845
▁እንዲሁ	-10846
▁እውነቱ	-10847
▁ከእስር	-10848
▁የማወቅ	-10849
▁የማውቀ	-10850
▁የቴኒስ	-10851
▁ጃፓንኛ	-10852
▁ፈገግታ	-10853
▁Ajaja	-10854
▁Beela	-10855
▁Daree	-10856
▁Mukti	-10857
▁aaree	-10858
▁dhala	-10859
▁dheeb	-10860
▁galan	-10861
▁guute	-10862
▁hafan	-10863
▁harki	-10864
▁kanas	-10865
▁qubee	-10866
▁ሁኔታውን	-10867
▁ለማጥፋት	-10868
▁የበዛበት	-10869
▁ገንዘቤን	-10870
atamaan	-10871
imaatti	-10872
jjabbii	-10873
▁Gaarii	-10874
▁Lubbuu	-10875
▁Ollaan	-10876
▁birraa	-10877
▁button	-10878
▁ciccim	-10879
▁dhugne	-10880
▁eeyyee	-10881
▁galche	-10882
▁kaasaa	-10883
▁seenan	-10884
▁seente	-10885
▁sochoo	-10886
▁ሬስቶራንት	-10887
▁ትገኛለች።	-10888
▁አታድርግ።	-10889
▁አንብበዋል	-10890
▁አያስብም።	-10891
▁አግኝተዋል	-10892
▁እንነጋገራ	-10893
▁እንደሌለው	-10894
▁እንዳለባት	-10895
▁እንድትመጣ	-10896
▁ጠረጴዛውን	-10897
amtoonni	-10898
▁Asirraa	-10899
▁bilbilu	-10900
▁galeera	-10901
▁isheeti	-10902
▁qabadha	-10903
▁በትክክለኛው	-10904
▁አታድርገኝ።	-10905
▁አይናገርም።	-10906
▁እየተመለከተ	-10907
▁የምትችለውን	-10908
▁የምትናገረው	-10909
▁የተናገረውን	-10910
▁Jeequmsa	-10911
▁alkoolii	-10912
▁baafadhu	-10913
▁cimsitee	-10914
▁duumessa	-10915
▁gaafatan	-10916
▁guddadhe	-10917
▁icciitii	-10918
▁jalqaban	-10919
▁kaazinaa	-10920
▁qusachuu	-10921
▁አላደርገውም።	-10922
▁እንደማትፈልግ	-10923
▁Addunyaan	-10924
▁Bilbilaan	-10925
▁Dorgommii	-10926
▁Dukkaanni	-10927
▁Qorannoon	-10928
▁battaluma	-10929
▁biyyattii	-10930
▁jaalladhe	-10931
▁maraattee	-10932
▁Gammachuun	-10933
▁akaakayyuu	-10934
▁jijjiiramu	-10935
▁kitaabicha	-10936
▁kudhanitti	-10937
▁murteessee	-10938
▁Barreessaan	-10939
▁Bineensonni	-10940
▁elektirikii	-10941
▁saddeetitti	-10942
▁Barreeffamni	-10943
▁Jaappaanitti	-10944
▁battalumatti	-10945
▁dhukkubsataa	-10946
▁dhaggeeffadhaa	-10947
ሉእ	-10948
መወ	-10949
ሟል	-10950
ሳቢ	-10951
ተፍ	-10952
ነዱ	-10953
ናፊ	-10954
ዙት	-10955
ያፊ	-10956
ጆቹ	-10957
ጋጥ	-10958
ums	-10959
ush	-10960
መልጥ	-10961
ረጠ።	-10962
ሳተፍ	-10963
ሳየኝ	-10964
ቀርብ	-10965
በትም	-10966
ተወው	-10967
ኋቸው	-10968
ከባድ	-10969
ወደኝ	-10970
ወዳት	-10971
ዘዘ።	-10972
ጎበኘ	-10973
ጣለሁ	-10974
ፀያፊ	-10975
▁Ja	-10976
▁Ne	-10977
▁ሆና	-10978
▁ሳት	-10979
▁ሸረ	-10980
▁ቆሞ	-10981
▁በሱ	-10982
▁ተሞ	-10983
▁ታመ	-10984
▁እፎ	-10985
▁ከጭ	-10986
▁የገ	-10987
▁ያግ	-10988
▁ደው	-10989
▁ገን	-10990
abal	-10991
ilii	-10992
qqee	-10993
ረጋጋት	-10994
ራለን።	-10995
ካባቢው	-10996
ወስደው	-10997
ዳለሁ።	-10998
ገራችን	-10999
ገናኘው	-11000
▁500	-11001
▁Bah	-11002
▁Bof	-11003
▁Erg	-11004
▁con	-11005
▁has	-11006
▁ሳጥኑ	-11007
▁ስላለ	-11008
▁ስራዬ	-11009
▁በልቼ	-11010
▁በስህ	-11011
▁ባለት	-11012
▁ቧንቧ	-11013
▁ተቆል	-11014
▁ነጠላ	-11015
▁ናችሁ	-11016
▁አርብ	-11017
▁አይር	-11018
▁አደረ	-11019
▁አጣ።	-11020
▁አፈር	-11021
▁እቅዳ	-11022
▁እየታ	-11023
▁ከፊት	-11024
▁ካለው	-11025
▁ክርክ	-11026
▁ኮከብ	-11027
▁ኳሱን	-11028
▁ውሰድ	-11029
▁የራስ	-11030
▁ይህም	-11031
▁ይክፈ	-11032
▁ደሞዝ	-11033
▁ገቡ።	-11034
▁ጉጉት	-11035
▁ግሩም	-11036
▁ግጥም	-11037
aannu	-11038
amtuu	-11039
arvii	-11040
ikaan	-11041
istii	-11042
ለብስም።	-11043
▁Faay	-11044
▁Ifni	-11045
▁Kall	-11046
▁gogg	-11047
▁good	-11048
▁ህፃናት	-11049
▁ለማሰብ	-11050
▁መምሰል	-11051
▁መታገስ	-11052
▁መንደር	-11053
▁በሰማይ	-11054
▁ናችሁ።	-11055
▁አቆመ።	-11056
▁አባላት	-11057
▁አነሳ።	-11058
▁እንወዳ	-11059
▁ዋጋዎች	-11060
▁ውድድር	-11061
▁ዘነበ።	-11062
▁የምሰራ	-11063
▁ይቆዩ።	-11064
aroota	-11065
irraan	-11066
▁Agars	-11067
▁Gorsi	-11068
▁There	-11069
▁aarsa	-11070
▁garba	-11071
▁yaadi	-11072
▁ህይወቱን	-11073
▁ለሽርሽር	-11074
▁ማስታወስ	-11075
▁በመንገዱ	-11076
▁ብታደርግ	-11077
▁ትላንትና	-11078
▁እንደማያ	-11079
▁እንደምል	-11080
▁እፈራለሁ	-11081
▁ወታደሮች	-11082
▁ይመልከቱ	-11083
▁ይገኛል።	-11084
▁ይፈራል።	-11085
▁ፓስፖርት	-11086
▁ፕሮግራም	-11087
▁Maamil	-11088
▁cufame	-11089
▁dubbif	-11090
▁godhin	-11091
▁hospit	-11092
▁ilaall	-11093
▁jirraa	-11094
▁kottaa	-11095
▁muuziq	-11096
▁piizaa	-11097
▁poolii	-11098
▁በየሳምንቱ	-11099
▁አይደለችም	-11100
▁አጥተናል።	-11101
▁እየተሰማኝ	-11102
▁የላቸውም።	-11103
▁የምትኖረው	-11104
▁የምንችለው	-11105
▁ያረጋግጡ።	-11106
atameera	-11107
▁alarjii	-11108
▁angafaa	-11109
▁bilisaa	-11110
▁deeggar	-11111
▁eenyuun	-11112
▁funyaan	-11113
▁hubattu	-11114
▁ilaalla	-11115
▁kabajuu	-11116
▁madaala	-11117
▁midhaan	-11118
▁nyaatan	-11119
▁sababni	-11120
▁እንደማልችል	-11121
▁እንዲያደርጉ	-11122
▁እንዳታደርግ	-11123
▁Ilaalcha	-11124
▁Soogidda	-11125
▁dagachuu	-11126
▁dubbisne	-11127
▁guutamee	-11128
▁sheelfii	-11129
▁እንነጋገራለን	-11130
▁ajjeechaa	-11131
▁beeksisuu	-11132
▁fagaadhaa	-11133
▁galeessaa	-11134
▁gargaarsi	-11135
▁guddaatti	-11136
▁jalqabuuf	-11137
▁saayinsii	-11138
▁Gargaaruuf	-11139
▁Jaalalleen	-11140
▁Simbirroon	-11141
▁Tarkaanfii	-11142
▁dubartoota	-11143
▁murteessite	-11144
▁xiyyeeffachuu	-11145
▁yunivarsiitii	-11146
▁Konkolaachisaa	-11147
ምኑ	-11148
ሬም	-11149
ሳፈ	-11150
ስቡ	-11151
ቀባ	-11152
ቆማ	-11153
ቆች	-11154
ባቱ	-11155
ትህ	-11156
ንቆ	-11157
ከበ	-11158
ክን	-11159
ግረ	-11160
ጓጓ	-11161
ጠሎ	-11162
aap	-11163
eed	-11164
ful	-11165
get	-11166
les	-11167
tic	-11168
ሀይቁ	-11169
ለኝም	-11170
ለኞች	-11171
መራው	-11172
ሳዝን	-11173
ብላ።	-11174
አለሁ	-11175
ከፍል	-11176
ኮችን	-11177
ወሰደ	-11178
ዳችሁ	-11179
ጫለሁ	-11180
▁se	-11181
▁ለባ	-11182
▁ለኔ	-11183
▁ለጋ	-11184
▁ሶፋ	-11185
▁ቀኑ	-11186
▁ታግ	-11187
▁እው	-11188
▁ከራ	-11189
▁ከኛ	-11190
▁ከድ	-11191
▁የቤ	-11192
▁ይካ	-11193
▁ይፈ	-11194
▁ዳይ	-11195
aama	-11196
bbaa	-11197
uggu	-11198
ustr	-11199
ልኩም።	-11200
ራቢያው	-11201
ነዋል።	-11202
ነገረኝ	-11203
ነግረው	-11204
ንቀጠቀ	-11205
ወዳደር	-11206
ውሰድ።	-11207
ጠጣም።	-11208
ፈቀደል	-11209
▁Raf	-11210
▁ach	-11211
▁amm	-11212
▁any	-11213
▁pro	-11214
▁qam	-11215
▁riq	-11216
▁መራቅ	-11217
▁መስመ	-11218
▁ማድረ	-11219
▁ምነው	-11220
▁ሰፈር	-11221
▁ቀረ።	-11222
▁ቃሉን	-11223
▁ብርሃ	-11224
▁ተኝቶ	-11225
▁ታገኛ	-11226
▁አሰራ	-11227
▁አፍታ	-11228
▁እቅዱ	-11229
▁እወጣ	-11230
▁የራሱ	-11231
▁ያዳም	-11232
▁ይነሳ	-11233
▁ይጠቅ	-11234
▁ጀግና	-11235
▁ጠጣ።	-11236
▁ፍቀድ	-11237
aalii	-11238
ገልግሎት	-11239
▁Bakk	-11240
▁Kaba	-11241
▁Obsa	-11242
▁adaa	-11243
▁baga	-11244
▁bule	-11245
▁iyye	-11246
▁qara	-11247
▁read	-11248
▁yoon	-11249
▁ለጊዜው	-11250
▁ልደውል	-11251
▁መጨመር	-11252
▁መፅሄት	-11253
▁ሙሉውን	-11254
▁ማቆየት	-11255
▁ቃላትን	-11256
▁ተሞክሮ	-11257
▁ተወው።	-11258
▁ትናንሽ	-11259
▁አላስብ	-11260
▁አስመስ	-11261
▁አባቴን	-11262
▁አግዳሚ	-11263
▁እንክብ	-11264
▁እያሰቡ	-11265
▁እያጋጠ	-11266
▁እጨነቃ	-11267
▁የሂሳብ	-11268
▁የምድር	-11269
▁የተፃፈ	-11270
▁ጉዳዮች	-11271
▁ፀጉሬን	-11272
▁ፋብሪካ	-11273
▁Galat	-11274
▁aarte	-11275
▁didde	-11276
▁odola	-11277
▁መጨረሻው	-11278
▁ሳህኖቹን	-11279
▁ስህተቶች	-11280
▁ስራዎችን	-11281
▁በተቻለኝ	-11282
▁ብቸኝነት	-11283
▁ታምናለህ	-11284
▁አልተገኘ	-11285
▁አልጨረስ	-11286
▁አሏቸው።	-11287
▁አትርሳ።	-11288
▁እንቆቅል	-11289
▁እየቀለድ	-11290
▁ካሰብኩት	-11291
▁የላትም።	-11292
▁የሚወስደ	-11293
▁ይምረጡ።	-11294
▁Dafnee	-11295
▁Maangu	-11296
▁amantu	-11297
▁beekte	-11298
▁dafnee	-11299
▁darbaa	-11300
▁dhiibe	-11301
▁dhugee	-11302
▁doktor	-11303
▁hawaas	-11304
▁qoonqa	-11305
▁tulluu	-11306
▁uumame	-11307
▁አሸንፏል።	-11308
▁የምትሰራው	-11309
▁ያደረግኩት	-11310
▁ይገባዋል።	-11311
aanaadha	-11312
▁Qarqara	-11313
▁darbate	-11314
▁jechuuf	-11315
▁nyaanna	-11316
▁qamalee	-11317
▁rukutuu	-11318
▁ulfaatu	-11319
▁ማስጠንቀቂያ	-11320
▁በአቅራቢያው	-11321
▁አላውቀውም።	-11322
▁አልስማማም።	-11323
▁አስታውሳለሁ	-11324
▁እደውላለሁ።	-11325
▁ያስደስተኛል	-11326
▁Keessumm	-11327
▁Poolisii	-11328
▁Sukkaara	-11329
▁ammayyaa	-11330
▁cufaadha	-11331
▁dheerata	-11332
▁dureessa	-11333
▁guututti	-11334
▁irrattin	-11335
▁isheetti	-11336
▁maraataa	-11337
▁shantama	-11338
▁sirratti	-11339
▁አንብቤዋለሁ።	-11340
▁Konsartii	-11341
▁Muuziqaan	-11342
▁dhageesse	-11343
▁eeggachaa	-11344
▁fudhattee	-11345
▁torbaatti	-11346
▁Taajjabbii	-11347
▁baqaqsanii	-11348
▁jijjiiruuf	-11349
▁kallattiin	-11350
▁sirreessaa	-11351
▁Tookiyootti	-11352
▁barreesseen	-11353
▁dhaabbattee	-11354
▁hojjettoota	-11355
▁kompiitaraa	-11356
▁Televijiinii	-11357
▁akeekkachiis	-11358
▁qulqulleessuu	-11359
pt	-11360
ሌን	-11361
ሶቹ	-11362
ባዊ	-11363
ቲን	-11364
ኮላ	-11365
የም	-11366
ጠኛ	-11367
ጫን	-11368
egg	-11369
fir	-11370
ten	-11371
ለቤቴ	-11372
ለቲከ	-11373
ልህም	-11374
ልን።	-11375
መሳስ	-11376
ራሉ።	-11377
ስትና	-11378
ችኋል	-11379
ናናት	-11380
ንደሩ	-11381
ወርቅ	-11382
ወርድ	-11383
ወዛወ	-11384
ዮሊን	-11385
ጀርባ	-11386
ፀዳጃ	-11387
ፀፀት	-11388
▁Ak	-11389
▁br	-11390
▁ለቁ	-11391
▁ልቤ	-11392
▁መፈ	-11393
▁ቆስ	-11394
▁በሀ	-11395
▁ብእ	-11396
▁ተፈ	-11397
▁ነቃ	-11398
▁ነካ	-11399
▁ከዋ	-11400
▁የዩ	-11401
▁የጉ	-11402
▁የጋ	-11403
▁የፅ	-11404
▁ዲግ	-11405
▁ጥይ	-11406
▁ፈሪ	-11407
▁ፍራ	-11408
gugg	-11409
ለትም።	-11410
ሳቸውን	-11411
ሳችሁን	-11412
ስበውን	-11413
ስተካክ	-11414
ነግሩኝ	-11415
ጋችሁት	-11416
▁arj	-11417
▁lag	-11418
▁nur	-11419
▁ሃምሳ	-11420
▁ህመሙ	-11421
▁ማረፍ	-11422
▁ስለመ	-11423
▁ቁርጥ	-11424
▁ቅናሽ	-11425
▁በነፃ	-11426
▁ባትሪ	-11427
▁ቪዲዮ	-11428
▁ተሞል	-11429
▁ተደስ	-11430
▁ትኩረ	-11431
▁ትወደ	-11432
▁አይጠ	-11433
▁እምቢ	-11434
▁እስቲ	-11435
▁እየፈ	-11436
▁እያስ	-11437
▁ከዛፉ	-11438
▁ክለብ	-11439
▁ክላው	-11440
▁ወንዙ	-11441
▁የማላ	-11442
▁የኔን	-11443
▁የገረ	-11444
▁ያንብ	-11445
▁ይላል	-11446
▁ይደሰ	-11447
▁ድመቴ	-11448
▁ጥንካ	-11449
▁ፍጠን	-11450
maamm	-11451
shina	-11452
▁Aang	-11453
▁Ibsi	-11454
▁That	-11455
▁araa	-11456
▁degg	-11457
▁does	-11458
▁fufa	-11459
▁ifaa	-11460
▁uume	-11461
▁ልነግር	-11462
▁መሳተፍ	-11463
▁መብራት	-11464
▁መንፈስ	-11465
▁መኪኖች	-11466
▁መዝለል	-11467
▁መጣች።	-11468
▁ሰላምታ	-11469
▁ሰበረ።	-11470
▁በጥይት	-11471
▁ተነሳ።	-11472
▁ትጨነቃ	-11473
▁ንግግሩ	-11474
▁አለቃው	-11475
▁አስተው	-11476
▁አድርጋ	-11477
▁እራሷን	-11478
▁እነማን	-11479
▁እወስድ	-11480
▁እየወጣ	-11481
▁እግሬን	-11482
▁ከተማዋ	-11483
▁ክሬዲት	-11484
▁ወሰነ።	-11485
▁የህዝብ	-11486
▁የተወሳ	-11487
▁የቶምን	-11488
▁የፀጉር	-11489
▁ይኖራሉ	-11490
▁ይፈልጉ	-11491
▁ድርድር	-11492
aartaa	-11493
achiif	-11494
eengoo	-11495
iiraan	-11496
uummee	-11497
▁Dhaab	-11498
▁Dhimm	-11499
▁Fardi	-11500
▁Hunda	-11501
▁Onkol	-11502
▁Sirbi	-11503
▁about	-11504
▁afurt	-11505
▁babal	-11506
▁buuse	-11507
▁kaasi	-11508
▁qajee	-11509
▁ሪፖርቱን	-11510
▁ቡድናችን	-11511
▁ታማኝነት	-11512
▁አመጋገብ	-11513
▁አታድርጉ	-11514
▁እንዳለች	-11515
▁ከተማዋን	-11516
▁ዙሪያውን	-11517
▁የለህም።	-11518
▁የተናደደ	-11519
▁ድመቶችን	-11520
▁ፎቶግራፍ	-11521
ibsiisa	-11522
▁Chokol	-11523
▁Mirkan	-11524
▁Qophaa	-11525
▁Shaamp	-11526
▁deemee	-11527
▁dogong	-11528
▁godhee	-11529
▁namaan	-11530
▁መምህራችን	-11531
▁በመጨረሻም	-11532
▁አላልኩም።	-11533
▁አነባለሁ።	-11534
▁እንሞክር።	-11535
▁እየተጫወተ	-11536
▁የሚያመሳስ	-11537
▁ያለማቋረጥ	-11538
ummaadha	-11539
▁Furtuun	-11540
▁Kaartaa	-11541
▁Kushina	-11542
▁Mukkeen	-11543
▁Salphaa	-11544
▁amanuun	-11545
▁argitaa	-11546
▁daangaa	-11547
▁faallaa	-11548
▁furgugg	-11549
▁ibseera	-11550
▁oomisha	-11551
▁quxisuu	-11552
▁ummataa	-11553
▁በአውሮፕላን	-11554
▁አልናገርም።	-11555
▁አይገባኝም።	-11556
▁አድርግልኝ።	-11557
▁አግኝተናል።	-11558
▁እንደሚያውቅ	-11559
▁የኤሌክትሪክ	-11560
▁Wayiniin	-11561
▁bilisaan	-11562
▁fagaatee	-11563
▁jedhutti	-11564
▁mudachaa	-11565
▁qabadhee	-11566
▁saantima	-11567
▁sigaaraa	-11568
▁tokkicha	-11569
▁አልተናገረም።	-11570
▁Boqonnaan	-11571
▁Gargaarsi	-11572
▁Maashinii	-11573
▁Xaaliyaan	-11574
▁dhiisinaa	-11575
▁faashinii	-11576
▁gaafachaa	-11577
▁isheetiif	-11578
▁mufachiis	-11579
▁Ameerikaan	-11580
▁Mallattoon	-11581
▁fudhadheen	-11582
▁jijjiiruun	-11583
▁pirezidaan	-11584
▁barreessite	-11585
▁Onkoloolessa	-11586
▁qulqullummaa	-11587
▁tokkottillee	-11588
▁xiyyeeffannoo	-11589
ሞቅ	-11590
ኑር	-11591
ከቡ	-11592
ኮፕ	-11593
ዝቡ	-11594
ዥም	-11595
ጠነ	-11596
ፎቹ	-11597
ucc	-11598
ven	-11599
ሉት።	-11600
መለሱ	-11601
ማለህ	-11602
ስታወ	-11603
ቪዲዮ	-11604
ቴሪያ	-11605
ቸገር	-11606
ነሳት	-11607
ወጣው	-11608
ዘጋው	-11609
ዘጋጁ	-11610
የሁህ	-11611
ድሩን	-11612
ገኙት	-11613
▁12	-11614
▁CD	-11615
▁pa	-11616
▁ህሊ	-11617
▁ስፓ	-11618
▁ቢስ	-11619
▁አዘ	-11620
▁ከሃ	-11621
▁ከሳ	-11622
▁ከዘ	-11623
▁ከፊ	-11624
▁የዱ	-11625
▁ያቁ	-11626
▁ያጠ	-11627
▁ጆን	-11628
▁ገለ	-11629
▁ግባ	-11630
▁ጎጆ	-11631
▁ፈጥ	-11632
iinx	-11633
ttii	-11634
ught	-11635
ሮፕላኑ	-11636
ታጠቢያ	-11637
ነጋገሩ	-11638
ክሲዮን	-11639
ጠብቅ።	-11640
▁300	-11641
▁Bit	-11642
▁day	-11643
▁jal	-11644
▁off	-11645
▁መሆና	-11646
▁መንጃ	-11647
▁ሳህን	-11648
▁ስለማ	-11649
▁ስርኣ	-11650
▁ቁመት	-11651
▁በበኣ	-11652
▁በንግ	-11653
▁በአፍ	-11654
▁በእቅ	-11655
▁ባለጌ	-11656
▁ተሸን	-11657
▁ተጋባ	-11658
▁ትንበ	-11659
▁ነዳጅ	-11660
▁አየ።	-11661
▁አጥን	-11662
▁ኣመቴ	-11663
▁እናቱ	-11664
▁እንተ	-11665
▁ከብዙ	-11666
▁ዘይት	-11667
▁የአል	-11668
▁የዋህ	-11669
▁የውሃ	-11670
▁ያደግ	-11671
▁ይከተ	-11672
▁ዲግሪ	-11673
▁ገባህ	-11674
▁ፍንጭ	-11675
▁ፖሊሲ	-11676
aayir	-11677
▁Alaa	-11678
▁Eess	-11679
▁babb	-11680
▁diin	-11681
▁from	-11682
▁gegg	-11683
▁hojj	-11684
▁kadh	-11685
▁rafu	-11686
▁ለዚህም	-11687
▁ላሳይህ	-11688
▁ማንኪያ	-11689
▁ማእበል	-11690
▁ሽጉጡን	-11691
▁በማድረ	-11692
▁በራስህ	-11693
▁በኩሽና	-11694
▁ተስማማ	-11695
▁ተናደደ	-11696
▁ተግባር	-11697
▁ቲያትር	-11698
▁ታመመ።	-11699
▁ነፃነት	-11700
▁ናፍቆት	-11701
▁አለፈ።	-11702
▁አረጋግ	-11703
▁አይስክ	-11704
▁እንበላ	-11705
▁እንዳየ	-11706
▁የመሆን	-11707
▁የምታው	-11708
▁የተረፈ	-11709
▁የተኩስ	-11710
▁ይካሄዳ	-11711
▁ይጠብቃ	-11712
▁ጉድጓድ	-11713
ooftuu	-11714
umaara	-11715
▁Marii	-11716
▁Sirni	-11717
▁booji	-11718
▁daang	-11719
▁feete	-11720
▁geejj	-11721
▁halee	-11722
▁jedhi	-11723
▁qalla	-11724
▁sanas	-11725
▁sibii	-11726
▁turin	-11727
▁ለመስማት	-11728
▁ለመክፈት	-11729
▁ለኣመታት	-11730
▁መፃህፍቱ	-11731
▁ማናችንም	-11732
▁ምልክቶች	-11733
▁ስለነበረ	-11734
▁ቆንጆዎች	-11735
▁በማድረግ	-11736
▁በጦርነቱ	-11737
▁ባለትዳር	-11738
▁ተጠንቀቅ	-11739
▁ነበረን።	-11740
▁አላነበብ	-11741
▁አስተማረ	-11742
▁አታውቅም	-11743
▁አይፈቀድ	-11744
▁እንደሚል	-11745
▁እንደምና	-11746
▁ከማድረግ	-11747
▁ከጣቢያው	-11748
▁ዘፈኖችን	-11749
▁የምሰራው	-11750
▁የፈለኩት	-11751
▁ይሄዳሉ።	-11752
▁ይሆናሉ።	-11753
▁ይጠላል።	-11754
▁ጠንክረህ	-11755
choonni	-11756
irribni	-11757
▁Faayil	-11758
▁Mariin	-11759
▁Samiin	-11760
▁dhibne	-11761
▁geenyu	-11762
▁ijaare	-11763
▁kamiif	-11764
▁makame	-11765
▁quufne	-11766
▁rifate	-11767
▁sirraa	-11768
▁yaalte	-11769
▁ለማስደሰት	-11770
▁ለእርዳታዎ	-11771
▁መንቀሳቀስ	-11772
▁ተናገረች።	-11773
▁ትሰራለች።	-11774
▁አለበለዚያ	-11775
▁እርዳታህን	-11776
▁እያነበብኩ	-11777
▁የምሄድበት	-11778
▁የምንኖረው	-11779
▁የተቻለውን	-11780
▁ይጀምራል።	-11781
eessitee	-11782
unnamtii	-11783
▁Deeskii	-11784
▁Haasaan	-11785
▁Hattuun	-11786
▁adaadaa	-11787
▁argannu	-11788
▁beekama	-11789
▁callise	-11790
▁deebiin	-11791
▁dhaamse	-11792
▁haasawa	-11793
▁harkaan	-11794
▁isaatii	-11795
▁qaaliin	-11796
▁xumuree	-11797
▁yaaddof	-11798
▁አትክልቶችን	-11799
▁አያስፈልግም	-11800
▁አድርገዋል።	-11801
▁እንደማይችል	-11802
▁እግዚአብሄር	-11803
▁የሚያስደስት	-11804
▁ያስፈልገናል	-11805
▁ያደርገዋል።	-11806
▁ይከብደኛል።	-11807
▁Eessatti	-11808
▁Furmaata	-11809
▁Kufaatii	-11810
▁Miidhaan	-11811
▁Sooressa	-11812
▁Walakkaa	-11813
▁babbaree	-11814
▁biyyoota	-11815
▁boruutti	-11816
▁dadhabee	-11817
▁gadhiise	-11818
▁galgalaa	-11819
▁komachaa	-11820
▁kurnanii	-11821
▁qisaasuu	-11822
▁qofaadha	-11823
▁sibiilaa	-11824
▁sodaatte	-11825
▁taphannu	-11826
▁taphatan	-11827
▁tiraafik	-11828
▁uwwifame	-11829
▁ያስፈልገዋል።	-11830
▁ያስፈልጋቸዋል	-11831
eeffannoon	-11832
eessitoota	-11833
▁Guutumaan	-11834
▁Hantuutni	-11835
▁Suuraalee	-11836
▁dorgommii	-11837
▁fakkeesse	-11838
▁gargaarre	-11839
▁hinaaffaa	-11840
▁miidhamne	-11841
▁mirgaatti	-11842
▁qulqullaa	-11843
▁Dubartoota	-11844
▁Jaakkeetii	-11845
▁aksiyoonaa	-11846
▁amansiifne	-11847
▁keessattis	-11848
▁sodaachisa	-11849
▁dhibbeentaa	-11850
▁fayyadamuun	-11851
▁hawwatuudha	-11852
▁dhaggeeffatu	-11853
▁Garaagarummaa	-11854
▁ariifachiisaa	-11855
os	-11856
ለቃ	-11857
ለፈ	-11858
ላቱ	-11859
ሞና	-11860
ራሹ	-11861
ሰኛ	-11862
ቀየ	-11863
በድ	-11864
ቻሉ	-11865
ነቷ	-11866
ውስ	-11867
ዜማ	-11868
ጅቱ	-11869
ጉን	-11870
ጮሀ	-11871
ፕሮ	-11872
▁ቂ	-11873
▁ጅ	-11874
bul	-11875
jee	-11876
ved	-11877
ሊያን	-11878
ላለፍ	-11879
ልበት	-11880
ሚያስ	-11881
ሰኝ።	-11882
ሳቸው	-11883
ስቶች	-11884
ናነቅ	-11885
ኞቹን	-11886
ኞችን	-11887
ከፈል	-11888
ወጠ።	-11889
ገልፅ	-11890
ጉረም	-11891
ጫወቱ	-11892
▁Ra	-11893
▁ay	-11894
▁co	-11895
▁ሄዶ	-11896
▁ለቅ	-11897
▁መቁ	-11898
▁ምእ	-11899
▁ሰፊ	-11900
▁ሲዲ	-11901
▁ስኪ	-11902
▁ቅን	-11903
▁ታየ	-11904
▁ክላ	-11905
▁ውጥ	-11906
▁ዘመ	-11907
▁የሩ	-11908
▁የነ	-11909
▁ይቁ	-11910
▁ይነ	-11911
▁ድህ	-11912
▁ድብ	-11913
▁ገል	-11914
▁ጌታ	-11915
ling	-11916
tist	-11917
ቆይም።	-11918
በናል።	-11919
ንሰርት	-11920
ኖረው።	-11921
ወሰድኩ	-11922
ደናል።	-11923
ፋሪዎች	-11924
▁200	-11925
▁Sok	-11926
▁cin	-11927
▁ለጉዞ	-11928
▁መሳቅ	-11929
▁መሸጥ	-11930
▁ሳሙና	-11931
▁ስለም	-11932
▁ቃጠሎ	-11933
▁በቀስ	-11934
▁በደረ	-11935
▁ተርጉ	-11936
▁ተሸክ	-11937
▁ተከፍ	-11938
▁ትኖራ	-11939
▁ቶም፣	-11940
▁አንደ	-11941
▁ከንቲ	-11942
▁ወስዶ	-11943
▁የደረ	-11944
▁ያገባ	-11945
▁ይዋል	-11946
▁ደህን	-11947
▁ጥቃት	-11948
▁ጭጋግ	-11949
▁ፋይዳ	-11950
attoo	-11951
chaaf	-11952
iilee	-11953
iinsi	-11954
ingil	-11955
በታለሁ።	-11956
ዎታለሁ።	-11957
▁Bubb	-11958
▁Dura	-11959
▁Hiyy	-11960
▁aare	-11961
▁boos	-11962
▁kudh	-11963
▁meet	-11964
▁obaa	-11965
▁taat	-11966
▁ሀሳቤን	-11967
▁ህፃኑን	-11968
▁ለአፍታ	-11969
▁ሌሎችን	-11970
▁ልቦለድ	-11971
▁መሳቢያ	-11972
▁መጋረጃ	-11973
▁መግለጫ	-11974
▁ሙዚቃን	-11975
▁ሮጥኩ።	-11976
▁በቀስታ	-11977
▁በእድሜ	-11978
▁በጥሞና	-11979
▁በጨለማ	-11980
▁ተወላጅ	-11981
▁አላመነ	-11982
▁አበድረ	-11983
▁አይረዳ	-11984
▁አይኖች	-11985
▁እነሱን	-11986
▁እናቴን	-11987
▁እንዳስ	-11988
▁እጠብቅ	-11989
▁ከምንም	-11990
▁ካንሰር	-11991
▁ዘመናዊ	-11992
▁የልደት	-11993
▁የጀመር	-11994
▁ያስፈራ	-11995
▁ይሂዱ።	-11996
▁ይጠንቀ	-11997
▁ዮሀንስ	-11998
▁ፖለቲከ	-11999
alluun	-12000
diyyaa	-12001
itoota	-12002
▁Aarii	-12003
▁Duuti	-12004
▁Hiika	-12005
▁Odola	-12006
▁doors	-12007
▁every	-12008
▁kootu	-12009
▁qabde	-12010
▁toora	-12011
▁ለመቀበል	-12012
▁ለመጫወት	-12013
▁ለማጥመድ	-12014
▁መመልከት	-12015
▁መከላከል	-12016
▁መጨናነቅ	-12017
▁በስህተት	-12018
▁በከፍተኛ	-12019
▁አስተያየ	-12020
▁አይፈልጉ	-12021
▁አገኛለሁ	-12022
▁እርዳኝ።	-12023
▁እንቀመጥ	-12024
▁እንደሄደ	-12025
▁ወንድምህ	-12026
▁የህክምና	-12027
▁የመውጣት	-12028
▁የሚያስጨ	-12029
▁ያደርጋሉ	-12030
▁ይጮሃል።	-12031
eessinu	-12032
uudhaan	-12033
▁Bosona	-12034
▁Ergaan	-12035
▁Isniin	-12036
▁Sagant	-12037
▁Tulluu	-12038
▁deddee	-12039
▁eegduu	-12040
▁hadhaa	-12041
▁haguug	-12042
▁hidhii	-12043
▁jabaat	-12044
▁uffatu	-12045
▁ላደርግልህ	-12046
▁መደርደሪያ	-12047
▁ሰርተሃል።	-12048
▁በአእምሮዬ	-12049
▁አስተሳሰብ	-12050
▁እንድትቆይ	-12051
▁እየተማርኩ	-12052
▁ወደድኩት።	-12053
▁የማውቀውን	-12054
▁ያስቀምጡት	-12055
aattonni	-12056
▁Fedhiin	-12057
▁Galaana	-12058
▁Ogeessa	-12059
▁Paartii	-12060
▁abdadha	-12061
▁darbine	-12062
▁dhugaan	-12063
▁gaafatu	-12064
▁hayyame	-12065
▁himinaa	-12066
▁nyaatte	-12067
▁rukutaa	-12068
▁shaakal	-12069
▁አልረሳውም።	-12070
▁እንወዳለን።	-12071
▁እንደማትችል	-12072
▁የመጨረሻውን	-12073
▁Balaliin	-12074
▁Masaraan	-12075
▁dhibbaan	-12076
▁gurguruu	-12077
▁hojjette	-12078
▁kudhanii	-12079
▁mudachuu	-12080
▁qabamtee	-12081
▁tokkorra	-12082
▁Gaarummaa	-12083
▁Ispoortii	-12084
▁Qormaanni	-12085
▁Sagantaan	-12086
▁Taphataan	-12087
▁Tasgabbaa	-12088
▁amansiise	-12089
▁baafachuu	-12090
▁deebisuun	-12091
▁dhaabbatu	-12092
▁fayyadame	-12093
▁qaaliidha	-12094
▁qabaattan	-12095
▁raawwadhu	-12096
▁rasaasaan	-12097
▁sagalitti	-12098
▁wallaalee	-12099
▁Barattoota	-12100
▁Kolleejjii	-12101
▁dadhabbiin	-12102
▁gurgurtaaf	-12103
▁kanarratti	-12104
▁pirojektii	-12105
▁barreessuuf	-12106
▁dhuunfaatti	-12107
▁fakkaatutti	-12108
▁Magaalattiin	-12109
▁kofalchiisudha	-12110
ለር	-12111
ለቁ	-12112
ሚቴ	-12113
ማቴ	-12114
ማኖ	-12115
ረግ	-12116
ራቅ	-12117
ሰና	-12118
ሳዊ	-12119
ሽኝ	-12120
ቀህ	-12121
ችህ	-12122
ንቄ	-12123
ዛዥ	-12124
ዥን	-12125
ደቅ	-12126
ጆሮ	-12127
ፊው	-12128
ፕሪ	-12129
ore	-12130
ሉትን	-12131
ላለሁ	-12132
ረምቱ	-12133
ረዱት	-12134
ሱት።	-12135
ሳሉ።	-12136
ሻገር	-12137
ቀዘቅ	-12138
በላሹ	-12139
ቸኮል	-12140
ነቶች	-12141
ናገድ	-12142
ንጀሮ	-12143
ኛዎቹ	-12144
ደርሱ	-12145
ደበቀ	-12146
ጓል።	-12147
ፅፈው	-12148
▁13	-12149
▁Fo	-12150
▁ag	-12151
▁ri	-12152
▁sw	-12153
▁ve	-12154
▁ሀገ	-12155
▁ሁን	-12156
▁ለሙ	-12157
▁ለታ	-12158
▁ማደ	-12159
▁በይ	-12160
▁ብየ	-12161
▁ተዘ	-12162
▁አሞ	-12163
▁እጃ	-12164
▁ጠግ	-12165
▁ጣት	-12166
amin	-12167
ksan	-12168
situ	-12169
መርመር	-12170
መስገን	-12171
መኝም።	-12172
ሬያለሁ	-12173
ንስሳት	-12174
ክቷል።	-12175
ፈናል።	-12176
▁But	-12177
▁lix	-12178
▁ሀቀኛ	-12179
▁ሌሎቹ	-12180
▁ልጄን	-12181
▁መልኩ	-12182
▁መሞት	-12183
▁መጣል	-12184
▁ራሷን	-12185
▁ሲገባ	-12186
▁በበጋ	-12187
▁በጉዞ	-12188
▁ባርኔ	-12189
▁ተመር	-12190
▁ተረዳ	-12191
▁አላት	-12192
▁አልባ	-12193
▁አሳማ	-12194
▁አፅድ	-12195
▁ከሌለ	-12196
▁ኩራት	-12197
▁ኪሳራ	-12198
▁ክንድ	-12199
▁ወደሚ	-12200
▁ዋዜማ	-12201
▁ዜናው	-12202
▁የሄድ	-12203
▁የቡና	-12204
▁የኩባ	-12205
▁የወጣ	-12206
▁ያምና	-12207
▁ይሂዱ	-12208
▁ግባ።	-12209
▁ግትር	-12210
aazii	-12211
amaaf	-12212
iisni	-12213
ilmoo	-12214
irree	-12215
oofoo	-12216
oolaa	-12217
ጉረምረም	-12218
ጠብቅም።	-12219
▁Badh	-12220
▁Boqo	-12221
▁Mata	-12222
▁Murt	-12223
▁Wara	-12224
▁bana	-12225
▁micc	-12226
▁need	-12227
▁ሃሳቦች	-12228
▁ህይወቴ	-12229
▁ለፈተና	-12230
▁ሊከሰት	-12231
▁መፀዳጃ	-12232
▁ማምለጥ	-12233
▁ሞከርኩ	-12234
▁ሰረቀ።	-12235
▁ሳጥኖች	-12236
▁ቀድመህ	-12237
▁ቁልፎች	-12238
▁በአብዛ	-12239
▁በጉዳዩ	-12240
▁ብርሃኑ	-12241
▁አለቃዬ	-12242
▁አልጠበ	-12243
▁አሰራር	-12244
▁አባቱን	-12245
▁አንኳኳ	-12246
▁እነሆ።	-12247
▁እያደገ	-12248
▁እድሜህ	-12249
▁እፎይታ	-12250
▁ክላውስ	-12251
▁ዘጋው።	-12252
▁የለንም	-12253
▁የተሰሩ	-12254
▁ያልከው	-12255
▁ያስወጣ	-12256
▁ያጥፉ።	-12257
▁ይሁኑ።	-12258
▁ጀርመን	-12259
▁ጃክሰን	-12260
▁ገባኝ።	-12261
▁ጥንካሬ	-12262
▁ፊልሙን	-12263
abbata	-12264
aramee	-12265
diyoon	-12266
eenyee	-12267
vation	-12268
▁Eeguu	-12269
▁Rasaa	-12270
▁ayisk	-12271
▁bilis	-12272
▁boson	-12273
▁bunni	-12274
▁ciisa	-12275
▁fiiga	-12276
▁maash	-12277
▁ofiif	-12278
▁oliif	-12279
▁ለመንዳት	-12280
▁መኪናህን	-12281
▁ሚስጥራዊ	-12282
▁ምግቦችን	-12283
▁ሰርተሃል	-12284
▁ቁልፎቼን	-12285
▁በሁለተኛ	-12286
▁በመስመር	-12287
▁በመስራት	-12288
▁በአምስት	-12289
▁በእነዚያ	-12290
▁በዝርዝሩ	-12291
▁ንገሩኝ።	-12292
▁ንግግሩን	-12293
▁አልቻለም	-12294
▁አስፀያፊ	-12295
▁እንዲገባ	-12296
▁እየበላሁ	-12297
▁ከእናንተ	-12298
▁የለበትም	-12299
▁የሚችሉት	-12300
▁የሚያውቁ	-12301
▁የማይችል	-12302
▁የገባውን	-12303
▁ይደርሳል	-12304
▁Aangoo	-12305
▁Baalli	-12306
▁Bittaa	-12307
▁Dhimmi	-12308
▁Fuulli	-12309
▁Kantii	-12310
▁Sarara	-12311
▁achiis	-12312
▁banuuf	-12313
▁durbaa	-12314
▁fannif	-12315
▁fideen	-12316
▁fiixee	-12317
▁gaazex	-12318
▁gubate	-12319
▁kaatee	-12320
▁kolfan	-12321
▁miidhu	-12322
▁qunnam	-12323
▁መፅሃፎችን	-12324
▁ማስታወቂያ	-12325
▁ትሆናለህ።	-12326
▁እንድታውቅ	-12327
▁እጠብቃለሁ	-12328
▁የሚያውቀው	-12329
▁የምትሄደው	-12330
▁ይገርማል።	-12331
aakeejii	-12332
▁Dirqama	-12333
▁deebisi	-12334
▁deebisu	-12335
▁dhukaas	-12336
▁fuudhee	-12337
▁herrega	-12338
▁kanneen	-12339
▁kennuun	-12340
▁qabsiis	-12341
▁rukutee	-12342
▁uffattu	-12343
▁ትናገራለች።	-12344
▁አልነበረውም	-12345
▁አልደረሰም።	-12346
▁አሳልፈናል።	-12347
▁አይመስለኝም	-12348
▁እንደሚፈልጉ	-12349
▁እወድሃለሁ።	-12350
▁የሚናገረውን	-12351
▁ያስፈልጋል።	-12352
▁ይንከባከባል	-12353
▁Chaappaa	-12354
▁Fuuldura	-12355
▁Hiriyyaa	-12356
▁Hoteelli	-12357
▁Ilaalchi	-12358
▁Imimmaan	-12359
▁cicciree	-12360
▁dadhabne	-12361
▁dhaamsaa	-12362
▁duraanii	-12363
▁garaajee	-12364
▁raawwatu	-12365
▁waamicha	-12366
▁xumuramu	-12367
▁አልነበረንም።	-12368
▁የሚያስፈልገው	-12369
▁Boqqolloo	-12370
▁Dubbachuu	-12371
▁Magaalaan	-12372
▁dandeesse	-12373
▁dhumaatti	-12374
▁gargaarte	-12375
▁kaansarii	-12376
▁kallattii	-12377
▁maashinii	-12378
▁uffadheen	-12379
▁barbaaduuf	-12380
▁dhugumatti	-12381
▁kaffaltiin	-12382
▁shawaariin	-12383
▁bashannanaa	-12384
▁Maariyaamiin	-12385
▁ayiskiriimii	-12386
▁barbaachisoo	-12387
▁dandeenyedha	-12388
▁jalqabaatiif	-12389
▁xumurteettaa	-12390
▁dubbisteettaa	-12391
▁karoorfadheen	-12392
▁Konkolaachisaan	-12393
qi	-12394
ልእ	-12395
ሎን	-12396
ሏን	-12397
ሜላ	-12398
ርም	-12399
ሹራ	-12400
ሻይ	-12401
ቅን	-12402
ቢው	-12403
ነኛ	-12404
ናፈ	-12405
ንዱ	-12406
ዋሚ	-12407
ዋሸ	-12408
ዛዛ	-12409
ዶሻ	-12410
ገመ	-12411
ጭት	-12412
ፈነ	-12413
ase	-12414
ren	-12415
tim	-12416
use	-12417
ልኩ።	-12418
ማረው	-12419
ምሽቱ	-12420
ረብሽ	-12421
ራራው	-12422
ቂያው	-12423
ቅያኖ	-12424
በስል	-12425
ብራት	-12426
ታለች	-12427
ንበት	-12428
ወድህ	-12429
ዩኝ።	-12430
ደምደ	-12431
ገናኙ	-12432
ጠናቀ	-12433
ጡት።	-12434
▁Su	-12435
▁ላስ	-12436
▁ማጠ	-12437
▁ማፍ	-12438
▁ምሽ	-12439
▁ሳለ	-12440
▁ሳር	-12441
▁ቅቤ	-12442
▁በጓ	-12443
▁በፊ	-12444
▁አቋ	-12445
▁ውብ	-12446
▁ዘለ	-12447
▁የቼ	-12448
▁ያብ	-12449
▁ያደ	-12450
▁ያጣ	-12451
▁ይላ	-12452
▁ይሮ	-12453
▁ይፅ	-12454
▁ፅዋ	-12455
ater	-12456
fakk	-12457
kkii	-12458
velo	-12459
ልኛል።	-12460
መለስ።	-12461
ሳችንን	-12462
ሹራንስ	-12463
ከለከለ	-12464
ወትሮው	-12465
ወጣም።	-12466
ገንባት	-12467
▁Ham	-12468
▁urg	-12469
▁ሄደህ	-12470
▁ህሊና	-12471
▁ለእሷ	-12472
▁ልቦለ	-12473
▁ምንጭ	-12474
▁ረገድ	-12475
▁ሲሄድ	-12476
▁ቅድመ	-12477
▁በቡና	-12478
▁በቢላ	-12479
▁በትን	-12480
▁በውስ	-12481
▁በውጤ	-12482
▁ብቆይ	-12483
▁ቦታው	-12484
▁ተነግ	-12485
▁ተዘር	-12486
▁ተገደ	-12487
▁አልበ	-12488
▁አቀፍ	-12489
▁አታስ	-12490
▁አንፃ	-12491
▁አጠና	-12492
▁አጠገ	-12493
▁አፋር	-12494
▁እለት	-12495
▁እየሰ	-12496
▁እግሩ	-12497
▁ከምሳ	-12498
▁ክፍለ	-12499
▁ወዳድ	-12500
▁ዘራፊ	-12501
▁የሌላ	-12502
▁የሰር	-12503
▁የጋራ	-12504
▁ይበቅ	-12505
▁ፈራ።	-12506
▁ፍርድ	-12507
▁ፓሪስ	-12508
aasha	-12509
adaan	-12510
ichis	-12511
iiroo	-12512
michi	-12513
መለሰም።	-12514
ናገረው።	-12515
ደውልልኝ	-12516
▁Atis	-12517
▁Dhiq	-12518
▁Yakk	-12519
▁anis	-12520
▁diim	-12521
▁lola	-12522
▁paas	-12523
▁qaam	-12524
▁qind	-12525
▁ለልጆች	-12526
▁ሊወስድ	-12527
▁ሊያየኝ	-12528
▁መልሰው	-12529
▁መሰረዝ	-12530
▁ሪፖርት	-12531
▁ሰርቷል	-12532
▁ሰአታት	-12533
▁ስራዋን	-12534
▁በሀይቁ	-12535
▁ባደርግ	-12536
▁አልመጣ	-12537
▁አልራበ	-12538
▁አስፈራ	-12539
▁አነበብ	-12540
▁አይተህ	-12541
▁እቅዱን	-12542
▁እንቀጥ	-12543
▁እየገዛ	-12544
▁ክርክር	-12545
▁ውሾችን	-12546
▁ውቅያኖ	-12547
▁የሶስት	-12548
▁የባቡር	-12549
▁የይለፍ	-12550
▁ያመጣል	-12551
▁ድመቷን	-12552
▁ጠበቀ።	-12553
▁ጠፍጣፋ	-12554
▁ጣሪያው	-12555
▁ጥርጥር	-12556
▁ጦርነቱ	-12557
▁ጨዋነት	-12558
▁ፍርሃት	-12559
aattii	-12560
ataman	-12561
▁Gaafa	-12562
▁Gaara	-12563
▁Warsh	-12564
▁aarri	-12565
▁aarse	-12566
▁argaa	-12567
▁bunaa	-12568
▁damee	-12569
▁dhiqa	-12570
▁gocha	-12571
▁gurri	-12572
▁haquu	-12573
▁jetta	-12574
▁kufaa	-12575
▁kufee	-12576
▁ለመቀነስ	-12577
▁ልታሳየኝ	-12578
▁መሰብሰብ	-12579
▁ማዘጋጀት	-12580
▁ሰራተኞቹ	-12581
▁በዝርዝር	-12582
▁በየምሽቱ	-12583
▁ተለወጠ።	-12584
▁ተቀመጥ።	-12585
▁ተናግሯል	-12586
▁ታሪኮችን	-12587
▁ችያለሁ።	-12588
▁አቀረበ።	-12589
▁አብራችሁ	-12590
▁አይርሱ።	-12591
▁እቃዎችን	-12592
▁እንደማታ	-12593
▁እየቀነሰ	-12594
▁እጠባበቃ	-12595
▁ከመሄድዎ	-12596
▁ከእንጨት	-12597
▁ከወትሮው	-12598
▁የሚዘንብ	-12599
▁ያዝኩት።	-12600
▁ይባላል።	-12601
▁ደረስን።	-12602
asaaraa	-12603
eessiin	-12604
▁Eeyyee	-12605
▁Gaazex	-12606
▁Gingil	-12607
▁Ragaan	-12608
▁barata	-12609
▁cabsuu	-12610
▁dhiiga	-12611
▁gibira	-12612
▁gootee	-12613
▁lilmoo	-12614
▁mijatu	-12615
▁sirbaa	-12616
▁summii	-12617
▁uffate	-12618
▁yaadde	-12619
▁yaalin	-12620
▁ለምጃለሁ።	-12621
▁ተጫውቷል።	-12622
▁ትመስላለች	-12623
▁አላስብም።	-12624
▁አልጠበኩም	-12625
▁አትፍቀድ።	-12626
▁አውቃለሁ፣	-12627
▁አያውቁም።	-12628
▁አይስክሬም	-12629
▁እወጣለሁ።	-12630
▁የተወሳሰበ	-12631
▁ፍቀድልኝ።	-12632
amneerra	-12633
amummaan	-12634
▁Galmeen	-12635
▁Hidhiin	-12636
▁Jaaksan	-12637
▁buusuun	-12638
▁dagannu	-12639
▁firijii	-12640
▁hubatte	-12641
▁ilaaltu	-12642
▁kooppii	-12643
▁qabamuu	-12644
▁qunnama	-12645
▁soorata	-12646
▁ስለተፈጠረው	-12647
▁በእያንዳንዱ	-12648
▁ተነጋገርን።	-12649
▁ትችላላችሁ።	-12650
▁አይመስሉም።	-12651
▁የእንግሊዘኛ	-12652
▁የእንግሊዝኛ	-12653
▁Dhiibbaa	-12654
▁Sareenis	-12655
▁deebisaa	-12656
▁dubbisee	-12657
▁gammadan	-12658
▁haaleera	-12659
▁haasoftu	-12660
▁ibiddaan	-12661
▁jaallate	-12662
▁jiraatee	-12663
▁jireenyi	-12664
▁jiruudha	-12665
▁kutachuu	-12666
▁qabannee	-12667
▁qunnamaa	-12668
▁sababiin	-12669
▁sodaadhe	-12670
▁አላደረግኩም።	-12671
▁እንደማላደርግ	-12672
▁ያስፈልገኛል።	-12673
▁Sanduuqni	-12674
▁dabaleera	-12675
▁dureeyyii	-12676
▁fakkaatte	-12677
▁gargaartu	-12678
▁hubachuuf	-12679
▁Dogoggorri	-12680
▁Kaameeraan	-12681
▁dhiyeessii	-12682
▁fageenyaan	-12683
▁fudhatinaa	-12684
▁gowwoomsaa	-12685
▁hojjeteera	-12686
▁jalqabaati	-12687
▁yaadachiis	-12688
▁dargaggoota	-12689
▁dhangalaase	-12690
▁fayyadamuuf	-12691
▁murteessine	-12692
▁qabbanaawaa	-12693
▁Dargaggeessa	-12694
▁gammachuudhaan	-12695
Dh	-12696
tr	-12697
ለጋ	-12698
ሉኝ	-12699
ሙት	-12700
ረገ	-12701
ሯዊ	-12702
ሰት	-12703
በዘ	-12704
ችት	-12705
ኖቹ	-12706
ካቤ	-12707
ድኑ	-12708
ድያ	-12709
ጀት	-12710
ጊያ	-12711
ጥ።	-12712
ጨር	-12713
ፃፀ	-12714
ፉጂ	-12715
ፕሬ	-12716
are	-12717
ned	-12718
ney	-12719
ves	-12720
ለቱም	-12721
ላትን	-12722
መሰል	-12723
ምኩ።	-12724
ረጋገ	-12725
ራቸው	-12726
ሮቹን	-12727
ሰለቸ	-12728
ቀበላ	-12729
ቁት።	-12730
ቃጨቅ	-12731
በፊቱ	-12732
ነትን	-12733
አምር	-12734
ወሰኑ	-12735
ያሉ።	-12736
ጎተት	-12737
ጠራው	-12738
ፈዋል	-12739
ፍስት	-12740
▁Un	-12741
▁by	-12742
▁sk	-12743
▁ለግ	-12744
▁ሊቀ	-12745
▁መሬ	-12746
▁ሰጣ	-12747
▁በኢ	-12748
▁ተጭ	-12749
▁ትራ	-12750
▁ትቆ	-12751
▁ነሽ	-12752
▁ዘር	-12753
▁ያቀ	-12754
▁ይሙ	-12755
▁ይማ	-12756
▁ገረ	-12757
▁ገፋ	-12758
▁ፈሰ	-12759
baay	-12760
essi	-12761
ifne	-12762
quun	-12763
ህንፃው	-12764
ሰዋል።	-12765
ስተኛው	-12766
ቃለች።	-12767
ቻችሁን	-12768
▁Uum	-12769
▁gol	-12770
▁kon	-12771
▁ukk	-12772
▁ለጤና	-12773
▁ሊመጣ	-12774
▁ሊፍት	-12775
▁ሌላው	-12776
▁መሀል	-12777
▁መለስ	-12778
▁መልክ	-12779
▁መንታ	-12780
▁መግባ	-12781
▁ሰራዊ	-12782
▁ሰኣቱ	-12783
▁በቢሮ	-12784
▁በእግ	-12785
▁በዝግ	-12786
▁ትንሹ	-12787
▁ነገሩ	-12788
▁ነግረ	-12789
▁አመስ	-12790
▁አቀር	-12791
▁አንገ	-12792
▁አፀዳ	-12793
▁ከምን	-12794
▁ከነገ	-12795
▁ከአል	-12796
▁ወርቅ	-12797
▁የተኛ	-12798
▁ይደግ	-12799
▁ይጎዳ	-12800
Isaan	-12801
aayim	-12802
ilaan	-12803
ittoo	-12804
oomii	-12805
uccuu	-12806
ደርገው።	-12807
▁Afri	-12808
▁Dull	-12809
▁Eesh	-12810
▁Imal	-12811
▁Nyaa	-12812
▁Seer	-12813
▁aaru	-12814
▁back	-12815
▁ibsi	-12816
▁idil	-12817
▁qixa	-12818
▁ሀሳቡን	-12819
▁ሀሳቦች	-12820
▁ለቁርስ	-12821
▁ለጥያቄ	-12822
▁መደምደ	-12823
▁መጠገን	-12824
▁ማስያዝ	-12825
▁ስብስብ	-12826
▁ስደርስ	-12827
▁በሂሳብ	-12828
▁በበለጠ	-12829
▁በእስር	-12830
▁በድጋሚ	-12831
▁ተወያይ	-12832
▁ተደረገ	-12833
▁ነበረባ	-12834
▁ንብረት	-12835
▁ኖረዋል	-12836
▁አሳየኝ	-12837
▁አንፃር	-12838
▁እንጨት	-12839
▁እየጠጣ	-12840
▁እያሰብ	-12841
▁እድሉን	-12842
▁እጫወት	-12843
▁ከሌሎች	-12844
▁ከረሜላ	-12845
▁ከጠበቅ	-12846
▁ወንድሙ	-12847
▁ወጥመድ	-12848
▁የስልክ	-12849
▁የጥበብ	-12850
▁ያለኝን	-12851
▁ያደረጉ	-12852
▁ደስታን	-12853
▁ገንዳው	-12854
▁ጊዜያት	-12855
▁ጠመንጃ	-12856
▁ጠጣሁ።	-12857
▁ጥንታዊ	-12858
▁ጫማዬን	-12859
aasiin	-12860
ething	-12861
stirii	-12862
velope	-12863
ደርደሪያው	-12864
▁Damma	-12865
▁Haall	-12866
▁Qaama	-12867
▁baanu	-12868
▁bahan	-12869
▁cilee	-12870
▁eegde	-12871
▁eegnu	-12872
▁fufaa	-12873
▁fufte	-12874
▁going	-12875
▁gumaa	-12876
▁marii	-12877
▁oolch	-12878
▁taatu	-12879
▁ለእረፍት	-12880
▁መብራቶች	-12881
▁መንገዶች	-12882
▁ሞልቷል።	-12883
▁ቋንቋዎች	-12884
▁በመስማቴ	-12885
▁በአሜሪካ	-12886
▁ትፈራለህ	-12887
▁ነበረበት	-12888
▁አላወቀም	-12889
▁አቅርቦት	-12890
▁አይፈቅድ	-12891
▁እናትህን	-12892
▁እንብላ።	-12893
▁እንደገባ	-12894
▁እያደረጉ	-12895
▁የሚያስቅ	-12896
▁የተሰበረ	-12897
▁ያስባሉ።	-12898
▁ደረሰኝ።	-12899
▁ጓደኞቼን	-12900
dhabdee	-12901
eessita	-12902
eeyyiin	-12903
unkaana	-12904
▁Funyoo	-12905
▁Galata	-12906
▁Imalli	-12907
▁Liftii	-12908
▁baratu	-12909
▁degger	-12910
▁dorgom	-12911
▁eegala	-12912
▁galchi	-12913
▁galmaa	-12914
▁himate	-12915
▁loonii	-12916
▁miliqe	-12917
▁mooraa	-12918
▁soddom	-12919
▁tolcha	-12920
▁tolchu	-12921
▁ukkaam	-12922
▁ለማስታወስ	-12923
▁በመጨረሻው	-12924
▁በአካባቢው	-12925
▁አገልግሎት	-12926
▁አገኘኋት።	-12927
▁እንደበፊቱ	-12928
▁እንዲኖረኝ	-12929
▁እየሞከርክ	-12930
▁እየተፈጠረ	-12931
▁የሚቀጥለው	-12932
▁የሚወዱትን	-12933
▁የምትፈልግ	-12934
▁ይሀውልህ።	-12935
ooloojii	-12936
▁Balalii	-12937
▁Herrega	-12938
▁Ogeessi	-12939
▁Ummanni	-12940
▁argaman	-12941
▁deemtuu	-12942
▁dhiifte	-12943
▁dhiiftu	-12944
▁diimaan	-12945
▁isiniin	-12946
▁seenuuf	-12947
▁suutaan	-12948
▁በመካከላችን	-12949
▁ተምሬያለሁ።	-12950
▁ተገኝተዋል።	-12951
▁ትበልጣለች።	-12952
▁አልሄድኩም።	-12953
▁እንደምትመጣ	-12954
▁እንድናደርግ	-12955
▁ከአገልግሎት	-12956
▁የምንችለውን	-12957
▁የተወለድኩት	-12958
▁ጀምሬያለሁ።	-12959
▁Barataan	-12960
▁Nageenya	-12961
▁Qorannoo	-12962
▁Saantima	-12963
▁Sirboota	-12964
▁Waraqaan	-12965
▁Xiyyaara	-12966
▁baaburri	-12967
▁baaseera	-12968
▁barbaadi	-12969
▁dabareen	-12970
▁dabarsaa	-12971
▁dhukaase	-12972
▁digdamii	-12973
▁dubbadhe	-12974
▁dursinee	-12975
▁gaafattu	-12976
▁hidhamee	-12977
▁ilaalama	-12978
▁injifata	-12979
▁jalqabde	-12980
▁kanaatti	-12981
▁qabaatte	-12982
▁salphaan	-12983
▁sirreeff	-12984
▁taphadhu	-12985
▁wallaale	-12986
▁እጠባበቃለሁ።	-12987
eservation	-12988
▁Jechoonni	-12989
▁Shubbisuu	-12990
▁ajjeefame	-12991
▁cufameera	-12992
▁dabarsitu	-12993
▁dadhabuun	-12994
▁gootaniif	-12995
▁poolisiin	-12996
▁sibiilaan	-12997
▁taphattuu	-12998
▁tasgabbii	-12999
▁እነግራችኋለሁ።	-13000
▁Salphaatti	-13001
▁barreessee	-13002
▁gaddisiisu	-13003
▁gadhiisuuf	-13004
▁iswiiterii	-13005
▁keenyaatti	-13006
▁nuffisiise	-13007
▁sirriidhaa	-13008
▁Paaspoortii	-13009
▁Xaaliyaanii	-13010
▁hawaasummaa	-13011
▁hedduudhaaf	-13012
▁mirkaneesse	-13013
▁Ameerikaatti	-13014
▁dhaabbatichaa	-13015
▁jijjiirameera	-13016
ig	-13017
ob	-13018
od	-13019
ለያ	-13020
መቅ	-13021
መጠ	-13022
ሮሮ	-13023
ቀጣ	-13024
ባር	-13025
ቴሉ	-13026
ኣዛ	-13027
ኮት	-13028
ውሰ	-13029
ጎቴ	-13030
ጦት	-13031
▁ቺ	-13032
day	-13033
ive	-13034
lug	-13035
ለውጥ	-13036
ለዳው	-13037
መርጥ	-13038
ማሪያ	-13039
ማርክ	-13040
ሰማሁ	-13041
በራዊ	-13042
ባረር	-13043
ቦርሳ	-13044
ከራው	-13045
ዎትን	-13046
ዝርዝ	-13047
የውን	-13048
ደሰተ	-13049
ደኞች	-13050
ገለፅ	-13051
ገርም	-13052
ፈፀም	-13053
▁En	-13054
▁bl	-13055
▁en	-13056
▁fl	-13057
▁tu	-13058
▁ማሞ	-13059
▁ረስ	-13060
▁ረዳ	-13061
▁ራቁ	-13062
▁ስማ	-13063
▁ቀጣ	-13064
▁ቻል	-13065
▁ንክ	-13066
▁ኖት	-13067
▁ከኣ	-13068
▁ውጣ	-13069
▁ዜማ	-13070
▁ዞር	-13071
▁የቢ	-13072
▁የፒ	-13073
▁ይኮ	-13074
▁ጥቃ	-13075
▁ጨፍ	-13076
▁ፎጣ	-13077
biis	-13078
caaf	-13079
ggii	-13080
ibii	-13081
illi	-13082
jiif	-13083
ለማመድ	-13084
ለታል።	-13085
ማሪዎች	-13086
ሪስቶች	-13087
ሪያውን	-13088
ሰጥም።	-13089
ሳካለት	-13090
ንግስት	-13091
የውም።	-13092
ጀመረ።	-13093
ገኙም።	-13094
▁Gom	-13095
▁Muf	-13096
▁ann	-13097
▁bus	-13098
▁hel	-13099
▁inv	-13100
▁lab	-13101
▁our	-13102
▁tho	-13103
▁ለብሳ	-13104
▁ለዛሬ	-13105
▁ላንቺ	-13106
▁ሌባው	-13107
▁መኣዛ	-13108
▁መዝሙ	-13109
▁በማጥ	-13110
▁ብልጭ	-13111
▁ትረዳ	-13112
▁ትሰጠ	-13113
▁አትስ	-13114
▁አውል	-13115
▁እየባ	-13116
▁ከሞላ	-13117
▁ከቅር	-13118
▁ከበላ	-13119
▁ከብዶ	-13120
▁ከውጭ	-13121
▁ካምፕ	-13122
▁ካገኘ	-13123
▁የሆን	-13124
▁የሚበ	-13125
▁የተሸ	-13126
▁የተጠ	-13127
▁የፃፍ	-13128
▁ያለእ	-13129
▁ያገለ	-13130
▁ይሰጠ	-13131
▁ይቀን	-13132
▁ይበቃ	-13133
▁ይታወ	-13134
▁ይከፍ	-13135
▁ደረቅ	-13136
▁ደንብ	-13137
▁ጃኬት	-13138
▁ገመድ	-13139
▁ገጣሚ	-13140
▁ግላዊ	-13141
▁ግድያ	-13142
▁ግፊት	-13143
▁ጥቅል	-13144
▁ጥበቃ	-13145
▁ጭማሪ	-13146
▁ፅንሰ	-13147
▁ፋሽን	-13148
▁ፕሬዝ	-13149
aayik	-13150
ateef	-13151
ather	-13152
kichi	-13153
ጨነቅም።	-13154
▁Ajaa	-13155
▁Marg	-13156
▁banu	-13157
▁been	-13158
▁cite	-13159
▁home	-13160
▁orma	-13161
▁quub	-13162
▁were	-13163
▁ሊኖረኝ	-13164
▁ሊፈጠር	-13165
▁ልብሶች	-13166
▁ልጆቼን	-13167
▁ልጠይቅ	-13168
▁መግለፅ	-13169
▁መጥተህ	-13170
▁መፅሀፎ	-13171
▁ሚስቱን	-13172
▁ሳይንስ	-13173
▁በአስቸ	-13174
▁በውጤቱ	-13175
▁ባለፉት	-13176
▁ቦርሳዬ	-13177
▁ተሳስታ	-13178
▁ተናግሬ	-13179
▁ታደርግ	-13180
▁ትውስታ	-13181
▁አስተም	-13182
▁አንቺን	-13183
▁አወጣ።	-13184
▁አይበላ	-13185
▁አጠፋ።	-13186
▁እሳቱን	-13187
▁እንሞክ	-13188
▁እንደት	-13189
▁ከክፍሉ	-13190
▁ኩኪዎች	-13191
▁ክፍሌን	-13192
▁ክፍልህ	-13193
▁ዋስትና	-13194
▁የሀገር	-13195
▁የተወለ	-13196
▁የክፍል	-13197
▁የወርቅ	-13198
▁ያደርጉ	-13199
▁ጭንቀት	-13200
▁ፍራፍሬ	-13201
aarjii	-13202
allaan	-13203
iilaan	-13204
tiriin	-13205
▁Austr	-13206
▁Deemu	-13207
▁Diina	-13208
▁Ganda	-13209
▁Himni	-13210
▁Jiraa	-13211
▁Kamtu	-13212
▁Komii	-13213
▁aarsu	-13214
▁could	-13215
▁diduu	-13216
▁hafee	-13217
▁hawaa	-13218
▁kukii	-13219
▁lafee	-13220
▁lolaa	-13221
▁ለመግባት	-13222
▁ለመጠቀም	-13223
▁መስማማት	-13224
▁መቀላቀል	-13225
▁መተርጎም	-13226
▁መወያየት	-13227
▁ሰጥቷል።	-13228
▁ስጦታዎች	-13229
▁ሻንጣዬን	-13230
▁በየቦታው	-13231
▁ቤተሰቡን	-13232
▁ቦርሳውን	-13233
▁ተጀመረ።	-13234
▁አልኩኝ።	-13235
▁አልወሰን	-13236
▁አማራጮች	-13237
▁አስተምራ	-13238
▁አቀላጥፎ	-13239
▁አይከሰት	-13240
▁እየፈለጉ	-13241
▁እያደረክ	-13242
▁ወድቋል።	-13243
▁ውድድሩን	-13244
▁የምበላው	-13245
▁የተሻለው	-13246
▁ይከሰታል	-13247
▁ደህንነቱ	-13248
▁ጨርሰሃል	-13249
▁Button	-13250
▁Callis	-13251
▁Dhaaba	-13252
▁Dhiiga	-13253
▁Falmii	-13254
▁Garaan	-13255
▁Haaloo	-13256
▁Hiikni	-13257
▁Ilmaan	-13258
▁Keessa	-13259
▁Yaalii	-13260
▁cufama	-13261
▁dhiyaa	-13262
▁dhokse	-13263
▁dhoohe	-13264
▁dhugdu	-13265
▁doolii	-13266
▁eegale	-13267
▁fagaat	-13268
▁galaan	-13269
▁geessa	-13270
▁hiyyee	-13271
▁ibsuuf	-13272
▁kennan	-13273
▁maasii	-13274
▁mufate	-13275
▁qabnee	-13276
▁qulfii	-13277
▁yaadin	-13278
▁yaalii	-13279
▁በሆስፒታል	-13280
▁ተገናኘን።	-13281
▁ታውቃለች።	-13282
▁ነገረችኝ።	-13283
▁አልተናገር	-13284
▁አስቀድመን	-13285
▁እንክብካቤ	-13286
▁እንድትሆን	-13287
▁እንጀምር።	-13288
▁እንጫወት።	-13289
▁እውነታውን	-13290
▁የምትችለው	-13291
▁ይገባኛል።	-13292
▁ጠየቀቻት።	-13293
aatiivii	-13294
poortiin	-13295
▁Buddeen	-13296
▁Dukkana	-13297
▁beektan	-13298
▁bilbili	-13299
▁biraati	-13300
▁cinatti	-13301
▁dhaquun	-13302
▁dhorkuu	-13303
▁furdina	-13304
▁hirmaat	-13305
▁kaampii	-13306
▁kamitti	-13307
▁qabadhe	-13308
▁sirbitu	-13309
▁suphamu	-13310
▁walfakk	-13311
▁xumuraa	-13312
▁በማቀዝቀዣው	-13313
▁በእንግሊዘኛ	-13314
▁ተጨናንቋል።	-13315
▁አልፈቅድም።	-13316
▁አያደርግም።	-13317
▁አደረግኩት።	-13318
▁እንደሚያስቡ	-13319
▁እንደማደርግ	-13320
▁እከፍላለሁ።	-13321
▁Australi	-13322
▁Beellama	-13323
▁Daldalli	-13324
▁abdachaa	-13325
▁argattan	-13326
▁badhaasa	-13327
▁bilbilte	-13328
▁dammaqee	-13329
▁firaasha	-13330
▁fudhatan	-13331
▁gammadne	-13332
▁heerumne	-13333
▁herregaa	-13334
▁hubannoo	-13335
▁jirtutti	-13336
▁liqeessa	-13337
▁quufeera	-13338
▁rifachuu	-13339
▁sadiitti	-13340
▁shaakala	-13341
▁tajaajil	-13342
▁tilmaamu	-13343
▁አልነገረኝም።	-13344
arameellaa	-13345
▁Abukaatoo	-13346
▁Mallattoo	-13347
▁akkasumas	-13348
▁cirrachaa	-13349
▁dheerinni	-13350
▁dhiheenya	-13351
▁dhiqachaa	-13352
▁dhufeenya	-13353
▁dogoggore	-13354
▁fakkaanne	-13355
▁fakkeenya	-13356
▁fudhadhee	-13357
▁gammaddee	-13358
▁gurguddaa	-13359
▁hammamiif	-13360
▁hojjettan	-13361
▁idileetti	-13362
▁michuudha	-13363
▁qabatamaa	-13364
▁simbirroo	-13365
▁uffachuun	-13366
▁yaadattaa	-13367
▁አልነበረበትም።	-13368
▁akkamittan	-13369
▁burtukaana	-13370
▁cirrachaan	-13371
▁dabalataaf	-13372
▁hojjedheen	-13373
▁hubadheera	-13374
▁qajeelfama	-13375
▁Chokolaataa	-13376
▁Dogoggoraan	-13377
▁jijjiiramaa	-13378
▁murteessuuf	-13379
▁xumurameera	-13380
▁Odeeffannoon	-13381
▁barreeffamaa	-13382
▁qulqulleessuuf	-13383
ks	-13384
ሀቱ	-13385
ማሲ	-13386
ምታ	-13387
ሞቱ	-13388
ሳ።	-13389
ሸሸ	-13390
ባሉ	-13391
ታለ	-13392
ነህ	-13393
ነን	-13394
ንበ	-13395
ከሩ	-13396
ካሪ	-13397
ካፍ	-13398
ክቱ	-13399
ያሉ	-13400
ጋኝ	-13401
ጋፍ	-13402
ጠም	-13403
ጫማ	-13404
ፋን	-13405
ach	-13406
age	-13407
gur	-13408
lem	-13409
ord	-13410
ran	-13411
ugh	-13412
ysk	-13413
ሀውን	-13414
መጣህ	-13415
ምንህ	-13416
ሞክሩ	-13417
ረሳው	-13418
ረዳዎ	-13419
ሰራም	-13420
ሰጡኝ	-13421
ቀኝ።	-13422
ቀዋል	-13423
ቆይም	-13424
ታምኑ	-13425
ችን።	-13426
ነኝ።	-13427
ናግረ	-13428
ንገት	-13429
ክተር	-13430
ወለድ	-13431
ዋታው	-13432
ውንድ	-13433
ደም።	-13434
ገናኛ	-13435
ጎዳህ	-13436
ጣሉ።	-13437
ጨፍር	-13438
ጫወቻ	-13439
▁My	-13440
▁sc	-13441
▁us	-13442
▁መሄ	-13443
▁ማይ	-13444
▁ምና	-13445
▁ቲሸ	-13446
▁ቴክ	-13447
▁ንድ	-13448
▁አራ	-13449
▁እማ	-13450
▁ከቆ	-13451
▁ከፋ	-13452
▁ኮር	-13453
▁ዘገ	-13454
▁ግል	-13455
▁ጥቂ	-13456
▁ፈት	-13457
eetu	-13458
naaf	-13459
ppil	-13460
ries	-13461
roon	-13462
yyii	-13463
ሃለን።	-13464
መስለው	-13465
በዛብህ	-13466
ብናል።	-13467
ከረች።	-13468
ዘዋል።	-13469
ገድለኝ	-13470
ጠበኩት	-13471
ጠብቀኝ	-13472
ጠብቅህ	-13473
▁Qal	-13474
▁boq	-13475
▁get	-13476
▁guf	-13477
▁imp	-13478
▁kib	-13479
▁ሆቴሉ	-13480
▁ለጋስ	-13481
▁ልሆን	-13482
▁ምርጡ	-13483
▁ሞቷል	-13484
▁ሸሸ።	-13485
▁በመዝ	-13486
▁በእጁ	-13487
▁በእጄ	-13488
▁በየማ	-13489
▁በድር	-13490
▁ቡናማ	-13491
▁ቤቴን	-13492
▁ተለዋ	-13493
▁ንጉሱ	-13494
▁አቁማ	-13495
▁አባቷ	-13496
▁አትመ	-13497
▁ኢንዱ	-13498
▁ኣሶች	-13499
▁እሄድ	-13500
▁እንጠ	-13501
▁ከሴት	-13502
▁ወሬው	-13503
▁ወዲያ	-13504
▁ውጤቱ	-13505
▁ዝጋ።	-13506
▁የተረ	-13507
▁ያናድ	-13508
▁ይኑር	-13509
▁ይዘው	-13510
▁ይጓዛ	-13511
▁ድንኳ	-13512
▁ጠበኛ	-13513
▁ጥይት	-13514
bboon	-13515
deela	-13516
ineef	-13517
ootni	-13518
uutni	-13519
መልከት።	-13520
ምፒውተር	-13521
ምፒዩተር	-13522
ጀመሪያው	-13523
▁Aysk	-13524
▁Hima	-13525
▁Paan	-13526
▁comp	-13527
▁eegi	-13528
▁hafa	-13529
▁jirr	-13530
▁look	-13531
▁miil	-13532
▁tarr	-13533
▁than	-13534
▁ለማዳን	-13535
▁ልወስድ	-13536
▁መቸኮል	-13537
▁መጣሁ።	-13538
▁መጥራት	-13539
▁ሚስትህ	-13540
▁ሰኣቴን	-13541
▁ሰጣት።	-13542
▁ስሜቱን	-13543
▁ብንሆን	-13544
▁ተጠናቀ	-13545
▁ትራፊክ	-13546
▁ትኬቶች	-13547
▁ትወስዳ	-13548
▁አመጣህ	-13549
▁አገባ።	-13550
▁እራሴን	-13551
▁እስከሚ	-13552
▁እግሮች	-13553
▁ከመኪና	-13554
▁ከመካከ	-13555
▁ከአባቴ	-13556
▁ከዚያን	-13557
▁ከፈተ።	-13558
▁ካደረግ	-13559
▁ዝንጀሮ	-13560
▁የሚኖሩ	-13561
▁የቪዲዮ	-13562
▁ያጠናል	-13563
▁ይሄዳሉ	-13564
▁ይሻላል	-13565
▁ይጠጣል	-13566
▁ደንቦች	-13567
▁ድልድዩ	-13568
▁ጊዜውን	-13569
▁ጎረቤት	-13570
aallii	-13571
anneef	-13572
iiniin	-13573
oombii	-13574
▁Beeks	-13575
▁Girii	-13576
▁Haroo	-13577
▁Miidh	-13578
▁Santa	-13579
▁Sofaa	-13580
▁faarf	-13581
▁leenj	-13582
▁qabee	-13583
▁waamu	-13584
▁xuuxa	-13585
▁ለማጥናት	-13586
▁ላለመሄድ	-13587
▁መመርመር	-13588
▁መንቀጥቀ	-13589
▁መግባባት	-13590
▁መጥቷል።	-13591
▁ማስረዳት	-13592
▁በመጫወት	-13593
▁በአደጋው	-13594
▁በገንዘብ	-13595
▁በፍርሃት	-13596
▁ብቻችንን	-13597
▁ተግባራዊ	-13598
▁ተፈጥሯዊ	-13599
▁አልነበራ	-13600
▁አሜሪካዊ	-13601
▁አስተናጋ	-13602
▁አስገባ።	-13603
▁አድርጓል	-13604
▁እንውጣ።	-13605
▁እንደማን	-13606
▁እንድረዳ	-13607
▁እንገናኛ	-13608
▁እጠላለሁ	-13609
▁ኩኪዎችን	-13610
▁ኮንሰርት	-13611
▁የማይቀር	-13612
▁የተጨነቀ	-13613
▁የተፃፈው	-13614
▁የአንተን	-13615
▁የወደፊት	-13616
▁ያደግኩት	-13617
▁ገብቷል።	-13618
▁ጨምሯል።	-13619
tiraata	-13620
▁Bakkan	-13621
▁Gariin	-13622
▁Hindii	-13623
▁Piizaa	-13624
▁Walgah	-13625
▁afeere	-13626
▁alatti	-13627
▁baatii	-13628
▁banamu	-13629
▁ciisin	-13630
▁dhiira	-13631
▁gaazii	-13632
▁gootaa	-13633
▁gowwom	-13634
▁guutaa	-13635
▁mariis	-13636
▁miidha	-13637
▁oolche	-13638
▁seenee	-13639
▁takkaa	-13640
▁ቆይቻለሁ።	-13641
▁ተሳፋሪዎች	-13642
▁ነበራቸው።	-13643
▁አልገባህም	-13644
▁አልፈዋል።	-13645
▁አትናገር።	-13646
▁አይለኝም።	-13647
▁አይወዱም።	-13648
▁አጥተዋል።	-13649
▁እተኛለሁ።	-13650
▁የማይመስል	-13651
▁ያደርጋሉ።	-13652
▁ጠየቀችኝ።	-13653
atteetta	-13654
iteettaa	-13655
maammata	-13656
▁Barataa	-13657
▁Bidiruu	-13658
▁Ergasii	-13659
▁Haalluu	-13660
▁Ilaaluu	-13661
▁Jimaata	-13662
▁Saffisa	-13663
▁baattee	-13664
▁darbuuf	-13665
▁deemtan	-13666
▁dhiphoo	-13667
▁hafeera	-13668
▁kilabii	-13669
▁qunnamu	-13670
▁tuqinaa	-13671
▁ተበላሽቷል።	-13672
▁ታምሜአለሁ።	-13673
▁አልተፈቀደል	-13674
▁እያንዳንዱን	-13675
▁የሚወስደውን	-13676
▁የማደርገውን	-13677
▁Cirrachi	-13678
▁Eeshiyaa	-13679
▁Giiftiin	-13680
▁Namichis	-13681
▁Sadarkaa	-13682
▁Waamicha	-13683
▁beekamoo	-13684
▁dabarsan	-13685
▁dadhaboo	-13686
▁deddeebi	-13687
▁gammaddu	-13688
▁gammanne	-13689
▁garagali	-13690
▁hayyamaa	-13691
▁hojjetti	-13692
▁jedhinaa	-13693
▁kaffalaa	-13694
▁miseensa	-13695
▁nyaadhaa	-13696
▁nyaannee	-13697
▁qilleens	-13698
▁tasaatti	-13699
▁አይመስላችሁም	-13700
▁Barruulee	-13701
▁argadheen	-13702
▁barruulee	-13703
▁geejjibaa	-13704
▁ilaalamuu	-13705
▁jaallatte	-13706
▁qunnamuuf	-13707
▁urgooftuu	-13708
▁xumuramne	-13709
▁agarsiifte	-13710
▁agarsiisaa	-13711
▁barsiisaan	-13712
▁haasofsiis	-13713
▁hojjetaman	-13714
▁kaffaleera	-13715
▁madaalawaa	-13716
▁qulqullina	-13717
▁dhageessisaa	-13718
▁Daawwattoonni	-13719
▁gammachiisuuf	-13720
ለፉ	-13721
ልስ	-13722
ማሩ	-13723
ማቲ	-13724
ሾች	-13725
ቀን	-13726
ቆለ	-13727
ቦን	-13728
ዋኛ	-13729
ዋጋ	-13730
ጋል	-13731
ጋዊ	-13732
ጠረ	-13733
ጠቁ	-13734
ጠጥ	-13735
ጨ።	-13736
ፅሃ	-13737
▁ዞ	-13738
ort	-13739
qoo	-13740
sim	-13741
ለኝን	-13742
ላንት	-13743
ልጣን	-13744
መዋል	-13745
ሙላት	-13746
ቀም።	-13747
በረታ	-13748
ባትህ	-13749
ነቴን	-13750
ነፍስ	-13751
ኒስት	-13752
ይንኛ	-13753
ደነቅ	-13754
ዳንት	-13755
ገርሞ	-13756
ገኛሉ	-13757
ጣትን	-13758
▁no	-13759
▁uj	-13760
▁wr	-13761
▁ሊቅ	-13762
▁ሊተ	-13763
▁ራሱ	-13764
▁ሰሞ	-13765
▁ስቶ	-13766
▁በገ	-13767
▁በፋ	-13768
▁ታይ	-13769
▁ነጋ	-13770
▁እሰ	-13771
▁ከሆ	-13772
▁የሽ	-13773
▁የብ	-13774
▁ይሉ	-13775
▁ድሆ	-13776
▁ጃኬ	-13777
▁ግዛ	-13778
▁ጥሎ	-13779
▁ጥሬ	-13780
niin	-13781
tuuf	-13782
uman	-13783
ለሽነት	-13784
ልኩትን	-13785
ረሃል።	-13786
ርፖርት	-13787
ተኝነት	-13788
ከላከል	-13789
ደዋል።	-13790
ገናኘን	-13791
ጨናነቀ	-13792
▁Arr	-13793
▁Nan	-13794
▁New	-13795
▁Saa	-13796
▁isp	-13797
▁pla	-13798
▁tra	-13799
▁zay	-13800
▁zoo	-13801
▁ሄይ፣	-13802
▁ለመም	-13803
▁ለሴት	-13804
▁ላከ።	-13805
▁ልስጥ	-13806
▁ልገዛ	-13807
▁መሳም	-13808
▁መቻል	-13809
▁መናፈ	-13810
▁መዶሻ	-13811
▁መጫን	-13812
▁ምድጃ	-13813
▁ስሰማ	-13814
▁ሽንት	-13815
▁ቁሳቁ	-13816
▁በምር	-13817
▁በሮች	-13818
▁በቀኝ	-13819
▁በባዶ	-13820
▁ባንድ	-13821
▁ተከራ	-13822
▁ተወ።	-13823
▁ታየ።	-13824
▁ታዳሚ	-13825
▁ታጠፋ	-13826
▁ትዝታ	-13827
▁ትጠላ	-13828
▁ነርስ	-13829
▁ኖረ።	-13830
▁አሉን	-13831
▁እርሻ	-13832
▁ከልጅ	-13833
▁ከፍታ	-13834
▁ኮረብ	-13835
▁የሚተ	-13836
▁የተሰ	-13837
▁የአባ	-13838
▁የእሷ	-13839
▁ያለች	-13840
▁ያመለ	-13841
▁ያዙ።	-13842
▁ይቀር	-13843
▁ደውል	-13844
▁ገደብ	-13845
▁ግድየ	-13846
▁ጠበቀ	-13847
▁ጥዋት	-13848
▁ጥፋቱ	-13849
▁ፀጥታ	-13850
▁ፃፈ።	-13851
▁ፈልገ	-13852
▁ፈቀደ	-13853
eenii	-13854
ittii	-13855
iyyoo	-13856
wween	-13857
ደርጉትን	-13858
ጠቀምበት	-13859
▁Beel	-13860
▁Chee	-13861
▁Duum	-13862
▁Kaap	-13863
▁fash	-13864
▁guba	-13865
▁happ	-13866
▁help	-13867
▁kaab	-13868
▁koos	-13869
▁minj	-13870
▁sard	-13871
▁ለወንድ	-13872
▁ሊረዳኝ	-13873
▁ላስተዋ	-13874
▁ልምምድ	-13875
▁ልብሴን	-13876
▁መሆኗን	-13877
▁መልሶች	-13878
▁መርከቧ	-13879
▁መታየት	-13880
▁መዋሸት	-13881
▁ማሳመን	-13882
▁ምስሎች	-13883
▁ሰምቼው	-13884
▁ሰኣቱን	-13885
▁ስራዎች	-13886
▁ስራዎን	-13887
▁ቀልዶች	-13888
▁ቅጠሎች	-13889
▁ቆረጠ።	-13890
▁በረሃብ	-13891
▁በስንት	-13892
▁በባንክ	-13893
▁በትንሹ	-13894
▁በአልጋ	-13895
▁በጀልባ	-13896
▁በፀሀይ	-13897
▁ነቃሁ።	-13898
▁አልቀረ	-13899
▁አልበዛ	-13900
▁አስረዳ	-13901
▁አስከፍ	-13902
▁አስወግ	-13903
▁አቁማዳ	-13904
▁አነጋግ	-13905
▁አገኙት	-13906
▁እራስዎ	-13907
▁እቅድህ	-13908
▁እጅህን	-13909
▁ከሁለቱ	-13910
▁ከልጆች	-13911
▁ከቁርስ	-13912
▁ከእነሱ	-13913
▁ክስተት	-13914
▁ውጤቱን	-13915
▁የሚባል	-13916
▁የተገነ	-13917
▁የቻይና	-13918
▁የጭነት	-13919
▁ያልኩት	-13920
▁ያዘኝ።	-13921
▁ያደርግ	-13922
▁ይቆያል	-13923
▁ይተኛል	-13924
▁ደረሰኝ	-13925
▁ጉልበት	-13926
▁ግብይት	-13927
▁ግጥሚያ	-13928
▁ፓስፖር	-13929
aarama	-13930
agdeen	-13931
amneef	-13932
ichaan	-13933
iinsaa	-13934
oojjii	-13935
tajjii	-13936
▁Fujii	-13937
▁Galma	-13938
▁Urjii	-13939
▁adiin	-13940
▁banuu	-13941
▁gadii	-13942
▁qooda	-13943
▁tiyaa	-13944
▁xiinx	-13945
▁መስኮቶች	-13946
▁ማመስገን	-13947
▁ቀንሷል።	-13948
▁በማድረጌ	-13949
▁ባለቤቴን	-13950
▁ተባረረ።	-13951
▁ትበላለህ	-13952
▁አልተሰማ	-13953
▁አልኩህ።	-13954
▁አመስጋኝ	-13955
▁አትወድም	-13956
▁እመኛለሁ	-13957
▁ከቁጥጥር	-13958
▁ከአደጋው	-13959
▁ካየኋቸው	-13960
▁ወሰንኩ።	-13961
▁የሚሄደው	-13962
▁የቅርጫት	-13963
▁የተወለደ	-13964
▁የተጠበቀ	-13965
▁ይመርጣሉ	-13966
▁ይመስላሉ	-13967
▁ደረስኩ።	-13968
▁ጠየኩት።	-13969
▁ፈለገች።	-13970
ugguxii	-13971
▁Daraar	-13972
▁Gurgur	-13973
▁Himata	-13974
▁Machaa	-13975
▁Taatee	-13976
▁Tajaaj	-13977
▁Ummata	-13978
▁arjoom	-13979
▁beeyla	-13980
▁hatatt	-13981
▁ilmaan	-13982
▁kakaas	-13983
▁liqiin	-13984
▁loogii	-13985
▁mormii	-13986
▁pilaan	-13987
▁really	-13988
▁saayik	-13989
▁seenne	-13990
▁shaamp	-13991
▁በእንደዚህ	-13992
▁በየማለዳው	-13993
▁ትናገራለህ	-13994
▁አስፈላጊው	-13995
▁አታድርጉ።	-13996
▁አንዳንዶቹ	-13997
▁አውቶቡሱን	-13998
▁አያስፈልግ	-13999
▁አደረግን።	-14000
▁ኤሌክትሪክ	-14001
▁እንሰራለን	-14002
▁እንቁላሎች	-14003
▁እንደነበሩ	-14004
▁እንዳደረገ	-14005
▁እንድታገኝ	-14006
▁እየሞከርን	-14007
▁ከፈለጋችሁ	-14008
▁ካልፈለግክ	-14009
▁የሚሆነውን	-14010
▁የሚፈልገው	-14011
▁የተከለከለ	-14012
▁ያሳዝናል።	-14013
▁ያስፈልጋል	-14014
▁ጠየቅሁት።	-14015
▁ፕሬዚዳንቱ	-14016
▁Barumsa	-14017
▁Birraan	-14018
▁Deemuuf	-14019
▁Fakkiin	-14020
▁Gabatee	-14021
▁Guddina	-14022
▁Halluun	-14023
▁Xiyyaar	-14024
▁deebine	-14025
▁dhiifnu	-14026
▁dukkana	-14027
▁geengoo	-14028
▁hamaatu	-14029
▁hordofa	-14030
▁kaayyoo	-14031
▁miliquu	-14032
▁milkoof	-14033
▁miseens	-14034
▁quuqama	-14035
▁raafama	-14036
▁seenuun	-14037
▁ለማስተካከል	-14038
▁ለእያንዳንዱ	-14039
▁አላደረኩም።	-14040
▁አልተገኘም።	-14041
▁አሳይሃለሁ።	-14042
▁አስተማሪዎች	-14043
▁አትፈልግም።	-14044
▁አድርገሃል።	-14045
▁Akkasuma	-14046
▁Dhohinsa	-14047
▁Dubbisuu	-14048
▁beekneef	-14049
▁daangeff	-14050
▁dhaabuun	-14051
▁dhokatee	-14052
▁dhungate	-14053
▁goggogaa	-14054
▁guddaatu	-14055
▁ilaaltan	-14056
▁kadhadha	-14057
▁taphatti	-14058
▁tolchite	-14059
▁uumamaan	-14060
▁ከአውስትራሊያ	-14061
▁Fakkeenya	-14062
▁Qilleensa	-14063
▁barateera	-14064
▁bitachuun	-14065
▁dhiqadhaa	-14066
▁dubbistee	-14067
▁gurgurama	-14068
▁guutuutti	-14069
▁hojjetama	-14070
▁kudhaniif	-14071
▁something	-14072
▁tilmaamaa	-14073
▁Galatoomaa	-14074
▁Qajeelfama	-14075
▁dhabameera	-14076
▁harkifatte	-14077
▁nyaadheera	-14078
▁qopheessuu	-14079
▁waliigalaa	-14080
▁Muuziyeemii	-14081
▁akkanumatti	-14082
▁babbareedoo	-14083
▁dadhaboodha	-14084
▁injifachuun	-14085
▁jijjiiramuu	-14086
▁miidhameera	-14087
▁Otobusiidhaan	-14088
▁akeekkachiisa	-14089
ec	-14090
up	-14091
ለቡ	-14092
መክ	-14093
ሜት	-14094
ሳቅ	-14095
ሸዋ	-14096
ቀቱ	-14097
በዙ	-14098
ተቱ	-14099
ታች	-14100
ንጋ	-14101
ኝን	-14102
ከስ	-14103
ኩር	-14104
ዊን	-14105
ዜጣ	-14106
ዩኝ	-14107
ዲራ	-14108
ግም	-14109
ጓሚ	-14110
ፕሎ	-14111
Akk	-14112
ath	-14113
bbo	-14114
iik	-14115
jin	-14116
ood	-14117
sti	-14118
ula	-14119
und	-14120
ለበት	-14121
ለወጠ	-14122
መለሳ	-14123
ሚያው	-14124
ማሉ።	-14125
ራለህ	-14126
ራቱን	-14127
ርሽር	-14128
ሸነፈ	-14129
ቃሉ።	-14130
በርክ	-14131
ብራራ	-14132
ችሁት	-14133
ከፈት	-14134
ካክል	-14135
ወቀ።	-14136
ዞችን	-14137
ገኛት	-14138
▁US	-14139
▁ለኮ	-14140
▁ሳመ	-14141
▁ሹካ	-14142
▁በኔ	-14143
▁በዜ	-14144
▁ባታ	-14145
▁ብም	-14146
▁ብስ	-14147
▁ተረ	-14148
▁ታላ	-14149
▁ከሶ	-14150
▁ካፒ	-14151
▁ክስ	-14152
▁ዘይ	-14153
▁የኦ	-14154
▁ይዛ	-14155
kira	-14156
mmal	-14157
qqis	-14158
sine	-14159
መልከቻ	-14160
ሰበረው	-14161
ሳይንስ	-14162
ስብበት	-14163
ስቸገር	-14164
ቀዘቅዝ	-14165
ባቸውን	-14166
ቻላችሁ	-14167
ናገሩት	-14168
ወደውን	-14169
ዝናናት	-14170
ያለን።	-14171
ጦርነት	-14172
ጨነቅ።	-14173
ፍትሃዊ	-14174
▁Gol	-14175
▁Why	-14176
▁mot	-14177
▁sas	-14178
▁say	-14179
▁ህልሜ	-14180
▁ለበጎ	-14181
▁ልሂድ	-14182
▁መሆኑ	-14183
▁መለያ	-14184
▁መራራ	-14185
▁ምስክ	-14186
▁ሞቱ።	-14187
▁ሞትን	-14188
▁ሰበረ	-14189
▁ሲሆን	-14190
▁ስራህ	-14191
▁ሸረሪ	-14192
▁ሽንኩ	-14193
▁ቅርፅ	-14194
▁ቅጣት	-14195
▁በጋራ	-14196
▁ቡችላ	-14197
▁ባህል	-14198
▁ተመት	-14199
▁ተሰም	-14200
▁ትለብ	-14201
▁አሁኑ	-14202
▁አባዬ	-14203
▁አጥር	-14204
▁እሰጣ	-14205
▁እተወ	-14206
▁እየገ	-14207
▁እገኛ	-14208
▁እጓዛ	-14209
▁ከልክ	-14210
▁ከነሱ	-14211
▁ከውሃ	-14212
▁ከፈተ	-14213
▁ወጡ።	-14214
▁ዘረጋ	-14215
▁የሚቀ	-14216
▁የበሬ	-14217
▁የዋጋ	-14218
▁የዱር	-14219
▁ይዘን	-14220
▁ዳንስ	-14221
▁ድንች	-14222
▁ገጥሞ	-14223
▁ጋብቻ	-14224
▁ጎደል	-14225
▁ጠብቅ	-14226
▁ጥገኛ	-14227
▁ፃፍ።	-14228
doota	-14229
iruun	-14230
ratti	-14231
መስልም።	-14232
ስተምረኝ	-14233
ሽከርከር	-14234
▁Adab	-14235
▁Baal	-14236
▁Deeb	-14237
▁Faal	-14238
▁Qaam	-14239
▁boca	-14240
▁kami	-14241
▁kufa	-14242
▁oofu	-14243
▁qeeq	-14244
▁rama	-14245
▁ለአስር	-14246
▁ሊኖረን	-14247
▁ምርጡን	-14248
▁ምክሬን	-14249
▁በሚገኝ	-14250
▁በትርፍ	-14251
▁በችኮላ	-14252
▁በኣመት	-14253
▁በከባድ	-14254
▁በፈተና	-14255
▁ባንዲራ	-14256
▁ተዝናና	-14257
▁አርፍጄ	-14258
▁አብራው	-14259
▁አይከፋ	-14260
▁አዳራሽ	-14261
▁አጥብቄ	-14262
▁ከመድረ	-14263
▁ከሰላሳ	-14264
▁ከተሞች	-14265
▁ከዚያም	-14266
▁ካልሆነ	-14267
▁ውሃውን	-14268
▁የሙዚቃ	-14269
▁የራሴን	-14270
▁የተማር	-14271
▁የታወቀ	-14272
▁የአለም	-14273
▁የጠየቀ	-14274
▁ያማል።	-14275
▁ግማሹን	-14276
▁ጥልቀት	-14277
▁ፀጉሯን	-14278
▁ፓውንድ	-14279
ooliin	-14280
▁Chick	-14281
▁Garba	-14282
▁Iskii	-14283
▁Raash	-14284
▁baasi	-14285
▁cidha	-14286
▁daran	-14287
▁gahee	-14288
▁sofaa	-14289
▁turtu	-14290
▁veget	-14291
▁xuuxe	-14292
▁xuuxu	-14293
▁ለመራመድ	-14294
▁ለመቆጠብ	-14295
▁ለመጠገን	-14296
▁ለማሸነፍ	-14297
▁መቆለፊያ	-14298
▁ርቦኛል።	-14299
▁በመስኮት	-14300
▁በማንበብ	-14301
▁በማግኘቴ	-14302
▁በበረዶው	-14303
▁ነበሩት።	-14304
▁አሻንጉሊ	-14305
▁አበቦችን	-14306
▁አትበል።	-14307
▁አውቶብስ	-14308
▁አዛውንቱ	-14309
▁አደጋዎች	-14310
▁እንዳሰበ	-14311
▁እንድቆይ	-14312
▁እያነበበ	-14313
▁እድለኞች	-14314
▁ከወላጆቼ	-14315
▁ወሰደኝ።	-14316
▁ወስደዋል	-14317
▁የቀረውን	-14318
▁ያንብቡ።	-14319
▁ይቀጥሉ።	-14320
▁ደንበኞች	-14321
ataadha	-14322
ateeraa	-14323
eessiti	-14324
ibsiise	-14325
qaaquun	-14326
▁Deemsa	-14327
▁Giddug	-14328
▁Hidhii	-14329
▁Liqiin	-14330
▁Mindaa	-14331
▁Mobaay	-14332
▁Soofaa	-14333
▁Tuutni	-14334
▁Xumura	-14335
▁araada	-14336
▁baasne	-14337
▁barruu	-14338
▁bubbee	-14339
▁dhufin	-14340
▁dirree	-14341
▁duubaa	-14342
▁fiigde	-14343
▁kuusaa	-14344
▁mijata	-14345
▁mootii	-14346
▁narvii	-14347
▁qeensa	-14348
▁sanyii	-14349
▁soofaa	-14350
▁teesse	-14351
▁uumama	-14352
▁yaadan	-14353
▁ምክንያቱን	-14354
▁ምክንያቶች	-14355
▁በዩናይትድ	-14356
▁ተገኝቷል።	-14357
▁ትጫወታለህ	-14358
▁ነበርኩኝ።	-14359
▁አላስፈለገ	-14360
▁አላገኘም።	-14361
▁አልጠጣም።	-14362
▁አየዋለሁ።	-14363
▁እንስሳትን	-14364
▁እንቀመጥ።	-14365
▁እንዲያቆም	-14366
▁እንዲደረግ	-14367
▁እየጠበቅን	-14368
▁የምንበላው	-14369
▁የደህንነት	-14370
▁ያልተጠበቀ	-14371
▁ይጠይቃል።	-14372
aastikii	-14373
alaammal	-14374
▁Bubbeen	-14375
▁Kanaafi	-14376
▁Keekiin	-14377
▁argamtu	-14378
▁baasisa	-14379
▁beekamu	-14380
▁bitadhu	-14381
▁burjaaj	-14382
▁daakuun	-14383
▁dabarse	-14384
▁dafanii	-14385
▁dhiifne	-14386
▁dhoqqee	-14387
▁digdama	-14388
▁eegamne	-14389
▁guddate	-14390
▁gurgura	-14391
▁hanqina	-14392
▁ilaalin	-14393
▁kaastee	-14394
▁kenneef	-14395
▁maatiin	-14396
▁manatti	-14397
▁meetroo	-14398
▁obbolaa	-14399
▁ofittoo	-14400
▁sabbata	-14401
▁tasgabb	-14402
▁walqixa	-14403
▁xiyyaar	-14404
▁yaalluu	-14405
▁ተሳስቻለሁ።	-14406
▁ተናድጃለሁ።	-14407
▁አልራበኝም።	-14408
▁አደርገዋለሁ	-14409
▁አድርጎታል።	-14410
▁አድርጎኛል።	-14411
▁እረዳሃለሁ።	-14412
▁እንነጋገር።	-14413
▁እንደማይሆን	-14414
▁እየተመለከት	-14415
▁ከመጀመሪያው	-14416
▁Cirracha	-14417
▁Gabaasni	-14418
▁Sigaaraa	-14419
▁Taphichi	-14420
▁afurtama	-14421
▁anniisaa	-14422
▁artistii	-14423
▁dadhabaa	-14424
▁dhalatte	-14425
▁dhiirota	-14426
▁falfalaa	-14427
▁fiigicha	-14428
▁haasofna	-14429
▁harkisee	-14430
▁hojjetaa	-14431
▁jabaadha	-14432
▁jabaatta	-14433
▁jiraatta	-14434
▁namootaa	-14435
▁qaanessa	-14436
▁qabaattu	-14437
▁saroonni	-14438
▁xumurree	-14439
▁yerootti	-14440
▁Baaburaan	-14441
▁Barnoonni	-14442
▁allaattii	-14443
▁bilbiltee	-14444
▁dadhabeen	-14445
▁lammiilee	-14446
▁maallaqni	-14447
▁qabaadhaa	-14448
▁qusachuuf	-14449
▁tokkootti	-14450
▁Barreessaa	-14451
▁Barreessuu	-14452
▁dhaabbataa	-14453
▁dhorkaadha	-14454
▁fudhateera	-14455
▁hatattamaa	-14456
▁qabaachuuf	-14457
▁Ayskiriimii	-14458
▁Harkifachuu	-14459
▁argamaniiru	-14460
▁dandeenyeef	-14461
▁tilmaameera	-14462
▁qulqulleesse	-14463
▁xumuramuutti	-14464
▁dhaggeeffattu	-14465
▁Konkolaattonni	-14466
ሁፍ	-14467
ልፉ	-14468
ረቱ	-14469
ሻሽ	-14470
ቃቃ	-14471
ቡላ	-14472
ቡሩ	-14473
ቲቱ	-14474
ታሪ	-14475
ታጠ	-14476
ቻሌ	-14477
ንዴ	-14478
ክሮ	-14479
ክቴ	-14480
ዣው	-14481
ግቡ	-14482
ጥን	-14483
ፕል	-14484
ale	-14485
ert	-14486
iff	-14487
uur	-14488
uxx	-14489
xuu	-14490
ሄድኩ	-14491
ለማመ	-14492
ለቀ።	-14493
ሚቴው	-14494
ማለሁ	-14495
ምበር	-14496
ራደር	-14497
ሬዲዮ	-14498
ስማሙ	-14499
ስጥር	-14500
ቃጠል	-14501
ታታይ	-14502
ቻለው	-14503
ችግሩ	-14504
ነግሩ	-14505
ከመህ	-14506
ካቸው	-14507
ክብት	-14508
ደች።	-14509
ዳቸው	-14510
ገረም	-14511
ገኛል	-14512
ግብር	-14513
ጠጣው	-14514
ጠፋው	-14515
ፅህና	-14516
ፈራም	-14517
ፈሰ።	-14518
▁Lo	-14519
▁No	-14520
▁pl	-14521
▁ሊፈ	-14522
▁ላብ	-14523
▁ሻም	-14524
▁ባሉ	-14525
▁ተዛ	-14526
▁ተጓ	-14527
▁ታን	-14528
▁ንቅ	-14529
▁ከዳ	-14530
▁ከጉ	-14531
▁ከጨ	-14532
▁ወሳ	-14533
▁የኑ	-14534
▁የጨ	-14535
▁የፋ	-14536
▁ያቆ	-14537
▁ያበ	-14538
▁ያው	-14539
▁ጅም	-14540
▁ጎህ	-14541
▁ጠጅ	-14542
abii	-14543
atch	-14544
daaf	-14545
duun	-14546
ends	-14547
iira	-14548
isin	-14549
ooji	-14550
uuph	-14551
መጋገብ	-14552
ምፒተር	-14553
ረጋግጥ	-14554
ቡላንስ	-14555
ብንም።	-14556
ነጋግር	-14557
ንዳንድ	-14558
እርግጥ	-14559
ከርከር	-14560
ኩለት።	-14561
ወቀም።	-14562
ዋለህ።	-14563
ደብዳቤ	-14564
▁Din	-14565
▁Kam	-14566
▁Kee	-14567
▁gir	-14568
▁ice	-14569
▁naq	-14570
▁ope	-14571
▁sto	-14572
▁ህጋዊ	-14573
▁ለመዝ	-14574
▁ለመገ	-14575
▁ልጠጣ	-14576
▁መርሃ	-14577
▁መውጫ	-14578
▁ሪከር	-14579
▁ሰጥቻ	-14580
▁ሳቁ።	-14581
▁ስለራ	-14582
▁ስለታ	-14583
▁ስለኔ	-14584
▁ስሟን	-14585
▁ሶስቱ	-14586
▁ቀለበ	-14587
▁ቀዳዳ	-14588
▁በፈቃ	-14589
▁ቡድኑ	-14590
▁ተልእ	-14591
▁ተገኘ	-14592
▁ተፈጠ	-14593
▁ትችል	-14594
▁ነጋዴ	-14595
▁አመል	-14596
▁አየሁ	-14597
▁አያት	-14598
▁ከሞተ	-14599
▁ከሰማ	-14600
▁ከታች	-14601
▁ካጋጠ	-14602
▁ወለል	-14603
▁ወዲህ	-14604
▁ወድቆ	-14605
▁ዜጎች	-14606
▁የሉት	-14607
▁የመግ	-14608
▁የስነ	-14609
▁የድን	-14610
▁የጊዜ	-14611
▁የፖም	-14612
▁ያደገ	-14613
▁ይላሉ	-14614
▁ይመል	-14615
▁ይቆጥ	-14616
▁ይከፈ	-14617
▁ይጠብ	-14618
▁ድጋፍ	-14619
▁ጀመረ	-14620
▁ገበሬ	-14621
▁ገዳይ	-14622
▁ጉዞው	-14623
▁ጊዜዬ	-14624
▁ጠንቅ	-14625
aarii	-14626
ameen	-14627
arana	-14628
arian	-14629
rench	-14630
shirt	-14631
thing	-14632
መሰግንህ	-14633
ሜያለሁ።	-14634
ጭበርበር	-14635
▁Guyy	-14636
▁Minj	-14637
▁Unka	-14638
▁York	-14639
▁gung	-14640
▁hora	-14641
▁qoos	-14642
▁tolf	-14643
▁torb	-14644
▁xuxx	-14645
▁ሁላችን	-14646
▁ሃይማኖ	-14647
▁ሆኗል።	-14648
▁መጥፎው	-14649
▁ሙዚቀኛ	-14650
▁ሙዚየሙ	-14651
▁ማህተም	-14652
▁ሲደርስ	-14653
▁ቁጥሮች	-14654
▁በምግብ	-14655
▁በሰባት	-14656
▁በስራው	-14657
▁በደህና	-14658
▁ብሎኛል	-14659
▁ተረጋግ	-14660
▁ተቃዋሚ	-14661
▁ተነገረ	-14662
▁ተከራይ	-14663
▁ተክሎች	-14664
▁ተጠየቅ	-14665
▁ትርኢት	-14666
▁ቻልኩ።	-14667
▁አሁኑኑ	-14668
▁አልረካ	-14669
▁አልኮል	-14670
▁አሏቸው	-14671
▁አስበህ	-14672
▁አስኪያ	-14673
▁አቀረበ	-14674
▁አበላሽ	-14675
▁አብሬህ	-14676
▁አብሬው	-14677
▁አብሳይ	-14678
▁አየን።	-14679
▁አገልግ	-14680
▁አግኝቼ	-14681
▁አጥንት	-14682
▁እስኪያ	-14683
▁እስካል	-14684
▁እናቷን	-14685
▁እውቀት	-14686
▁እየጠበ	-14687
▁እየጮሀ	-14688
▁እያገኘ	-14689
▁እግሩን	-14690
▁ከሆንክ	-14691
▁ከመሆኑ	-14692
▁ከሚያስ	-14693
▁ከብዶኝ	-14694
▁ከአስራ	-14695
▁ከክፍል	-14696
▁ከውስጥ	-14697
▁ከጃፓን	-14698
▁ወላጆቹ	-14699
▁ወሰንኩ	-14700
▁የተሻሉ	-14701
▁የተጋባ	-14702
▁የእኛን	-14703
▁የኮሌጅ	-14704
▁የደከመ	-14705
▁የገናን	-14706
▁የፈለገ	-14707
▁ያሳስበ	-14708
▁ያሳውቁ	-14709
▁ይመገባ	-14710
▁ይሸጣሉ	-14711
▁ይናፍቀ	-14712
▁ይጨነቃ	-14713
▁ደረሱ።	-14714
▁ደበደበ	-14715
▁ዳርቻው	-14716
▁ድምፁን	-14717
▁ጃፓናዊ	-14718
▁ጊዜዎን	-14719
▁ግልቢያ	-14720
▁ግጥሙን	-14721
▁ፈጠረ።	-14722
bichaa	-14723
oofees	-14724
መሰግናችሁ	-14725
▁Aadaa	-14726
▁Dhiph	-14727
▁Duuba	-14728
▁Kottu	-14729
▁baasa	-14730
▁basaa	-14731
▁cuuph	-14732
▁galtu	-14733
▁jiidh	-14734
▁kaasa	-14735
▁naive	-14736
▁nurra	-14737
▁reeff	-14738
▁shall	-14739
▁taata	-14740
▁ለመሞከር	-14741
▁ለመወሰን	-14742
▁ለመደበቅ	-14743
▁ልጆቻችሁ	-14744
▁መተንፈስ	-14745
▁መዝናናት	-14746
▁መጨቃጨቅ	-14747
▁ሞተዋል።	-14748
▁በሚስጥር	-14749
▁በማስታወ	-14750
▁በማብሰል	-14751
▁በተጨማሪ	-14752
▁በክረምት	-14753
▁በየጊዜው	-14754
▁	-14755
a	-14756
i	-14757
e	-14758
n	-14759
u	-14760
o	-14761
t	-14762
r	-14763
d	-14764
h	-14765
k	-14766
s	-14767
.	-14768
ን	-14769
b	-14770
m	-14771
።	-14772
l	-14773
ም	-14774
ለ	-14775
ት	-14776
ው	-14777
አ	-14778
g	-14779
ል	-14780
f	-14781
እ	-14782
በ	-14783
ነ	-14784
y	-14785
ር	-14786
ስ	-14787
j	-14788
መ	-14789
ይ	-14790
q	-14791
የ	-14792
ደ	-14793
?	-14794
'	-14795
ህ	-14796
c	-14797
ያ	-14798
ተ	-14799
ሁ	-14800
ች	-14801
ብ	-14802
ላ	-14803
ማ	-14804
ድ	-14805
ገ	-14806
ረ	-14807
ግ	-14808
w	-14809
ና	-14810
ወ	-14811
ሰ	-14812
ከ	-14813
ጥ	-14814
ቶ	-14815
ታ	-14816
T	-14817
ፈ	-14818
ራ	-14819
ኝ	-14820
A	-14821
ጠ	-14822
ቀ	-14823
ባ	-14824
ጣ	-14825
ክ	-14826
ዳ	-14827
ጋ	-14828
ቅ	-14829
ሳ	-14830
ኛ	-14831
ሉ	-14832
M	-14833
K	-14834
ፍ	-14835
ዎ	-14836
S	-14837
H	-14838
ሆ	-14839
p	-14840
ዚ	-14841
D	-14842
ሚ	-14843
B	-14844
I	-14845
ቃ	-14846
W	-14847
ኩ	-14848
ዋ	-14849
Y	-14850
ሩ	-14851
ጊ	-14852
ዜ	-14853
ካ	-14854
x	-14855
G	-14856
ቤ	-14857
ቱ	-14858
ቻ	-14859
ዝ	-14860
N	-14861
ዘ	-14862
ኔ	-14863
ዛ	-14864
ሪ	-14865
ሱ	-14866
ቸ	-14867
ሽ	-14868
ሞ	-14869
ሄ	-14870
ሮ	-14871
ቆ	-14872
ዙ	-14873
,	-14874
ሊ	-14875
ጉ	-14876
ጨ	-14877
ሃ	-14878
ሻ	-14879
ዬ	-14880
ፋ	-14881
ሬ	-14882
ዲ	-14883
ቴ	-14884
ሀ	-14885
ቁ	-14886
ቡ	-14887
F	-14888
ኖ	-14889
ሌ	-14890
ፅ	-14891
ኣ	-14892
ቦ	-14893
O	-14894
ሙ	-14895
ፊ	-14896
ኑ	-14897
ጅ	-14898
ʼ	-14899
ጀ	-14900
ቢ	-14901
ጫ	-14902
ጭ	-14903
ሎ	-14904
ጎ	-14905
ዴ	-14906
J	-14907
ኮ	-14908
ቂ	-14909
"	-14910
ሜ	-14911
ኘ	-14912
ኪ	-14913
Q	-14914
ዱ	-14915
ዶ	-14916
ጆ	-14917
ቷ	-14918
ቼ	-14919
ጓ	-14920
ቹ	-14921
ሸ	-14922
ኋ	-14923
R	-14924
ሶ	-14925
ጃ	-14926
ሲ	-14927
!	-14928
፣	-14929
z	-14930
ሴ	-14931
0	-14932
L	-14933
ፎ	-14934
ቋ	-14935
ፃ	-14936
ጡ	-14937
E	-14938
ኞ	-14939
ፀ	-14940
ቲ	-14941
ፓ	-14942
ሷ	-14943
ዩ	-14944
v	-14945
C	-14946
ዊ	-14947
ፖ	-14948
ቄ	-14949
ኳ	-14950
P	-14951
ፉ	-14952
ፕ	-14953
X	-14954
1	-14955
ጦ	-14956
U	-14957
ኬ	-14958
ፒ	-14959
ኒ	-14960
ጌ	-14961
ዮ	-14962
ፁ	-14963
ጄ	-14964
ጁ	-14965
ሯ	-14966
ዞ	-14967
3	-14968
ሂ	-14969
2	-14970
ሏ	-14971
ሹ	-14972
ኙ	-14973
ጤ	-14974
ቪ	-14975
-	-14976
ጂ	-14977
V	-14978
ፌ	-14979
ጮ	-14980
ጴ	-14981
ኢ	-14982
ቧ	-14983
9	-14984
ዣ	-14985
ዥ	-14986
ሾ	-14987
ኤ	-14988
ሟ	-14989
5	-14990
ቺ	-14991
ፏ	-14992
ኗ	-14993
ኦ	-14994
ዷ	-14995
