<pad>	0
<unk>	0
<s>	0
</s>	0
aa	-0
ee	-1
an	-2
oo	-3
ii	-4
uu	-5
▁d	-6
▁h	-7
▁k	-8
ar	-9
▁b	-10
ti	-11
kk	-12
in	-13
am	-14
▁t	-15
▁g	-16
aan	-17
ir	-18
at	-19
▁n	-20
▁j	-21
al	-22
dh	-23
ab	-24
▁q	-25
is	-26
▁hin	-27
▁a	-28
ch	-29
▁s	-30
▁m	-31
ur	-32
▁dh	-33
ees	-34
da	-35
eess	-36
aal	-37
▁qab	-38
▁T	-39
un	-40
tti	-41
een	-42
oom	-43
▁akk	-44
▁A	-45
ana	-46
▁jir	-47
▁Toom	-48
▁w	-49
▁bar	-50
▁f	-51
▁is	-52
ra	-53
ni	-54
aat	-55
atti	-56
chuu	-57
▁akka	-58
▁tur	-59
▁M	-60
▁y	-61
baa	-62
iin	-63
▁K	-64
▁to	-65
um	-66
yy	-67
il	-68
dha	-69
▁dan	-70
er	-71
▁S	-72
▁ta	-73
aar	-74
▁keess	-75
▁H	-76
▁koo	-77
▁barbaa	-78
aaf	-79
▁tokk	-80
dd	-81
ama	-82
itti	-83
eroo	-84
▁ture	-85
▁D	-86
▁B	-87
irr	-88
arg	-89
▁tokko	-90
ag	-91
▁W	-92
bb	-93
▁I	-94
ta	-95
▁baa	-96
ma	-97
▁Y	-98
eek	-99
▁dee	-100
akk	-101
▁ho	-102
iif	-103
▁je	-104
▁beek	-105
jj	-106
▁go	-107
▁qaba	-108
uun	-109
▁danda	-110
▁G	-111
sa	-112
▁c	-113
oon	-114
eeny	-115
taa	-116
▁arg	-117
te	-118
▁isaa	-119
▁nan	-120
▁kana	-121
eera	-122
▁irr	-123
▁N	-124
ne	-125
tu	-126
uf	-127
▁jira	-128
▁wal	-129
▁yaa	-130
uuf	-131
maa	-132
of	-133
saa	-134
▁hun	-135
ol	-136
▁Yeroo	-137
▁waan	-138
▁du	-139
la	-140
▁natti	-141
▁ni	-142
▁baay	-143
achuu	-144
▁gar	-145
tii	-146
▁kan	-147
▁na	-148
or	-149
ph	-150
im	-151
▁jedh	-152
▁kun	-153
eer	-154
jje	-155
▁dand	-156
on	-157
▁kee	-158
adh	-159
▁gu	-160
ll	-161
▁hojje	-162
▁Dh	-163
ug	-164
iis	-165
▁deem	-166
ff	-167
▁fakk	-168
▁mi	-169
▁yeroo	-170
aata	-171
ann	-172
▁Akk	-173
▁l	-174
▁maal	-175
▁irratti	-176
tee	-177
iq	-178
▁am	-179
▁keessa	-180
▁sana	-181
▁dubb	-182
▁jiru	-183
daa	-184
▁F	-185
▁Waan	-186
▁x	-187
ala	-188
yaa	-189
di	-190
▁gaar	-191
en	-192
▁qabu	-193
▁akkas	-194
ww	-195
raa	-196
▁si	-197
▁jaal	-198
eessa	-199
▁itti	-200
na	-201
ata	-202
all	-203
▁O	-204
anaa	-205
ddaa	-206
▁Maal	-207
▁i	-208
▁Ani	-209
▁gaarii	-210
▁barbaada	-211
uma	-212
▁gochuu	-213
oota	-214
▁nama	-215
chis	-216
aalaa	-217
hee	-218
▁dhag	-219
▁hunda	-220
▁dha	-221
eenya	-222
▁qof	-223
du	-224
▁il	-225
▁Nam	-226
chaa	-227
yyee	-228
▁haa	-229
ate	-230
▁dhuf	-231
ad	-232
og	-233
▁J	-234
▁yaada	-235
ga	-236
▁Am	-237
▁In	-238
▁Is	-239
▁boo	-240
amma	-241
▁fi	-242
tuu	-243
▁ishee	-244
oonni	-245
▁gara	-246
ba	-247
▁jedheen	-248
▁Q	-249
▁ken	-250
▁waliin	-251
▁ga	-252
yyaa	-253
▁beeku	-254
anii	-255
▁miti	-256
▁isa	-257
▁barbaachis	-258
jii	-259
▁r	-260
aataa	-261
▁mana	-262
▁naaf	-263
▁ee	-264
ame	-265
▁akkan	-266
alaa	-267
▁deeb	-268
amaa	-269
▁sun	-270
▁Kun	-271
▁gal	-272
▁keessatti	-273
aatii	-274
alee	-275
▁ha	-276
▁Sun	-277
▁gaaf	-278
▁dur	-279
▁dhug	-280
▁bi	-281
▁irraa	-282
▁keessan	-283
▁Akka	-284
atu	-285
▁him	-286
▁Kana	-287
▁qofa	-288
qa	-289
aas	-290
▁dhaga	-291
▁eeg	-292
▁o	-293
▁fu	-294
dhu	-295
if	-296
▁dandeess	-297
ub	-298
kol	-299
ul	-300
▁booda	-301
faan	-302
▁guddaa	-303
ark	-304
▁fakkaata	-305
re	-306
iqq	-307
▁baayyee	-308
ars	-309
▁dhi	-310
▁as	-311
▁of	-312
▁ra	-313
onkol	-314
▁Ho	-315
▁mur	-316
▁Mee	-317
▁ilaal	-318
argaar	-319
▁keessaa	-320
ummaa	-321
▁R	-322
▁beeka	-323
duu	-324
umaa	-325
▁bil	-326
llee	-327
aadha	-328
oph	-329
▁keenya	-330
▁caalaa	-331
chi	-332
itaa	-333
de	-334
irra	-335
ri	-336
▁ba	-337
ool	-338
▁Dhug	-339
▁so	-340
▁L	-341
cha	-342
anti	-343
ara	-344
si	-345
▁bir	-346
▁gamma	-347
▁ab	-348
▁jaall	-349
nu	-350
▁fakkaat	-351
gaa	-352
kan	-353
▁jiraa	-354
▁isaan	-355
aay	-356
▁Namni	-357
▁ny	-358
▁nu	-359
▁nam	-360
▁dar	-361
dda	-362
qab	-363
▁qabna	-364
tiin	-365
▁ku	-366
▁qabda	-367
alqab	-368
▁sa	-369
iyy	-370
▁xiqq	-371
▁Meer	-372
▁ka	-373
▁E	-374
▁dab	-375
bil	-376
▁guu	-377
tan	-378
▁Amma	-379
amu	-380
▁ji	-381
▁an	-382
▁irra	-383
▁Meerii	-384
soo	-385
▁in	-386
▁deebi	-387
ayy	-388
▁gargaar	-389
▁isin	-390
eeff	-391
iyaa	-392
eef	-393
▁dhiis	-394
aala	-395
▁jalqab	-396
yyaan	-397
ataa	-398
▁dandeeny	-399
▁waa	-400
dduu	-401
▁Far	-402
▁sirr	-403
▁barbaadu	-404
▁Maaliif	-405
annoo	-406
▁aman	-407
ukk	-408
qaa	-409
▁akkam	-410
akka	-411
▁taph	-412
dhe	-413
▁jaalla	-414
anga	-415
▁siif	-416
▁ma	-417
ansaa	-418
▁Ati	-419
▁C	-420
heen	-421
ansaay	-422
▁manaa	-423
▁Faransaay	-424
▁Har	-425
▁dhaa	-426
▁darb	-427
uff	-428
▁mii	-429
sii	-430
dii	-431
oof	-432
umur	-433
▁turre	-434
onkolaataa	-435
▁ani	-436
▁hundi	-437
▁Gu	-438
atte	-439
araa	-440
aaraa	-441
▁nyaa	-442
▁ati	-443
uk	-444
joo	-445
▁aj	-446
▁Toomii	-447
▁ti	-448
dhaa	-449
allee	-450
▁rakk	-451
ogg	-452
▁p	-453
▁sad	-454
▁bilbil	-455
▁barbaachisa	-456
ubb	-457
anne	-458
amuu	-459
▁isaanii	-460
▁garuu	-461
▁hund	-462
▁hark	-463
▁Waa	-464
mii	-465
▁Wanti	-466
af	-467
naa	-468
chuun	-469
▁sh	-470
▁dhab	-471
▁Afaan	-472
iir	-473
dhaan	-474
▁turte	-475
arr	-476
▁qor	-477
▁sitti	-478
▁Hun	-479
ill	-480
nis	-481
baan	-482
▁mee	-483
▁Dhuguma	-484
alkan	-485
▁barr	-486
aree	-487
▁dheer	-488
▁fudha	-489
ogogg	-490
▁jet	-491
▁fudh	-492
▁biraa	-493
▁mir	-494
fii	-495
▁hojii	-496
▁P	-497
▁tola	-498
▁ol	-499
▁Hojii	-500
▁Faransaayii	-501
att	-502
▁dandeessu	-503
arraa	-504
▁Inni	-505
amaan	-506
▁Isheen	-507
▁sirrii	-508
eet	-509
kaa	-510
▁deema	-511
om	-512
▁dura	-513
ru	-514
oob	-515
▁Sana	-516
▁wa	-517
▁X	-518
chuuf	-519
▁Maar	-520
adhu	-521
▁yoo	-522
▁san	-523
iyaam	-524
iy	-525
ina	-526
amm	-527
▁Kitaa	-528
▁Maariyaam	-529
bbol	-530
▁ajaa	-531
ish	-532
▁kaa	-533
inaa	-534
adhe	-535
oor	-536
▁fakkaatu	-537
suu	-538
adha	-539
▁malee	-540
ora	-541
▁yaal	-542
▁hir	-543
mallee	-544
es	-545
▁uff	-546
▁Akkam	-547
▁eeny	-548
kii	-549
▁he	-550
alph	-551
▁mu	-552
aasa	-553
achaa	-554
▁xumur	-555
▁Yeroon	-556
yyaana	-557
▁qabaa	-558
▁As	-559
▁ib	-560
pp	-561
ophaa	-562
eessi	-563
▁tokkollee	-564
▁seen	-565
▁U	-566
▁gah	-567
▁mitii	-568
▁qabdu	-569
▁kanaa	-570
▁hi	-571
▁Kan	-572
▁Guyyaa	-573
umsaa	-574
laqa	-575
aatiin	-576
jiin	-577
▁kenn	-578
eessuu	-579
isa	-580
arra	-581
▁Akkas	-582
▁Isaan	-583
achuuf	-584
▁jirra	-585
▁barbaadd	-586
anni	-587
attu	-588
▁afaan	-589
fa	-590
achuun	-591
▁salph	-592
iisa	-593
▁bita	-594
▁bu	-595
▁guyyaa	-596
▁fayy	-597
aniiru	-598
▁amma	-599
amee	-600
▁waanan	-601
▁dandeenye	-602
▁bo	-603
▁sadii	-604
▁wajj	-605
▁wajjin	-606
st	-607
▁gur	-608
ok	-609
ishaan	-610
aggaa	-611
▁Halkan	-612
▁dubbis	-613
ib	-614
▁Wal	-615
▁daa	-616
▁dandeessaa	-617
▁xiqqoo	-618
▁Yaa	-619
▁eessa	-620
aam	-621
▁Ku	-622
▁hojjet	-623
aleessa	-624
▁barumsaa	-625
▁jirta	-626
▁haaraa	-627
aate	-628
icha	-629
▁Yoo	-630
▁hub	-631
iifama	-632
eessaa	-633
ull	-634
▁Nama	-635
eesse	-636
siis	-637
attee	-638
▁guutuu	-639
▁Bor	-640
▁kam	-641
jjiir	-642
ban	-643
▁dhii	-644
▁Sa	-645
▁Baa	-646
agg	-647
▁goo	-648
aba	-649
▁inni	-650
▁dhukk	-651
▁Si	-652
▁yaad	-653
▁konkolaataa	-654
aatti	-655
▁jaalladha	-656
▁Namoonni	-657
▁Mana	-658
▁lama	-659
▁gadi	-660
adhab	-661
▁dhagah	-662
▁haasa	-663
▁roob	-664
kumaa	-665
ttaa	-666
▁barbaan	-667
aane	-668
▁dogogg	-669
▁gudd	-670
▁haww	-671
▁hanga	-672
illeen	-673
aann	-674
▁Rakk	-675
▁kaff	-676
▁sir	-677
▁eenyu	-678
anama	-679
▁bal	-680
amb	-681
ja	-682
▁fayyad	-683
▁jedhee	-684
aq	-685
▁fe	-686
aatu	-687
yoo	-688
▁fuu	-689
▁maaliif	-690
▁Innis	-691
▁namni	-692
▁asitti	-693
▁osoo	-694
▁yeroon	-695
▁haf	-696
amne	-697
▁er	-698
isaa	-699
▁Ijoo	-700
se	-701
ine	-702
ilaa	-703
▁kenni	-704
atee	-705
▁Hundi	-706
diin	-707
▁cuf	-708
dheera	-709
▁dabars	-710
▁yaadd	-711
▁dadhab	-712
▁Akkamitti	-713
▁gon	-714
▁meeqa	-715
▁turan	-716
faa	-717
▁dheeraa	-718
malee	-719
▁bakka	-720
▁ci	-721
▁Hir	-722
▁gonkumaa	-723
▁barbaachisu	-724
wwan	-725
▁raa	-726
iig	-727
▁ammaa	-728
▁hamaa	-729
▁dhugaa	-730
▁jijjiir	-731
▁Een	-732
▁Eeny	-733
▁waggaa	-734
cc	-735
▁Osoo	-736
ota	-737
▁homaa	-738
▁jirti	-739
▁murt	-740
▁dag	-741
▁hojjechuu	-742
▁maali	-743
it	-744
iil	-745
agaa	-746
▁baree	-747
bba	-748
▁achi	-749
li	-750
ulq	-751
arii	-752
▁hedduu	-753
▁muraasa	-754
▁dabal	-755
▁Na	-756
bu	-757
▁adda	-758
ulqull	-759
▁ul	-760
eettii	-761
▁Sh	-762
▁kutaa	-763
ateera	-764
▁kaffal	-765
▁yaade	-766
bbaan	-767
nee	-768
▁tol	-769
arri	-770
▁Hanga	-771
▁guut	-772
▁taane	-773
▁Nu	-774
▁Boru	-775
▁ayyaana	-776
▁Qor	-777
adheera	-778
▁suu	-779
▁sanatti	-780
▁Dee	-781
▁akkamitti	-782
irri	-783
iyyuu	-784
sh	-785
▁kootti	-786
▁Bo	-787
▁Obbol	-788
aara	-789
atan	-790
maan	-791
▁duu	-792
▁gochuuf	-793
soon	-794
▁Jaa	-795
▁gochuun	-796
▁Bal	-797
▁darbe	-798
▁Kitaab	-799
▁Maallaqa	-800
▁Boo	-801
▁dhih	-802
chiis	-803
▁deemuu	-804
▁kooti	-805
▁mud	-806
annaa	-807
▁dubbachuu	-808
areen	-809
▁fil	-810
▁Gaaf	-811
▁barbaade	-812
dhii	-813
▁qulqull	-814
uuz	-815
▁kanaan	-816
▁taa	-817
▁kitaa	-818
▁tokkon	-819
▁wanti	-820
▁jechuu	-821
▁Manni	-822
▁tor	-823
▁godhu	-824
▁sodaa	-825
ichi	-826
▁deemuun	-827
aroo	-828
ston	-829
▁Bakka	-830
▁mas	-831
toota	-832
▁qabne	-833
gars	-834
▁ool	-835
▁liq	-836
▁daf	-837
aanaa	-838
▁dhuguma	-839
us	-840
▁Abbaan	-841
▁Gara	-842
▁dhufu	-843
see	-844
▁bishaan	-845
▁Kaleessa	-846
bur	-847
▁dhagahama	-848
▁add	-849
iik	-850
▁sanaa	-851
▁arguu	-852
▁harka	-853
▁qilleen	-854
▁barbaaddaa	-855
eetii	-856
aannoo	-857
isii	-858
▁mar	-859
atta	-860
▁akkasii	-861
▁dandeessa	-862
▁bah	-863
▁Silaa	-864
▁Konkolaataa	-865
▁deemu	-866
toonni	-867
▁Ab	-868
▁Ammas	-869
▁Ammallee	-870
uux	-871
yya	-872
tin	-873
tanii	-874
qon	-875
▁yoom	-876
▁fuf	-877
ppaan	-878
▁Asitti	-879
yyuu	-880
▁Dur	-881
ameera	-882
▁dhiisuu	-883
▁agars	-884
▁arge	-885
▁masq	-886
▁Isheenis	-887
lee	-888
▁dhufe	-889
agalee	-890
▁Jaappaan	-891
▁raf	-892
▁saree	-893
▁masqalaa	-894
▁hime	-895
ang	-896
atii	-897
taan	-898
▁kaas	-899
kanaa	-900
▁dhukkub	-901
▁goww	-902
▁ijoo	-903
▁aar	-904
▁ruk	-905
▁deeme	-906
▁fur	-907
▁mirkanaa	-908
▁Baay	-909
hii	-910
▁qa	-911
▁hojjechaa	-912
▁gaa	-913
▁hayy	-914
▁abdiin	-915
annu	-916
imma	-917
▁Hin	-918
▁e	-919
kaan	-920
▁hundumaa	-921
▁barbaanne	-922
dur	-923
eesh	-924
▁nyaata	-925
▁cab	-926
▁Ny	-927
anna	-928
ffaa	-929
▁al	-930
abaa	-931
le	-932
gil	-933
▁Mii	-934
▁beekuu	-935
▁ruku	-936
▁beektaa	-937
▁Suu	-938
▁dhal	-939
laa	-940
onni	-941
▁Ijooll	-942
▁ulf	-943
lmaa	-944
▁godh	-945
▁dhiyoo	-946
▁ar	-947
▁dhaq	-948
aataan	-949
▁tilmaa	-950
▁jaalladhu	-951
▁godhe	-952
▁raaww	-953
▁ilaalaa	-954
▁aan	-955
akkaa	-956
isuu	-957
▁nuuf	-958
▁Yaada	-959
▁jedhe	-960
▁ammallee	-961
aqii	-962
ootaa	-963
▁kol	-964
▁galat	-965
▁Bar	-966
▁Kutaa	-967
aqiiqaa	-968
▁jechuun	-969
▁Dhiifama	-970
bala	-971
▁jirtu	-972
▁qabdi	-973
▁jiraachuu	-974
▁balaa	-975
▁Jir	-976
▁mag	-977
▁qabnu	-978
▁caal	-979
▁eegg	-980
▁dhaab	-981
▁Konkol	-982
▁tokkotti	-983
▁fag	-984
▁sirriitti	-985
▁Gal	-986
▁qoo	-987
▁goon	-988
▁Haa	-989
▁ajj	-990
▁dii	-991
▁har	-992
▁moo	-993
▁Gargaar	-994
chiisa	-995
alli	-996
▁Ingil	-997
jif	-998
▁rif	-999
▁himuu	-1000
▁im	-1001
▁gurg	-1002
▁cimaa	-1003
▁Rakkoo	-1004
▁carraa	-1005
araan	-1006
▁kenne	-1007
gg	-1008
▁Ingili	-1009
xx	-1010
▁Tor	-1011
iqqoo	-1012
▁Kitaaba	-1013
▁cim	-1014
▁gahaa	-1015
▁lamaan	-1016
▁Ta	-1017
ibaa	-1018
umsa	-1019
▁mil	-1020
dhaaf	-1021
▁gaariitti	-1022
ophee	-1023
▁dhaabb	-1024
▁manaatti	-1025
▁kanaaf	-1026
▁la	-1027
▁akkamii	-1028
▁dogoggora	-1029
ikaa	-1030
▁jedhu	-1031
▁hojiin	-1032
geeff	-1033
▁dhaggeeff	-1034
▁eegaa	-1035
▁gatii	-1036
▁Torban	-1037
▁argachuu	-1038
▁obbol	-1039
▁dandeenyu	-1040
zii	-1041
akki	-1042
▁ban	-1043
adhaa	-1044
qonnaa	-1045
okt	-1046
▁godha	-1047
uba	-1048
aatee	-1049
▁Ijoolleen	-1050
▁kophaa	-1051
eensa	-1052
▁jirtaa	-1053
▁mirkan	-1054
▁gargaaruu	-1055
oomaa	-1056
▁Baayyee	-1057
▁garmalee	-1058
eessoo	-1059
unyaa	-1060
▁Nuti	-1061
▁hiik	-1062
▁salphaa	-1063
▁karaa	-1064
▁qofan	-1065
▁Mu	-1066
▁Ji	-1067
iyyaa	-1068
▁Sir	-1069
ambal	-1070
aroor	-1071
▁kennuu	-1072
tir	-1073
ayya	-1074
aman	-1075
uudha	-1076
inii	-1077
ummaatti	-1078
▁walii	-1079
▁naannoo	-1080
▁Il	-1081
▁Hark	-1082
iyyoota	-1083
▁gammad	-1084
▁ganama	-1085
▁barbaachisaa	-1086
▁dhiq	-1087
▁wayya	-1088
▁Gaaffii	-1089
eeraa	-1090
to	-1091
qis	-1092
▁Eenyu	-1093
▁Dhugaa	-1094
▁walitti	-1095
▁fedhii	-1096
▁Yoom	-1097
▁Int	-1098
▁barbaaddu	-1099
ald	-1100
▁beektu	-1101
▁nyaataa	-1102
▁kamiyyuu	-1103
▁nyaachuu	-1104
▁din	-1105
aalee	-1106
▁argi	-1107
▁xuux	-1108
uum	-1109
▁kuf	-1110
▁bira	-1111
▁hirri	-1112
▁ala	-1113
su	-1114
dhan	-1115
▁mul	-1116
▁fiig	-1117
▁bilch	-1118
aalli	-1119
▁Sareen	-1120
▁isiniif	-1121
ababa	-1122
▁Karaa	-1123
▁hojjen	-1124
▁diimaa	-1125
▁dabalataa	-1126
▁jaallatu	-1127
▁guddaadha	-1128
▁Of	-1129
▁haala	-1130
▁Dogogg	-1131
essa	-1132
uufata	-1133
▁injif	-1134
▁Xiqqoo	-1135
▁qabduu	-1136
▁af	-1137
agal	-1138
▁harkif	-1139
bii	-1140
isk	-1141
▁di	-1142
▁bee	-1143
isaan	-1144
▁fakkaate	-1145
urx	-1146
▁Ma	-1147
▁og	-1148
oddaa	-1149
urxum	-1150
▁dhum	-1151
▁jaallata	-1152
▁Er	-1153
▁ob	-1154
▁Gar	-1155
▁Saree	-1156
▁qabaachuu	-1157
▁qaa	-1158
▁barbaadde	-1159
ira	-1160
▁dafee	-1161
▁Nyaata	-1162
▁gaafate	-1163
▁durii	-1164
▁guddaan	-1165
▁hojjetu	-1166
arq	-1167
▁muraas	-1168
▁ijoollee	-1169
eerra	-1170
▁saff	-1171
▁Ayyaana	-1172
caan	-1173
▁isaaf	-1174
▁Osoon	-1175
ammuu	-1176
▁daaww	-1177
▁gurgur	-1178
eenyaa	-1179
una	-1180
▁tas	-1181
uuziq	-1182
▁tokkoon	-1183
▁dhiifama	-1184
oot	-1185
▁gor	-1186
▁Anis	-1187
▁soch	-1188
▁abbaa	-1189
ik	-1190
▁Duraan	-1191
▁maaltu	-1192
baata	-1193
▁jaallat	-1194
▁Aw	-1195
tiif	-1196
iisaa	-1197
▁fudhachuu	-1198
▁bara	-1199
▁oolu	-1200
▁nyaat	-1201
ambalii	-1202
▁maallaqa	-1203
▁gi	-1204
▁dhufuu	-1205
▁Uff	-1206
▁yaalaa	-1207
▁ammaatti	-1208
▁ciis	-1209
▁jibba	-1210
▁barbaadda	-1211
▁ij	-1212
▁qoph	-1213
argagg	-1214
▁Ameer	-1215
▁dhiyootti	-1216
▁u	-1217
illee	-1218
oonii	-1219
▁hor	-1220
▁roobni	-1221
▁yaaddu	-1222
maata	-1223
▁baaf	-1224
▁Dhukk	-1225
▁amana	-1226
▁qilleensaa	-1227
▁Konkolaataan	-1228
▁Ganama	-1229
▁dogoggor	-1230
gala	-1231
▁jab	-1232
▁hamm	-1233
alayaa	-1234
▁haadha	-1235
▁torban	-1236
▁bitachuu	-1237
tobu	-1238
tobusii	-1239
▁namoota	-1240
daan	-1241
mi	-1242
dhee	-1243
iilmii	-1244
▁qaban	-1245
ldur	-1246
▁Qillee	-1247
▁kudhan	-1248
▁um	-1249
iskil	-1250
▁Baabur	-1251
bi	-1252
▁Je	-1253
▁Bil	-1254
dduun	-1255
umaan	-1256
▁Toomiin	-1257
▁dhumaa	-1258
▁bad	-1259
▁Carraa	-1260
▁deebis	-1261
▁qabdaa	-1262
▁jalqabe	-1263
▁sagalee	-1264
unn	-1265
dheen	-1266
▁ajjees	-1267
▁dandeenya	-1268
oos	-1269
uka	-1270
▁Daf	-1271
iyaan	-1272
▁dhok	-1273
▁Akkan	-1274
▁jiran	-1275
▁agarsiis	-1276
ree	-1277
▁Bara	-1278
▁Bishaan	-1279
▁Akkasitti	-1280
▁Gargaarsa	-1281
▁bit	-1282
▁tokkoof	-1283
udha	-1284
tinaa	-1285
▁dinqis	-1286
▁bareedduu	-1287
▁ja	-1288
irraa	-1289
▁Pool	-1290
▁hojjedhu	-1291
▁Seen	-1292
▁Hojiin	-1293
▁kunuun	-1294
▁Namoota	-1295
alle	-1296
▁gabaa	-1297
▁deebii	-1298
▁erg	-1299
▁uum	-1300
▁eenyutu	-1301
▁eeggannoo	-1302
▁biyya	-1303
▁mataa	-1304
▁gaafachuu	-1305
▁goote	-1306
▁hedduun	-1307
akkoof	-1308
urxummii	-1309
▁bareedaa	-1310
▁erga	-1311
▁Daa	-1312
▁hafe	-1313
▁Tarii	-1314
▁Ameerikaa	-1315
dee	-1316
inj	-1317
jjii	-1318
siif	-1319
isiin	-1320
amaadha	-1321
▁Hunduu	-1322
▁barsii	-1323
sof	-1324
▁argadhe	-1325
dof	-1326
oma	-1327
amboo	-1328
▁edaa	-1329
▁karoor	-1330
▁hojjeta	-1331
amii	-1332
▁dir	-1333
▁amanuu	-1334
▁deemaa	-1335
▁guutummaatti	-1336
iyyee	-1337
▁Lamaan	-1338
▁Booston	-1339
iqil	-1340
▁miidh	-1341
▁arguun	-1342
▁shan	-1343
▁hordof	-1344
▁barachuu	-1345
▁jettanii	-1346
aaq	-1347
aayi	-1348
▁sod	-1349
arratti	-1350
▁muraasaaf	-1351
lli	-1352
eenyi	-1353
▁Dhaa	-1354
aroora	-1355
chitti	-1356
▁Balaa	-1357
▁Bilbil	-1358
▁Ch	-1359
▁San	-1360
▁Jaal	-1361
▁lubb	-1362
▁gaaffii	-1363
▁Isa	-1364
▁umur	-1365
▁haasof	-1366
▁ulfaataa	-1367
▁abdii	-1368
▁yaadu	-1369
▁jalqabaa	-1370
▁Dogoggora	-1371
▁galatoomaa	-1372
▁fa	-1373
iina	-1374
attii	-1375
▁konkol	-1376
▁bilbila	-1377
▁jaallattu	-1378
utti	-1379
artii	-1380
iniin	-1381
▁Harka	-1382
▁dhabe	-1383
▁kom	-1384
▁galle	-1385
iyyeeff	-1386
▁barsiis	-1387
▁taphachuu	-1388
aash	-1389
suuf	-1390
▁ija	-1391
▁dhiph	-1392
▁maaloo	-1393
▁guyyaan	-1394
▁boqonnaa	-1395
▁dinqisiif	-1396
▁Warri	-1397
▁argam	-1398
▁garaa	-1399
▁Maaltu	-1400
▁argine	-1401
▁sammuu	-1402
▁xiqqaa	-1403
aga	-1404
mee	-1405
okk	-1406
▁Fur	-1407
▁Yaad	-1408
▁qars	-1409
▁taas	-1410
▁rakkoo	-1411
▁hiriyyaa	-1412
aaraan	-1413
▁Haati	-1414
▁Boston	-1415
▁jettee	-1416
▁Garmalee	-1417
waa	-1418
▁dald	-1419
▁deemne	-1420
▁halkan	-1421
▁yaadda	-1422
▁Rakkoon	-1423
▁ilaaluu	-1424
▁kaleessa	-1425
qq	-1426
iree	-1427
▁goone	-1428
eessuun	-1429
▁Kitaabni	-1430
itii	-1431
▁dhimma	-1432
▁karoorf	-1433
▁addunyaa	-1434
▁Ir	-1435
▁akkuma	-1436
▁mudate	-1437
aana	-1438
▁miira	-1439
eettiin	-1440
boo	-1441
dan	-1442
▁An	-1443
▁naan	-1444
▁qunn	-1445
▁Kutaan	-1446
▁So	-1447
ddoo	-1448
eessu	-1449
▁gadh	-1450
▁gaafat	-1451
▁akkasitti	-1452
▁hamma	-1453
▁isheen	-1454
▁qaamaa	-1455
▁waadaa	-1456
iskileetii	-1457
▁oof	-1458
▁Haalli	-1459
▁namoonni	-1460
xaa	-1461
▁Wan	-1462
▁Taph	-1463
▁dull	-1464
teettaa	-1465
▁galaanaa	-1466
▁gammadeera	-1467
aachis	-1468
▁nagaa	-1469
▁tasaa	-1470
eessuuf	-1471
▁kennaa	-1472
arkaa	-1473
▁Itti	-1474
▁baasuu	-1475
▁jalaa	-1476
uuziqaa	-1477
▁namatti	-1478
▁Um	-1479
▁Kophaa	-1480
▁balbala	-1481
eedha	-1482
moo	-1483
▁Ar	-1484
ubbaa	-1485
▁ofii	-1486
yyoota	-1487
▁warra	-1488
▁Uffata	-1489
▁tokkoo	-1490
▁Daqiiqaa	-1491
ung	-1492
▁Gaa	-1493
▁ibi	-1494
ataan	-1495
▁kolf	-1496
▁deemnu	-1497
attoonni	-1498
▁fudhate	-1499
▁qarshii	-1500
miin	-1501
uutu	-1502
aandii	-1503
▁isinitti	-1504
▁gammachuu	-1505
aaree	-1506
laq	-1507
▁Mag	-1508
alluu	-1509
▁foddaa	-1510
▁xiqqaadha	-1511
aak	-1512
▁meeq	-1513
arqara	-1514
▁jettu	-1515
▁nutti	-1516
▁jiraata	-1517
eeq	-1518
▁qophaa	-1519
▁dubbata	-1520
▁gaariin	-1521
▁kootiif	-1522
▁isaatiin	-1523
▁gammachiisa	-1524
caa	-1525
▁aja	-1526
▁roo	-1527
allatt	-1528
▁Walga	-1529
00	-1530
inuu	-1531
▁jette	-1532
▁nyaan	-1533
▁osoon	-1534
▁gadd	-1535
▁Kanaaf	-1536
iit	-1537
pit	-1538
▁bor	-1539
ummaan	-1540
▁dhufa	-1541
injaala	-1542
▁Eenyuutu	-1543
▁dhukkubs	-1544
▁Isn	-1545
▁biqil	-1546
▁Ad	-1547
▁Fil	-1548
▁Barr	-1549
▁Dubb	-1550
▁hang	-1551
▁kaan	-1552
▁dambalii	-1553
▁buufata	-1554
▁hojjenne	-1555
▁hundinuu	-1556
▁ur	-1557
▁Meesh	-1558
▁illee	-1559
▁beekta	-1560
▁gidduu	-1561
▁dhiisaa	-1562
juu	-1563
▁gub	-1564
▁kaba	-1565
▁Maqaa	-1566
▁Kophee	-1567
▁Mucaan	-1568
▁fuuldur	-1569
▁ad	-1570
saan	-1571
jjira	-1572
▁alaa	-1573
aaqana	-1574
▁keeny	-1575
▁rakkis	-1576
▁uffata	-1577
▁arganne	-1578
meen	-1579
▁Dokt	-1580
▁iyyuu	-1581
batti	-1582
▁jala	-1583
▁himaa	-1584
iix	-1585
ola	-1586
▁foo	-1587
▁magaalaa	-1588
▁sadarkaa	-1589
▁saffisaan	-1590
jaa	-1591
ffeer	-1592
▁Bars	-1593
▁argatte	-1594
▁tilmaam	-1595
▁dheeraaf	-1596
▁qorra	-1597
▁turuu	-1598
▁int	-1599
▁eeguu	-1600
quu	-1601
▁Fuu	-1602
▁Haala	-1603
▁barbaadaa	-1604
yinii	-1605
▁dhaam	-1606
iba	-1607
▁siree	-1608
▁hirriba	-1609
▁Ijoollee	-1610
▁muka	-1611
aaliyaa	-1612
▁fayyadamuu	-1613
biin	-1614
ustir	-1615
▁Bu	-1616
▁Im	-1617
suun	-1618
oolii	-1619
▁lafa	-1620
▁amanu	-1621
▁meesh	-1622
▁baabur	-1623
▁Awustir	-1624
▁Jireenya	-1625
▁gabaabaa	-1626
▁barsiisaa	-1627
abab	-1628
▁banaa	-1629
▁arguuf	-1630
▁mitiiree	-1631
buu	-1632
▁jech	-1633
▁saan	-1634
▁Dhimma	-1635
▁qorraa	-1636
▁dargagg	-1637
▁bul	-1638
▁mor	-1639
▁Xalayaa	-1640
▁gala	-1641
▁walakkaa	-1642
▁keessaniif	-1643
wwaa	-1644
attuu	-1645
adheen	-1646
▁namaa	-1647
▁addaan	-1648
▁affeer	-1649
▁deemuuf	-1650
▁dubbatu	-1651
▁qarqara	-1652
amni	-1653
uura	-1654
▁muf	-1655
▁Toomiif	-1656
▁Awustiraaliyaa	-1657
ise	-1658
yaan	-1659
▁beekne	-1660
raan	-1661
aayii	-1662
atinaa	-1663
▁maqaa	-1664
site	-1665
anneen	-1666
▁jiruu	-1667
▁rakkisaadha	-1668
ka	-1669
amummaa	-1670
▁duraan	-1671
▁halluu	-1672
▁jiraatu	-1673
▁salphaadha	-1674
▁lam	-1675
eenye	-1676
iiraa	-1677
▁Erga	-1678
▁caalu	-1679
▁narra	-1680
▁kanuma	-1681
▁Isniina	-1682
▁ogeessa	-1683
ima	-1684
▁damma	-1685
▁bilbilaa	-1686
▁Gur	-1687
alama	-1688
▁Abbaa	-1689
▁ch	-1690
▁Koo	-1691
▁mij	-1692
▁Sirr	-1693
▁taate	-1694
▁barbaadduu	-1695
eens	-1696
▁fal	-1697
▁himi	-1698
▁sababa	-1699
▁suuraa	-1700
▁galgala	-1701
▁teessoo	-1702
▁fakkaatta	-1703
▁Hiriyyoota	-1704
▁Tokk	-1705
▁dhabuu	-1706
▁Qilleen	-1707
▁daqiiqaa	-1708
▁kitaabaa	-1709
▁dubbateera	-1710
▁hojjechuuf	-1711
▁Ni	-1712
▁Dub	-1713
▁Sar	-1714
▁ifa	-1715
▁jibb	-1716
▁dhung	-1717
▁gootu	-1718
oolaara	-1719
▁yaadaa	-1720
▁fayyadam	-1721
gab	-1722
uuraa	-1723
▁Teessoo	-1724
▁gammachiis	-1725
▁mirkaneeff	-1726
ck	-1727
▁qu	-1728
▁Roob	-1729
▁fagoo	-1730
▁ijaar	-1731
▁eessaa	-1732
▁Balbala	-1733
▁lubbuun	-1734
▁ak	-1735
▁bur	-1736
▁buu	-1737
▁boon	-1738
▁call	-1739
▁mala	-1740
arkaan	-1741
▁kenna	-1742
▁deemte	-1743
▁jireenyaa	-1744
▁Wa	-1745
▁han	-1746
▁Buna	-1747
▁dukk	-1748
ccitii	-1749
▁shubb	-1750
aayidaa	-1751
▁Akkuma	-1752
▁Suuraa	-1753
▁Maallaq	-1754
▁Od	-1755
shann	-1756
▁argu	-1757
▁fayyaa	-1758
▁lakkaa	-1759
▁tilmaama	-1760
▁bahuu	-1761
▁fooyya	-1762
▁tamboo	-1763
ammaffaa	-1764
▁Harmeen	-1765
▁kaffaltii	-1766
▁qurxummii	-1767
▁beekamaadha	-1768
▁hima	-1769
▁jedha	-1770
▁waaree	-1771
ek	-1772
▁jalqaba	-1773
▁umuriin	-1774
▁murteess	-1775
▁Mur	-1776
▁kof	-1777
iitti	-1778
▁dhiy	-1779
▁nuti	-1780
▁argate	-1781
▁deemtu	-1782
▁obboleessa	-1783
too	-1784
umna	-1785
▁umr	-1786
▁ilaala	-1787
▁fudhata	-1788
▁ofirraa	-1789
▁Maq	-1790
▁Kaar	-1791
▁dhibu	-1792
▁Maaloo	-1793
▁kitaaba	-1794
▁xiyyeeff	-1795
▁Ingilizii	-1796
▁balal	-1797
▁beeks	-1798
▁socho	-1799
▁keetii	-1800
▁kootii	-1801
▁qoosaa	-1802
▁rifeensa	-1803
atin	-1804
▁Qab	-1805
▁Maqaan	-1806
▁argachuuf	-1807
piit	-1808
qama	-1809
▁nag	-1810
▁Umur	-1811
▁kophee	-1812
▁Lakkoof	-1813
▁dhaloota	-1814
▁dubbisuu	-1815
ze	-1816
ing	-1817
jee	-1818
▁Ija	-1819
eekii	-1820
▁kudha	-1821
▁Waggaa	-1822
▁hojjete	-1823
ttuu	-1824
▁sodd	-1825
▁Yaadni	-1826
▁Akkaataa	-1827
▁ir	-1828
atiin	-1829
▁dhang	-1830
▁isheef	-1831
▁caalaatti	-1832
▁barreessuu	-1833
ix	-1834
iifi	-1835
▁Gor	-1836
umatti	-1837
▁kofal	-1838
▁dhageess	-1839
▁dhugaatii	-1840
▁v	-1841
▁Ee	-1842
▁Mi	-1843
ilee	-1844
laan	-1845
spit	-1846
aamur	-1847
▁Deem	-1848
▁gosa	-1849
xxaamur	-1850
▁dammaq	-1851
▁Poolisiin	-1852
▁lammaffaa	-1853
ot	-1854
idha	-1855
▁Add	-1856
▁qaroo	-1857
▁hayyam	-1858
▁jiraat	-1859
▁mallatt	-1860
atteettaa	-1861
▁hojjedha	-1862
▁ajaj	-1863
▁baan	-1864
▁dokt	-1865
▁yaabb	-1866
▁gadhiis	-1867
▁qaxxaamur	-1868
inni	-1869
banaa	-1870
▁boor	-1871
▁hidh	-1872
▁ariif	-1873
▁Roobni	-1874
▁tureef	-1875
▁dulloom	-1876
▁bitachuuf	-1877
amoo	-1878
▁hat	-1879
▁wan	-1880
isiis	-1881
▁miila	-1882
▁Furtuu	-1883
▁gowwaa	-1884
▁Sagalee	-1885
▁hundaaf	-1886
▁biqiltuu	-1887
▁duubatti	-1888
▁gaafadhe	-1889
▁kaar	-1890
▁tolu	-1891
▁yaale	-1892
▁Seenaa	-1893
▁jirtuu	-1894
▁dhiisee	-1895
▁mari	-1896
▁Sanduu	-1897
▁ilaale	-1898
▁irraan	-1899
▁dhiiraa	-1900
▁gargaaru	-1901
annee	-1902
▁gurraa	-1903
▁achitti	-1904
▁irbaata	-1905
▁daldalaa	-1906
▁taphachaa	-1907
kn	-1908
roo	-1909
▁ykn	-1910
aanni	-1911
inaan	-1912
aarkii	-1913
▁argee	-1914
▁sanaaf	-1915
▁minjaala	-1916
▁Maallaqni	-1917
▁salphaatti	-1918
ork	-1919
▁Oduu	-1920
▁Wiix	-1921
▁nuff	-1922
▁Bakki	-1923
▁ammas	-1924
▁maatii	-1925
▁Fiilmii	-1926
▁Toomitti	-1927
▁qabbanaa	-1928
▁barreessi	-1929
omb	-1930
▁jen	-1931
faati	-1932
▁bite	-1933
aggoota	-1934
▁Filannoo	-1935
▁gargaarsa	-1936
oog	-1937
▁dib	-1938
siisuu	-1939
▁rukut	-1940
attoota	-1941
▁dhihoo	-1942
▁Wiixata	-1943
▁godheera	-1944
▁otobusii	-1945
▁qulqulluu	-1946
▁konkolaachis	-1947
imm	-1948
qor	-1949
▁kir	-1950
▁sob	-1951
diyoo	-1952
▁barn	-1953
ababni	-1954
▁ibsaa	-1955
▁isaas	-1956
▁miilaa	-1957
▁haaraan	-1958
▁shakk	-1959
isiisaa	-1960
▁jireenya	-1961
▁barbaanna	-1962
▁hiriyyoota	-1963
imb	-1964
▁Qorqor	-1965
▁seenaa	-1966
▁dubbate	-1967
▁ari	-1968
araqaa	-1969
▁Homaa	-1970
▁Isaanis	-1971
▁Jireenyi	-1972
▁ilaaluun	-1973
▁sodaadha	-1974
▁Qilleensi	-1975
▁Ingiliffaa	-1976
tta	-1977
deen	-1978
neef	-1979
allaa	-1980
ichaa	-1981
isaas	-1982
annoon	-1983
imbirr	-1984
▁Dhuma	-1985
▁obsuu	-1986
▁seene	-1987
eenisii	-1988
▁waajjira	-1989
▁gowwummaa	-1990
▁dogoggoraa	-1991
gar	-1992
amarr	-1993
iidha	-1994
▁Dhum	-1995
▁pool	-1996
tummaa	-1997
▁dhuun	-1998
aruuraa	-1999
▁gammadd	-2000
▁gargaaruuf	-2001
▁Go	-2002
▁Biyy	-2003
neerra	-2004
▁Sababa	-2005
▁Waanan	-2006
▁hidhaa	-2007
▁kitaab	-2008
▁milkaa	-2009
▁tasgab	-2010
▁Karoora	-2011
▁boorsaa	-2012
▁garagal	-2013
▁doolaara	-2014
▁teenisii	-2015
che	-2016
▁Laf	-2017
ddisa	-2018
ineens	-2019
▁Garaa	-2020
▁addaa	-2021
▁fedhe	-2022
▁deemta	-2023
amaniiru	-2024
▁rakkisaa	-2025
▁affeerraa	-2026
▁Obboleessi	-2027
son	-2028
▁Dar	-2029
▁afur	-2030
▁maxx	-2031
taniif	-2032
▁jecha	-2033
▁qorri	-2034
▁ilkaan	-2035
▁qisaas	-2036
▁Irbaata	-2037
▁dabarsuu	-2038
inu	-2039
▁Ba	-2040
eefu	-2041
▁dub	-2042
▁xuuxuu	-2043
▁faayidaa	-2044
▁jechootaa	-2045
▁Dhumarratti	-2046
bee	-2047
▁mo	-2048
▁Kaa	-2049
▁Isin	-2050
▁xiyy	-2051
achiis	-2052
▁fuula	-2053
▁duwwaa	-2054
▁kennite	-2055
poor	-2056
▁Rif	-2057
▁gad	-2058
eerri	-2059
sitee	-2060
ibsiif	-2061
▁Miira	-2062
▁jirre	-2063
▁argama	-2064
▁Dhukkub	-2065
▁Baaburri	-2066
▁dukkanaa	-2067
▁dhukkubsa	-2068
▁keessanii	-2069
aawaa	-2070
adhee	-2071
▁fagaa	-2072
▁himne	-2073
faatina	-2074
▁dhiise	-2075
▁fudhadha	-2076
tichi	-2077
▁Reefu	-2078
▁Haadha	-2079
lu	-2080
naan	-2081
▁Ifa	-2082
oostaa	-2083
▁turee	-2084
chiisaa	-2085
▁hawwii	-2086
▁barreeff	-2087
▁nyaachuuf	-2088
ons	-2089
▁Ka	-2090
ombol	-2091
aatiif	-2092
▁Ishee	-2093
▁fuudh	-2094
▁dhufaa	-2095
▁daandii	-2096
▁waanuma	-2097
▁hojjettu	-2098
▁iyy	-2099
▁Jecha	-2100
▁Intala	-2101
▁harkaa	-2102
▁ilaalu	-2103
▁kubbaa	-2104
▁qofatu	-2105
▁Barsiis	-2106
▁bashann	-2107
▁isaatti	-2108
▁kootiin	-2109
▁Otobusii	-2110
▁hamaadha	-2111
▁hojjedhe	-2112
▁meeqatti	-2113
▁argachuun	-2114
▁urgaa	-2115
▁Qormaata	-2116
▁Hamm	-2117
▁jeeq	-2118
qaaquu	-2119
▁kennu	-2120
▁bilisa	-2121
▁Magaalaa	-2122
▁fudhadhu	-2123
▁dagatinaa	-2124
▁dandeenyaa	-2125
▁obboleettii	-2126
▁Obboleettiin	-2127
▁saa	-2128
▁anaaf	-2129
▁beela	-2130
▁poostaa	-2131
▁barreesse	-2132
▁dabarseera	-2133
ook	-2134
▁dhiib	-2135
▁Aniifi	-2136
▁Gatiin	-2137
▁Maatii	-2138
▁rukute	-2139
▁akkanaa	-2140
▁yaaluun	-2141
▁dubbanne	-2142
amte	-2143
inee	-2144
kaak	-2145
▁cirra	-2146
▁iddoo	-2147
kaakayy	-2148
▁fiilmii	-2149
▁sodaachis	-2150
▁biskileetii	-2151
uq	-2152
▁Hi	-2153
▁baas	-2154
▁argamu	-2155
▁dhukkuba	-2156
▁Barattoonni	-2157
wwee	-2158
aayin	-2159
▁Balb	-2160
▁Yoon	-2161
▁boru	-2162
aaleen	-2163
▁geess	-2164
▁Deebii	-2165
▁Qalama	-2166
▁dhufne	-2167
▁Namichi	-2168
▁rakkoon	-2169
▁dubbadhu	-2170
lle	-2171
bboo	-2172
▁ana	-2173
ittan	-2174
▁Ofii	-2175
▁gahe	-2176
▁Eessa	-2177
▁Hojje	-2178
▁beekna	-2179
▁deemna	-2180
▁Hiriyaa	-2181
▁dabarsi	-2182
▁dhufeera	-2183
▁xiqqaate	-2184
iiz	-2185
aayil	-2186
▁adii	-2187
▁yaadne	-2188
▁yaaduu	-2189
eessatti	-2190
▁soddoma	-2191
▁gaariidha	-2192
qii	-2193
▁Bee	-2194
▁buna	-2195
▁rafe	-2196
▁Gorsa	-2197
▁Hamma	-2198
iyaanoo	-2199
▁ciniin	-2200
▁doonii	-2201
▁eenyuu	-2202
▁intala	-2203
▁qabaat	-2204
▁aanutti	-2205
▁bitadhe	-2206
▁Boqonnaa	-2207
▁hubachuu	-2208
▁Kitaabota	-2209
▁bareedduudha	-2210
ha	-2211
goo	-2212
uut	-2213
▁if	-2214
ppaa	-2215
ppii	-2216
umsi	-2217
▁Han	-2218
arree	-2219
▁bahu	-2220
▁daak	-2221
▁ilma	-2222
▁Dhaabb	-2223
▁sodaat	-2224
▁Naannoo	-2225
▁tokkotu	-2226
▁qabadheen	-2227
▁Al	-2228
▁ca	-2229
attan	-2230
▁kufe	-2231
choota	-2232
▁Tapha	-2233
▁dhiif	-2234
▁naanna	-2235
▁bilbile	-2236
▁tarkaan	-2237
eeffannoo	-2238
▁muuziqaa	-2239
▁argadheera	-2240
ddi	-2241
xii	-2242
llaa	-2243
▁sar	-2244
▁Hiriy	-2245
▁biroo	-2246
▁cinaa	-2247
▁hiika	-2248
▁qaana	-2249
▁Jalqab	-2250
▁balali	-2251
▁hangam	-2252
▁magaal	-2253
ataniiru	-2254
▁gaafatte	-2255
▁jiraadha	-2256
▁jaallattaa	-2257
ve	-2258
llaan	-2259
▁bade	-2260
▁dhuk	-2261
▁eega	-2262
▁garg	-2263
▁mudaa	-2264
▁dhuguu	-2265
▁dursee	-2266
▁kompiit	-2267
▁Sanduuqa	-2268
▁Saroonni	-2269
▁galateeff	-2270
▁hojjechuun	-2271
umm	-2272
agan	-2273
irii	-2274
▁lol	-2275
▁haal	-2276
▁waam	-2277
▁bitaa	-2278
▁qabuuf	-2279
▁argeera	-2280
▁eessatti	-2281
▁filannoo	-2282
▁murteesse	-2283
oni	-2284
▁Ob	-2285
choo	-2286
neen	-2287
atama	-2288
▁darbee	-2289
▁Bilbila	-2290
▁Sababni	-2291
▁doktora	-2292
▁dinqisiifadha	-2293
alti	-2294
etti	-2295
aarri	-2296
▁goota	-2297
eekk	-2298
▁Gab	-2299
▁tapha	-2300
▁ijooll	-2301
▁maraat	-2302
▁uffatte	-2303
▁wayinii	-2304
▁barachaa	-2305
▁hirribaa	-2306
▁dadhabeera	-2307
qo	-2308
chaan	-2309
▁cicc	-2310
▁fufe	-2311
▁koma	-2312
▁quuf	-2313
isiisa	-2314
▁Warra	-2315
▁humna	-2316
▁deemsa	-2317
▁godhaa	-2318
▁maxxan	-2319
▁saandu	-2320
▁Baabura	-2321
▁akkasuma	-2322
▁gargaara	-2323
▁liqeessuu	-2324
▁dandeettii	-2325
▁dubbachuuf	-2326
▁Faransaayiin	-2327
org	-2328
attaa	-2329
alatti	-2330
teetta	-2331
▁galuu	-2332
▁suuta	-2333
▁dachaa	-2334
uuxannoo	-2335
▁gammada	-2336
▁Wantoonni	-2337
▁jaalallee	-2338
▁dubbachuun	-2339
▁bareedaadha	-2340
▁hojjedheera	-2341
ele	-2342
▁Du	-2343
▁Tik	-2344
isuun	-2345
▁gale	-2346
▁Gamma	-2347
▁gurbaa	-2348
▁roobaa	-2349
spitaala	-2350
▁nyaanne	-2351
et	-2352
ooti	-2353
onitti	-2354
▁Dubar	-2355
▁Natti	-2356
▁kabaj	-2357
▁Waraan	-2358
▁jaalala	-2359
▁laaqana	-2360
▁uffatee	-2361
▁Walgahii	-2362
▁saanduqa	-2363
▁gurraacha	-2364
▁Duu	-2365
▁Mil	-2366
▁tir	-2367
▁aduu	-2368
▁qusa	-2369
▁Hammam	-2370
▁torbee	-2371
stonitti	-2372
▁Intalti	-2373
▁Guyyoota	-2374
▁Yoomiyyuu	-2375
▁xiyyaaraa	-2376
▁Obboleessa	-2377
▁barreessaa	-2378
vi	-2379
res	-2380
▁Qa	-2381
▁ut	-2382
jjab	-2383
amuuf	-2384
atame	-2385
ubbii	-2386
▁Abaa	-2387
arraan	-2388
eeskii	-2389
▁keeti	-2390
▁qaala	-2391
▁seera	-2392
▁walga	-2393
eessite	-2394
▁Duraanis	-2395
▁Wantoota	-2396
▁qabachuu	-2397
▁fin	-2398
▁mak	-2399
▁umm	-2400
teela	-2401
▁Fakk	-2402
▁eege	-2403
▁gudda	-2404
▁hundaa	-2405
▁Guyyaan	-2406
▁dirqama	-2407
▁bilbiluu	-2408
▁yaadadha	-2409
▁kofalchiis	-2410
san	-2411
▁od	-2412
▁aww	-2413
▁gan	-2414
▁duuba	-2415
poortii	-2416
▁sanaan	-2417
▁gargaaraa	-2418
▁jaallatti	-2419
▁Boostonitti	-2420
hiin	-2421
tuun	-2422
oosaa	-2423
▁kuta	-2424
▁gootan	-2425
▁hunduu	-2426
▁seeraa	-2427
▁yaadee	-2428
▁Jijjiir	-2429
▁hawwata	-2430
taniittuu	-2431
▁Dhugaatii	-2432
▁Ko	-2433
▁Dhi	-2434
eerum	-2435
uutti	-2436
▁hogg	-2437
▁bahee	-2438
▁nyaatu	-2439
▁Abaaboo	-2440
▁Buufata	-2441
▁argadhu	-2442
▁dhabuun	-2443
▁mijataa	-2444
▁Addunyaa	-2445
▁qabuudha	-2446
▁Hiriyoonni	-2447
▁Kom	-2448
siise	-2449
▁Daan	-2450
▁Tokko	-2451
▁dhuma	-2452
▁garee	-2453
▁gorsa	-2454
▁imala	-2455
▁immoo	-2456
amarran	-2457
iilmiin	-2458
▁dhufte	-2459
▁ofitti	-2460
▁taatee	-2461
▁karoora	-2462
fiin	-2463
▁Tas	-2464
▁Hogg	-2465
▁amala	-2466
▁dhork	-2467
▁galmee	-2468
▁hammam	-2469
▁nyaadhu	-2470
▁Balballi	-2471
▁Muuziqaa	-2472
▁dhangala	-2473
▁dhiiseen	-2474
▁dubbisaa	-2475
▁qabeessa	-2476
▁Qorqorroo	-2477
imni	-2478
oogi	-2479
▁mad	-2480
▁ball	-2481
▁soba	-2482
eessee	-2483
eetiin	-2484
ootaaf	-2485
▁miliq	-2486
▁suukan	-2487
▁Galgala	-2488
▁Seenaan	-2489
▁Shaayii	-2490
▁paarkii	-2491
▁hojiitti	-2492
▁hojjetame	-2493
▁yaadachuu	-2494
▁Barsiisaan	-2495
isu	-2496
tira	-2497
▁xur	-2498
▁cacc	-2499
▁Qoosaa	-2500
▁baatee	-2501
▁Akkamittan	-2502
▁Biskileetii	-2503
▁barbaachisaadha	-2504
ela	-2505
▁Fe	-2506
iyoo	-2507
▁Lol	-2508
▁buuf	-2509
▁dide	-2510
▁eegu	-2511
▁siin	-2512
ammata	-2513
▁afeer	-2514
▁eegal	-2515
▁mucaa	-2516
irratti	-2517
▁baabura	-2518
▁qabamee	-2519
siin	-2520
sona	-2521
elevi	-2522
▁Paar	-2523
▁laaf	-2524
▁Dafee	-2525
▁caala	-2526
▁duruu	-2527
▁Milkaa	-2528
▁hundatti	-2529
chif	-2530
isee	-2531
▁Kol	-2532
▁tuq	-2533
amtee	-2534
arsii	-2535
▁Moot	-2536
▁aanu	-2537
▁himu	-2538
▁quba	-2539
▁Imala	-2540
▁goonu	-2541
▁isaati	-2542
▁umriin	-2543
▁warraa	-2544
▁Anillee	-2545
▁qorraan	-2546
▁gidduutti	-2547
ca	-2548
ila	-2549
▁Guut	-2550
baatti	-2551
jiinii	-2552
▁Biyya	-2553
▁ciree	-2554
▁cimaan	-2555
▁machaa	-2556
▁gowwoom	-2557
▁ilaallu	-2558
▁dhiisuun	-2559
▁Kitaabicha	-2560
▁dagadheera	-2561
▁gaafatamummaa	-2562
jeel	-2563
▁Ilmi	-2564
▁Saan	-2565
▁aann	-2566
▁arga	-2567
▁barre	-2568
▁fidaa	-2569
▁roobe	-2570
▁aannan	-2571
▁Nyaanni	-2572
▁Umuriin	-2573
▁bineens	-2574
▁dadhabe	-2575
▁hafuura	-2576
▁Fiilmiin	-2577
▁gaafadhu	-2578
▁Og	-2579
jaaj	-2580
alaan	-2581
dhiin	-2582
▁Took	-2583
▁Xiyy	-2584
▁wall	-2585
eeraan	-2586
unyaan	-2587
▁Mucaa	-2588
▁daree	-2589
▁fiduu	-2590
▁himte	-2591
▁abbaan	-2592
▁keetti	-2593
▁tiraaf	-2594
▁lakkoof	-2595
▁meeshaa	-2596
▁poolisii	-2597
▁magaalattii	-2598
edha	-2599
erre	-2600
ksii	-2601
▁Ees	-2602
oores	-2603
▁Yaal	-2604
▁reef	-2605
▁Hirri	-2606
▁silaa	-2607
▁yaala	-2608
▁Karoor	-2609
▁kaasee	-2610
▁Dargagg	-2611
▁koottaa	-2612
▁cimaadha	-2613
▁jabeessa	-2614
chu	-2615
otaa	-2616
▁pir	-2617
▁imal	-2618
▁liqii	-2619
aggeeff	-2620
▁Borsaa	-2621
▁Laaqana	-2622
▁argitee	-2623
▁qoricha	-2624
▁tasumaa	-2625
▁Karoorri	-2626
▁dhagahamu	-2627
rra	-2628
uph	-2629
qaan	-2630
▁Haf	-2631
▁ibs	-2632
iyoon	-2633
orgom	-2634
▁tuff	-2635
▁ibsuu	-2636
▁rooba	-2637
▁reefuu	-2638
▁turtee	-2639
▁Achitti	-2640
▁dargaggeessa	-2641
ilb	-2642
▁Ha	-2643
amuun	-2644
iigal	-2645
▁Abdii	-2646
▁Ilaal	-2647
▁gahuu	-2648
▁ijaan	-2649
▁Balaan	-2650
▁Foddaa	-2651
▁beektuu	-2652
▁caalaan	-2653
▁ogummaa	-2654
▁Tookiyoo	-2655
▁Jaalallee	-2656
▁Obboleettii	-2657
dir	-2658
ugg	-2659
▁Amm	-2660
▁Ken	-2661
zexaa	-2662
ubbiin	-2663
▁sagal	-2664
▁utaal	-2665
▁dhaquu	-2666
▁roobuu	-2667
▁Deebiin	-2668
▁hawwatu	-2669
▁xalayaa	-2670
▁yaaddaa	-2671
▁ilaaluuf	-2672
▁barachuuf	-2673
▁man	-2674
▁saam	-2675
iseera	-2676
▁qabuu	-2677
eessaan	-2678
▁dallaa	-2679
▁heerum	-2680
▁nageenya	-2681
▁yaadadhu	-2682
▁Asirratti	-2683
▁dhageenye	-2684
▁barumsaatti	-2685
ce	-2686
▁de	-2687
soos	-2688
▁baq	-2689
▁Dhii	-2690
▁Asoos	-2691
▁baane	-2692
▁ergaa	-2693
▁deeman	-2694
▁himuuf	-2695
▁Iccitii	-2696
▁dhaabuu	-2697
▁hogganaa	-2698
ed	-2699
iyee	-2700
▁soor	-2701
▁Ganna	-2702
▁Sirba	-2703
▁eegga	-2704
▁oofuu	-2705
▁akeekk	-2706
▁turuuf	-2707
aalaatti	-2708
▁fudhatu	-2709
▁gorsite	-2710
▁kanatti	-2711
▁miilaan	-2712
▁biraatti	-2713
▁jijjiiruu	-2714
▁fudhachuuf	-2715
▁ulfaataadha	-2716
taaf	-2717
▁Ach	-2718
amtii	-2719
▁sadd	-2720
▁Mataa	-2721
▁biiraa	-2722
▁geenye	-2723
▁filadha	-2724
▁qabadhu	-2725
▁rakkina	-2726
▁nyaachaa	-2727
▁piyaanoo	-2728
▁Qurxummii	-2729
▁kitaabota	-2730
xa	-2731
▁Pir	-2732
▁gab	-2733
▁kut	-2734
▁sim	-2735
▁Achi	-2736
▁Kaam	-2737
▁foon	-2738
▁Lakki	-2739
▁abjuu	-2740
▁baase	-2741
▁fiige	-2742
▁liqim	-2743
▁caccab	-2744
▁hamaan	-2745
▁hangas	-2746
▁qabate	-2747
▁waraan	-2748
▁Meeshaa	-2749
▁gammade	-2750
▁kanarraa	-2751
▁barbaaddan	-2752
▁id	-2753
eeyy	-2754
▁Raa	-2755
▁Dald	-2756
▁roobu	-2757
▁sirra	-2758
agantaa	-2759
oogidda	-2760
▁Ayyaan	-2761
▁Waadaa	-2762
▁argina	-2763
▁turuun	-2764
aashinii	-2765
garummaa	-2766
▁Simbirr	-2767
▁fincaan	-2768
▁Daandiin	-2769
▁eenyuuti	-2770
▁qaruuraa	-2771
▁yoomiyyuu	-2772
car	-2773
ite	-2774
▁Ib	-2775
uuzii	-2776
▁Aann	-2777
▁bifa	-2778
▁boqo	-2779
▁morm	-2780
▁oduu	-2781
itaara	-2782
▁Fuula	-2783
▁gamoo	-2784
▁rafuu	-2785
▁seenu	-2786
▁gochaa	-2787
▁kamiin	-2788
▁qabame	-2789
▁seenuu	-2790
▁meeqatu	-2791
▁yaaddoo	-2792
▁dhugaadha	-2793
▁meeshaalee	-2794
▁qabadheera	-2795
▁hoo	-2796
▁kak	-2797
aaboo	-2798
▁cabse	-2799
▁Aannan	-2800
attamaan	-2801
▁Maatiin	-2802
▁abaaboo	-2803
▁argamne	-2804
▁baankii	-2805
▁dhumaaf	-2806
▁iccitii	-2807
▁daraaraa	-2808
▁guyyoota	-2809
▁nyaachuun	-2810
▁qilleensa	-2811
▁tasgabbaa	-2812
▁yoomiitti	-2813
▁Ga	-2814
▁mal	-2815
▁Foon	-2816
▁Gaar	-2817
▁gogaa	-2818
▁yaalu	-2819
▁Gareen	-2820
▁Magaal	-2821
▁Murtoo	-2822
▁Tamboo	-2823
▁daakuu	-2824
▁murtoo	-2825
▁sadiif	-2826
▁Bilbilli	-2827
▁gaafadha	-2828
▁waggoota	-2829
elevijiinii	-2830
▁'	-2831
aarf	-2832
amtu	-2833
leen	-2834
isuuf	-2835
▁falm	-2836
▁olka	-2837
attiin	-2838
▁Booda	-2839
▁baruu	-2840
▁gurgu	-2841
▁lafaa	-2842
leejjii	-2843
▁furdaa	-2844
▁Hirriba	-2845
▁Wayinii	-2846
▁kennine	-2847
▁kunooti	-2848
▁Akaakayy	-2849
▁Barreeff	-2850
▁Hiriyaan	-2851
▁amanamaa	-2852
▁dubbatte	-2853
▁agarsiisa	-2854
▁fincaanii	-2855
▁jiraachaa	-2856
▁tuu	-2857
atamu	-2858
▁hirk	-2859
▁kuma	-2860
ibaati	-2861
▁Sagal	-2862
▁mirga	-2863
ukkaara	-2864
uuziyee	-2865
▁Kennaa	-2866
▁Waliin	-2867
▁dhuftu	-2868
▁geessu	-2869
▁deeskii	-2870
▁keenyaa	-2871
▁Doktarri	-2872
▁qormaata	-2873
▁Lakkoofsi	-2874
▁Walgahiin	-2875
▁jiraachuun	-2876
▁keenyayyuu	-2877
ji	-2878
zi	-2879
oll	-2880
▁mis	-2881
▁qal	-2882
shiin	-2883
▁Chaay	-2884
▁Ciree	-2885
▁jirru	-2886
▁Biiraa	-2887
▁Dubbiin	-2888
▁ofumaan	-2889
▁Dambalii	-2890
▁deebisee	-2891
▁hawwataa	-2892
▁barbaannu	-2893
▁hanqaaquu	-2894
▁Ibi	-2895
▁dig	-2896
▁saf	-2897
▁war	-2898
aasii	-2899
xaxaa	-2900
▁badaa	-2901
ataatti	-2902
▁godhan	-2903
▁lammii	-2904
▁Jalqaba	-2905
▁argamuun	-2906
▁dubbannu	-2907
▁isaaniif	-2908
▁jalqabuu	-2909
▁kaffaluu	-2910
▁qaroodha	-2911
▁barachuun	-2912
▁isheetiin	-2913
tt	-2914
koo	-2915
▁Bi	-2916
▁Ul	-2917
▁Gam	-2918
amisa	-2919
▁sirba	-2920
▁Eeyyee	-2921
▁amanne	-2922
▁dhiisi	-2923
▁ibidda	-2924
▁qawwee	-2925
onsartii	-2926
▁Kaardii	-2927
▁hayyama	-2928
▁nyaadha	-2929
▁dhuunfaa	-2930
▁Lakkoofsa	-2931
▁agarsiise	-2932
▁barbaadan	-2933
aloo	-2934
▁gama	-2935
▁Garee	-2936
▁Seera	-2937
▁Kubbaa	-2938
▁michuu	-2939
▁sirbuu	-2940
▁Eenyutu	-2941
▁wantoota	-2942
▁waraanaa	-2943
▁keenyatti	-2944
▁Konkolaachis	-2945
oh	-2946
op	-2947
ffal	-2948
kiin	-2949
uroo	-2950
▁Aman	-2951
▁Saff	-2952
▁suph	-2953
▁turu	-2954
zidaan	-2955
▁Abjuu	-2956
▁Miila	-2957
▁Kaffal	-2958
▁beeknu	-2959
▁Sagaleen	-2960
▁dubbattu	-2961
▁hangamii	-2962
▁hojjetan	-2963
▁sanaatti	-2964
▁dandeessi	-2965
▁kofalchiisu	-2966
▁OK	-2967
▁qub	-2968
▁Dukk	-2969
▁Koph	-2970
▁adab	-2971
▁beey	-2972
▁Kanaa	-2973
▁Suuta	-2974
▁dabar	-2975
ooressa	-2976
▁fakkaa	-2977
▁turtan	-2978
iigaltee	-2979
▁argadha	-2980
▁ibiddaa	-2981
▁ilaalle	-2982
▁kanarra	-2983
▁nyaadhe	-2984
▁Rifeensa	-2985
▁Tikeetii	-2986
▁amanachuu	-2987
▁dhaabbate	-2988
▁ulfaatina	-2989
▁gaafachuuf	-2990
noo	-2991
sib	-2992
teen	-2993
yyoo	-2994
▁Dhuf	-2995
▁Muka	-2996
▁abda	-2997
▁saax	-2998
▁Siree	-2999
▁xuraa	-3000
▁kolfaa	-3001
▁nyaate	-3002
▁tarree	-3003
▁umurii	-3004
▁Kanneen	-3005
▁dubbise	-3006
▁jirutti	-3007
▁Xiyyeeff	-3008
▁akkaataa	-3009
▁walgahii	-3010
▁Chaayinaa	-3011
▁kompiitara	-3012
▁Maariyaamiif	-3013
▁qo	-3014
imaa	-3015
▁haq	-3016
oodha	-3017
▁Baan	-3018
▁erge	-3019
▁laga	-3020
eessan	-3021
▁boona	-3022
▁kaase	-3023
▁qacar	-3024
▁Awuroo	-3025
▁Keekii	-3026
▁argame	-3027
▁daftee	-3028
▁Waraqaa	-3029
▁ifaadha	-3030
▁Achumaan	-3031
▁agarsiif	-3032
▁nyaachis	-3033
▁walxaxaa	-3034
▁fudhachuun	-3035
▁gammachiisu	-3036
yoon	-3037
▁uww	-3038
anaan	-3039
ariin	-3040
▁kaam	-3041
▁tole	-3042
teetti	-3043
▁Amala	-3044
alayaan	-3045
▁Kanatu	-3046
▁baraar	-3047
▁bosona	-3048
▁furtuu	-3049
▁Intalli	-3050
▁jalatti	-3051
▁jedhama	-3052
▁Dhukkubs	-3053
▁Dogoggor	-3054
▁barnoota	-3055
▁fuuldura	-3056
▁dubbachaa	-3057
▁qilleensi	-3058
▁dandeessan	-3059
jek	-3060
▁Ur	-3061
okol	-3062
toob	-3063
▁Jar	-3064
▁Tol	-3065
eensi	-3066
iirri	-3067
oofne	-3068
▁Lubb	-3069
▁galu	-3070
▁qaan	-3071
▁cimee	-3072
▁Hundaa	-3073
▁ajjeef	-3074
▁dhaaba	-3075
▁dhaqeen	-3076
▁waraqaa	-3077
▁qabnedha	-3078
▁Shamarran	-3079
▁agarsiisi	-3080
▁dhalootaa	-3081
▁lakkoofsa	-3082
▁qabaadhee	-3083
▁Odeeffannoo	-3084
▁gammachiisaa	-3085
▁haasofsiisuu	-3086
▁z	-3087
aang	-3088
tima	-3089
aanna	-3090
iizaa	-3091
▁Ilma	-3092
▁Lafa	-3093
▁batt	-3094
▁hiyy	-3095
▁Salph	-3096
▁qaama	-3097
ezidaan	-3098
▁Fedhii	-3099
▁Seerri	-3100
▁dhiisu	-3101
siboolii	-3102
▁Fuuldur	-3103
▁argattu	-3104
▁Gaaddisa	-3105
▁cirracha	-3106
▁dhumeera	-3107
▁gaaddisa	-3108
▁fayyadama	-3109
omboleettii	-3110
▁hospitaala	-3111
▁sirreessuu	-3112
▁bilcheessuu	-3113
aall	-3114
arga	-3115
kkaa	-3116
ojek	-3117
▁Nag	-3118
▁fir	-3119
▁sak	-3120
▁xix	-3121
kaana	-3122
▁Dhih	-3123
▁cabe	-3124
▁fide	-3125
▁qaal	-3126
annaan	-3127
varsii	-3128
▁dhugu	-3129
▁baasii	-3130
▁dhufan	-3131
▁shakkii	-3132
▁dubartii	-3133
▁fudhanne	-3134
▁Barsiisaa	-3135
▁Caalaatti	-3136
▁qabaachuun	-3137
▁bilcheessuun	-3138
aaw	-3139
ibu	-3140
raw	-3141
▁Ana	-3142
▁Kir	-3143
▁Tur	-3144
▁fii	-3145
tonni	-3146
▁Fiig	-3147
▁cufe	-3148
▁Daaww	-3149
▁gaara	-3150
▁siyaa	-3151
▁tolle	-3152
▁umrii	-3153
▁Galmee	-3154
▁bahuun	-3155
▁gubbaa	-3156
▁qophii	-3157
▁duubaan	-3158
▁hubanne	-3159
▁ilaalte	-3160
▁keetiin	-3161
▁fakkaataa	-3162
▁amanamummaa	-3163
abb	-3164
chii	-3165
unni	-3166
▁Bad	-3167
▁fee	-3168
▁laf	-3169
llama	-3170
▁fida	-3171
▁ibsa	-3172
▁qama	-3173
aansii	-3174
atanii	-3175
▁Ergaa	-3176
▁Keess	-3177
▁baatu	-3178
▁dubar	-3179
▁haati	-3180
▁yaali	-3181
▁Qamisa	-3182
▁dhagaa	-3183
▁jajjab	-3184
▁Hafuura	-3185
▁gammadu	-3186
▁gitaara	-3187
▁sakatta	-3188
▁taphata	-3189
▁Miillaan	-3190
▁dubbatin	-3191
▁fudhannu	-3192
▁isaatiif	-3193
▁barsiisuu	-3194
▁tiraafikaa	-3195
▁Guutummaatti	-3196
eeb	-3197
ger	-3198
tis	-3199
▁on	-3200
▁Gon	-3201
▁arr	-3202
qqoll	-3203
ttiin	-3204
▁Beek	-3205
▁Call	-3206
▁Jaar	-3207
▁Joon	-3208
▁gahu	-3209
▁milk	-3210
atamne	-3211
▁fufuu	-3212
▁gaabb	-3213
▁wanta	-3214
▁Kanaan	-3215
▁Umurii	-3216
▁jennee	-3217
▁jijjii	-3218
▁Carraan	-3219
▁Hoteela	-3220
▁kaardii	-3221
▁taasisa	-3222
▁ulfaata	-3223
▁Waggoota	-3224
▁dhiheesse	-3225
▁mudateera	-3226
▁buufataatti	-3227
▁ijoollummaa	-3228
ttu	-3229
aase	-3230
eell	-3231
fama	-3232
▁Taa	-3233
iinsa	-3234
▁wagg	-3235
arreen	-3236
▁Nagaa	-3237
▁hawwa	-3238
▁lamaa	-3239
qqolloo	-3240
▁Daftee	-3241
▁Karaan	-3242
▁aangoo	-3243
▁beekan	-3244
▁beekee	-3245
▁darbuu	-3246
▁lubbuu	-3247
duraalee	-3248
kkeettii	-3249
▁Kopheen	-3250
▁Qoricha	-3251
▁baranne	-3252
▁jiraate	-3253
▁wallaal	-3254
▁Ayyaanni	-3255
▁Daraaraa	-3256
▁Dubartii	-3257
▁Gaaffiin	-3258
▁Gonkumaa	-3259
▁Kanaadaa	-3260
▁barreess	-3261
▁deebisuu	-3262
▁jaalalaa	-3263
▁dubbisuun	-3264
▁hojjettee	-3265
▁mallattoo	-3266
▁agarsiisuu	-3267
▁If	-3268
▁Re	-3269
▁ko	-3270
roon	-3271
▁Eeg	-3272
▁dug	-3273
▁muk	-3274
tutti	-3275
▁kaaf	-3276
▁leen	-3277
▁taan	-3278
▁Sitti	-3279
▁baate	-3280
▁kanan	-3281
▁samii	-3282
attanii	-3283
▁Haasaa	-3284
▁argite	-3285
▁battal	-3286
▁eeguun	-3287
▁mirgaa	-3288
▁Gabaasa	-3289
▁biratti	-3290
▁bitatte	-3291
▁Sirritti	-3292
▁kamiinuu	-3293
▁qabeenya	-3294
▁kudhaniin	-3295
▁dhukkubbii	-3296
qe	-3297
sin	-3298
aamp	-3299
ekon	-3300
ilab	-3301
ddoon	-3302
ulluu	-3303
▁Hiik	-3304
▁raaf	-3305
▁sirb	-3306
ekondii	-3307
▁dubbii	-3308
▁himuun	-3309
▁hinaaf	-3310
▁murtaa	-3311
▁qabdan	-3312
▁Ammatti	-3313
▁hundaan	-3314
▁shaayii	-3315
▁hayyamamu	-3316
▁dabalataan	-3317
▁dhumarratti	-3318
▁keessanitti	-3319
▁Xiyyeeffannoo	-3320
aw	-3321
eey	-3322
▁Fa	-3323
▁Or	-3324
▁oo	-3325
gaan	-3326
▁Roo	-3327
▁far	-3328
indaa	-3329
▁Siin	-3330
▁Taak	-3331
▁Tola	-3332
▁boba	-3333
eessii	-3334
▁deegg	-3335
▁maraa	-3336
▁Dadhab	-3337
▁awwaal	-3338
▁deebif	-3339
▁jedhan	-3340
▁murtii	-3341
anneerra	-3342
▁ajjeese	-3343
▁qamadii	-3344
▁barsiisa	-3345
▁tokkodha	-3346
▁xumurame	-3347
▁Gammachuu	-3348
▁gaarummaa	-3349
▁bishaaniin	-3350
omboleettiin	-3351
▁Akaakayyuun	-3352
▁dhageessanii	-3353
el	-3354
dde	-3355
▁sib	-3356
aanne	-3357
ddaan	-3358
eetti	-3359
▁baat	-3360
▁kute	-3361
▁Deemi	-3362
▁ciisee	-3363
▁idilee	-3364
▁sareen	-3365
▁shakka	-3366
▁Gurbaan	-3367
▁Tokkoon	-3368
▁Uffanni	-3369
▁amantaa	-3370
▁dabalaa	-3371
▁kaasuun	-3372
▁xumuruu	-3373
▁Waajjira	-3374
▁amansiis	-3375
▁godhinaa	-3376
▁hundarra	-3377
▁uffachuu	-3378
▁barnootaa	-3379
▁Awurooppaa	-3380
▁baradheera	-3381
▁jijjiirama	-3382
▁jijjiirame	-3383
▁tarkaanfii	-3384
ddu	-3385
▁Fu	-3386
tion	-3387
▁Him	-3388
▁Jarm	-3389
▁Naaf	-3390
▁Tole	-3391
▁bare	-3392
▁Teess	-3393
▁jabaa	-3394
▁Doonii	-3395
▁qabatu	-3396
▁qajeel	-3397
▁Manneen	-3398
▁barbaad	-3399
▁Minjaala	-3400
▁Dhiheenya	-3401
▁Ulfaatina	-3402
▁injifachuu	-3403
▁jaallattan	-3404
ami	-3405
vii	-3406
▁ce	-3407
aguu	-3408
▁Moo	-3409
▁abd	-3410
▁Dhiy	-3411
▁malu	-3412
atamuu	-3413
immaan	-3414
ooniin	-3415
▁Balal	-3416
▁Injif	-3417
▁badii	-3418
▁dhuge	-3419
▁dhibaa	-3420
▁fakkii	-3421
▁sochii	-3422
▁baradhe	-3423
▁daabboo	-3424
▁dhuftee	-3425
▁kireeff	-3426
▁koochoo	-3427
▁meetira	-3428
▁sanarra	-3429
▁Jechoota	-3430
▁Waraanni	-3431
▁Xalayaan	-3432
▁caaludha	-3433
▁gaggeeff	-3434
▁xumuruuf	-3435
▁fayyadamu	-3436
▁muuxannoo	-3437
▁tikkeettii	-3438
▁nuffisiisaa	-3439
▁mirkaneessuu	-3440
▁suukaneessaa	-3441
▁dhaggeeffachuu	-3442
doo	-3443
erii	-3444
ziin	-3445
▁Kuf	-3446
chiif	-3447
iisha	-3448
sanii	-3449
unyoo	-3450
▁Adaa	-3451
▁bane	-3452
▁digd	-3453
▁hate	-3454
▁muda	-3455
▁kamtu	-3456
aayilii	-3457
iyyaara	-3458
▁Poolis	-3459
▁baasee	-3460
▁deemin	-3461
▁dhaqee	-3462
▁hirmaa	-3463
▁ittiin	-3464
▁sibiil	-3465
▁cufamee	-3466
▁fuudhuu	-3467
▁lammata	-3468
▁seeraan	-3469
▁turetti	-3470
▁waraana	-3471
▁xixiqqoo	-3472
▁Akkaataan	-3473
▁qabachuuf	-3474
▁barattoota	-3475
▁tilmaamuun	-3476
itu	-3477
fame	-3478
qqii	-3479
▁Cim	-3480
▁Riq	-3481
▁oom	-3482
▁pil	-3483
diruu	-3484
ullaa	-3485
▁Laga	-3486
▁kuuf	-3487
▁mars	-3488
▁walq	-3489
aannee	-3490
aartii	-3491
▁dhuga	-3492
▁shaak	-3493
aateera	-3494
▁Kottaa	-3495
▁argatu	-3496
▁dhibba	-3497
▁mannaa	-3498
▁oomish	-3499
▁tasuma	-3500
aleessaa	-3501
atteetti	-3502
orgommii	-3503
▁daldala	-3504
▁deemtee	-3505
▁hayyamu	-3506
▁miidhaa	-3507
▁Ingiliff	-3508
▁Teessoon	-3509
▁bilbilli	-3510
▁dhiibbaa	-3511
▁eeggadha	-3512
▁hordofaa	-3513
▁Yaadannoo	-3514
▁argateera	-3515
▁ciisichaa	-3516
▁dhaabatee	-3517
▁Dhugumatti	-3518
▁garaagarummaa	-3519
tama	-3520
▁jaa	-3521
amiin	-3522
▁Siif	-3523
▁Yeen	-3524
▁ciif	-3525
▁faay	-3526
▁baasu	-3527
▁haroo	-3528
▁ofuma	-3529
▁qofti	-3530
achiisa	-3531
iironni	-3532
▁balaan	-3533
▁biyyaa	-3534
▁keekii	-3535
▁ummata	-3536
▁Adeerri	-3537
▁Mallatt	-3538
▁dandama	-3539
▁simbirr	-3540
▁taphatu	-3541
▁Qaruuraa	-3542
▁beekamaa	-3543
▁deebitee	-3544
▁jedhanii	-3545
▁yaaleera	-3546
▁Xiyyaarri	-3547
▁barreessa	-3548
▁jaalalaan	-3549
▁jalqabaaf	-3550
▁xumureera	-3551
▁guutameera	-3552
▁murteessuu	-3553
he	-3554
and	-3555
ibe	-3556
atni	-3557
juun	-3558
▁Arg	-3559
▁Tom	-3560
laqaa	-3561
▁Barn	-3562
▁Boor	-3563
▁biyy	-3564
ariisa	-3565
▁dhaqe	-3566
▁duraa	-3567
▁gurra	-3568
▁rafee	-3569
▁beekaa	-3570
▁hantuu	-3571
▁jiruuf	-3572
▁ruuzii	-3573
▁Dhaabba	-3574
▁Tasumaa	-3575
▁duratti	-3576
▁guutuun	-3577
▁kaffala	-3578
▁nyaannu	-3579
▁rakkisa	-3580
▁tureera	-3581
▁dubbadha	-3582
▁akkanatti	-3583
▁gaddisiisa	-3584
▁taphachuun	-3585
▁dogoggoraan	-3586
▁qaxxaamuree	-3587
▁xiyyeeffannaa	-3588
▁konkolaachisaa	-3589
ong	-3590
ohin	-3591
tton	-3592
▁Liq	-3593
ataaf	-3594
innoo	-3595
▁Buuf	-3596
▁Irra	-3597
▁haqa	-3598
▁kall	-3599
▁obsa	-3600
jjirri	-3601
oolfii	-3602
▁Gatii	-3603
▁Kunoo	-3604
▁cufuu	-3605
▁herre	-3606
▁marga	-3607
▁uwwif	-3608
▁fiiguu	-3609
▁qalama	-3610
▁tajaaj	-3611
rawattii	-3612
▁eegalee	-3613
▁olaanaa	-3614
▁darbeera	-3615
▁hordofuu	-3616
▁jaalanne	-3617
▁soogidda	-3618
▁Dhugaadha	-3619
▁fudhadhaa	-3620
▁maallaqaa	-3621
▁magariisa	-3622
▁akkasumaan	-3623
▁hojjetamuu	-3624
▁murteesseen	-3625
▁dhaggeeffachaa	-3626
ooma	-3627
saaf	-3628
teef	-3629
▁Fag	-3630
▁Lam	-3631
▁gog	-3632
siisa	-3633
▁Hidh	-3634
eekiin	-3635
iyoona	-3636
maanni	-3637
▁Lafti	-3638
▁Waaqa	-3639
▁asoos	-3640
▁cufaa	-3641
uushiin	-3642
▁Gamoon	-3643
▁alagaa	-3644
▁galchi	-3645
▁suuqii	-3646
▁barumsi	-3647
▁dhaabba	-3648
▁yookaan	-3649
▁raadiyoo	-3650
▁kolleejjii	-3651
▁barreeffame	-3652
▁Ol	-3653
amti	-3654
ddee	-3655
▁Isp	-3656
arqee	-3657
▁Jeeq	-3658
▁Qoph	-3659
▁dhoo	-3660
▁fokk	-3661
▁Humna	-3662
▁Maash	-3663
▁Ollaa	-3664
▁Shubb	-3665
▁gadda	-3666
▁galte	-3667
achiise	-3668
iidiyoo	-3669
▁Lammii	-3670
▁Miilli	-3671
▁Sammuu	-3672
▁nyaattu	-3673
▁qabudha	-3674
▁uffadhu	-3675
▁Adaadaan	-3676
▁dadhabde	-3677
▁kunuunsa	-3678
▁saffisaa	-3679
▁Kaameeraa	-3680
▁Kaffaltii	-3681
▁Muuxannoo	-3682
▁fuulduratti	-3683
▁obomboleettii	-3684
ay	-3685
ro	-3686
▁Dir	-3687
▁Mul	-3688
▁siq	-3689
aniif	-3690
awaar	-3691
iitii	-3692
▁dhib	-3693
▁hodh	-3694
▁abjoo	-3695
▁barii	-3696
▁dhimm	-3697
▁rasaa	-3698
▁tarii	-3699
▁Dallaa	-3700
▁Hojjet	-3701
▁Miirri	-3702
▁hubatu	-3703
▁jechaa	-3704
▁qabnaa	-3705
▁saaxil	-3706
▁xumura	-3707
▁Jarreen	-3708
▁Kootiin	-3709
▁argatta	-3710
▁baasuun	-3711
▁barataa	-3712
▁dagadhe	-3713
eessaadha	-3714
▁Rifeensi	-3715
▁baaburaa	-3716
▁fudhadhe	-3717
▁hojjenna	-3718
▁tilmaame	-3719
▁dhangalaa	-3720
▁dulloomaa	-3721
▁krawattii	-3722
▁kunuunsuu	-3723
▁Kitaabonni	-3724
▁Yeroodhaan	-3725
▁beeysiboolii	-3726
▁televijiinii	-3727
mm	-3728
eff	-3729
▁Dilb	-3730
▁Paas	-3731
▁balb	-3732
▁bitu	-3733
▁lall	-3734
▁qoon	-3735
▁yakk	-3736
tootaa	-3737
▁afuuf	-3738
▁ajaje	-3739
▁arrab	-3740
▁godhi	-3741
▁rafaa	-3742
▁Harkif	-3743
▁callis	-3744
▁kiisha	-3745
▁lamaaf	-3746
▁Qorichi	-3747
▁dhalate	-3748
▁saddeet	-3749
▁taasise	-3750
▁Asoosama	-3751
▁Lamaanuu	-3752
▁barattuu	-3753
▁gargaare	-3754
▁keenyaaf	-3755
▁liqeesse	-3756
▁siyaasaa	-3757
▁tarkaanf	-3758
▁Dhaabbata	-3759
▁Loltoonni	-3760
▁Waajjirri	-3761
▁bishaanii	-3762
▁dhaabbata	-3763
▁guddachaa	-3764
▁hammaataa	-3765
▁jechuudha	-3766
▁shubbisaa	-3767
▁Kanaafidha	-3768
▁bitadheera	-3769
▁buruushiin	-3770
▁gaafachuun	-3771
▁gargaaruun	-3772
▁Dhukkubbiin	-3773
▁Maariyaamitti	-3774
ixa	-3775
xee	-3776
▁Gi	-3777
▁Mo	-3778
ikii	-3779
▁Bir	-3780
▁Dab	-3781
▁Man	-3782
▁Mir	-3783
▁Mis	-3784
▁Sad	-3785
ameef	-3786
duraa	-3787
sinee	-3788
tanne	-3789
ukaat	-3790
▁Orom	-3791
▁Teen	-3792
▁tura	-3793
▁utuu	-3794
gaaraa	-3795
pitara	-3796
▁eegne	-3797
▁haguu	-3798
▁iskii	-3799
▁sirbi	-3800
ineerra	-3801
▁Fayyaa	-3802
▁Sochii	-3803
▁barame	-3804
▁gaabba	-3805
▁hiikuu	-3806
▁xinnoo	-3807
▁Daandii	-3808
▁Suuraan	-3809
▁dhiigaa	-3810
▁dhuguuf	-3811
▁jedhamu	-3812
▁taaksii	-3813
aarfannaa	-3814
urxummiin	-3815
▁Dhukkuba	-3816
▁sukkaara	-3817
▁Hanqaaquu	-3818
▁Hogganaan	-3819
▁barbaaduu	-3820
▁fudhatama	-3821
▁Ijoollummaa	-3822
▁Obomboleettiin	-3823
sti	-3824
zex	-3825
▁re	-3826
rraa	-3827
▁Aww	-3828
▁Hub	-3829
▁ham	-3830
▁hii	-3831
▁qon	-3832
▁quf	-3833
oorii	-3834
ootti	-3835
tirii	-3836
aannis	-3837
amizii	-3838
▁Anaaf	-3839
▁Ariif	-3840
▁Xumur	-3841
▁cabee	-3842
▁dugda	-3843
▁safuu	-3844
▁hubate	-3845
▁liqimf	-3846
▁sarara	-3847
▁tolchi	-3848
▁Borsaan	-3849
▁Doktora	-3850
▁dhoksaa	-3851
▁dhuftan	-3852
▁guutame	-3853
▁dubbatta	-3854
▁ilaalcha	-3855
▁ajjeesuuf	-3856
▁fudhachaa	-3857
▁yaadannoo	-3858
▁Jijjiirama	-3859
▁daawwachuu	-3860
▁torbanitti	-3861
▁daawwachuuf	-3862
▁odeeffannoo	-3863
▁eeggannoodhaan	-3864
▁jaallatamaadha	-3865
eeti	-3866
tota	-3867
▁Lag	-3868
▁haw	-3869
iiloo	-3870
iinii	-3871
▁Hayy	-3872
▁jaha	-3873
▁shee	-3874
chifne	-3875
isiisu	-3876
▁aanaa	-3877
▁deemi	-3878
▁dhaba	-3879
▁furuu	-3880
▁giddu	-3881
▁muraa	-3882
▁onnee	-3883
▁urjii	-3884
▁cimtee	-3885
▁galata	-3886
▁geesse	-3887
▁qabxii	-3888
▁Deemuun	-3889
▁Waraana	-3890
▁dubbisu	-3891
▁galmaan	-3892
▁qabaman	-3893
▁ulfaate	-3894
garummaan	-3895
▁dhukaasa	-3896
▁injifate	-3897
▁jalqabnu	-3898
▁muraasni	-3899
▁qorannoo	-3900
▁fakkaattu	-3901
▁jaallatan	-3902
▁jaallatta	-3903
▁kaleessaa	-3904
▁dandamachuu	-3905
▁dhukkubsatee	-3906
▁dhukkubsattee	-3907
▁mirkaneeffachuu	-3908
uw	-3909
lof	-3910
▁On	-3911
arsh	-3912
eraa	-3913
qiin	-3914
▁Fir	-3915
▁Kuk	-3916
▁dho	-3917
eerii	-3918
essaa	-3919
▁Soba	-3920
▁faal	-3921
▁kala	-3922
aantii	-3923
ametti	-3924
isiise	-3925
siisaa	-3926
▁aarii	-3927
▁erguu	-3928
▁fanni	-3929
▁gorse	-3930
▁inter	-3931
▁madaa	-3932
▁Amalli	-3933
▁Gowwaa	-3934
▁Qawwee	-3935
▁bittaa	-3936
▁dhaabe	-3937
▁eeguuf	-3938
▁gannaa	-3939
▁guutee	-3940
▁hawwat	-3941
▁maalii	-3942
▁mudatu	-3943
▁saayin	-3944
▁yaadni	-3945
▁Qulqull	-3946
▁jalqabu	-3947
▁miidhuu	-3948
▁soorama	-3949
▁waggaan	-3950
▁yaaleen	-3951
▁ajjeesuu	-3952
▁barsiise	-3953
▁jeequmsa	-3954
▁taphadha	-3955
▁Teenisiin	-3956
▁dubbisuuf	-3957
▁konsartii	-3958
▁Torbanitti	-3959
▁barbaadeen	-3960
▁fakkaachuu	-3961
▁isaaniitti	-3962
▁barumsichaa	-3963
▁sodaachisaa	-3964
lek	-3965
rii	-3966
ilba	-3967
▁Ala	-3968
▁Umm	-3969
▁boh	-3970
▁jii	-3971
▁qux	-3972
aamil	-3973
bilii	-3974
eenyu	-3975
onsar	-3976
▁Shor	-3977
▁eebb	-3978
▁fufi	-3979
▁sobe	-3980
atamaa	-3981
▁Jechi	-3982
▁darbu	-3983
▁fayya	-3984
▁lakki	-3985
iriimii	-3986
▁Abjuun	-3987
▁Jaarsi	-3988
▁Waaree	-3989
▁baraan	-3990
▁kabaja	-3991
▁qullaa	-3992
▁Dilbata	-3993
▁baasuuf	-3994
▁deebitu	-3995
▁guddina	-3996
▁hubadhe	-3997
ibsiifate	-3998
▁Gaazexaa	-3999
▁Hogganaa	-4000
▁Sagantaa	-4001
▁Sekondii	-4002
▁asoosama	-4003
▁banaadha	-4004
▁beekutti	-4005
▁dhagahuu	-4006
▁dubbatan	-4007
▁rakkisuu	-4008
▁sooressa	-4009
▁Kompitara	-4010
▁baratamne	-4011
▁eeggadhaa	-4012
▁hiyyeessa	-4013
▁mootummaa	-4014
iskileetiin	-4015
▁keessattin	-4016
▁hatattamaan	-4017
▁kofalchiisa	-4018
ts	-4019
va	-4020
▁aa	-4021
adoo	-4022
duun	-4023
mail	-4024
xaba	-4025
▁Yuu	-4026
▁kur	-4027
▁qus	-4028
▁quu	-4029
oojii	-4030
▁Heey	-4031
▁dibu	-4032
▁haar	-4033
▁mata	-4034
eeyyii	-4035
▁Cirra	-4036
▁Oduun	-4037
▁hadoo	-4038
▁himtu	-4039
▁hiriy	-4040
▁kolfe	-4041
▁seena	-4042
eenyaan	-4043
▁Ilkaan	-4044
▁Waxaba	-4045
▁argata	-4046
▁duukaa	-4047
▁kaasuu	-4048
▁saanii	-4049
▁warqee	-4050
achiisaa	-4051
▁Jaalala	-4052
▁Koochoo	-4053
▁Manatti	-4054
▁bittaaf	-4055
▁galchuu	-4056
▁lallaaf	-4057
▁mudatee	-4058
▁tolchuu	-4059
▁xiqqaan	-4060
▁yaaddee	-4061
▁akaakayy	-4062
▁dhabeera	-4063
▁eeggadhu	-4064
▁hojjennu	-4065
▁laafessa	-4066
▁miidhame	-4067
▁nyaattan	-4068
▁qabaadhu	-4069
▁Filannoon	-4070
▁Guyyaatti	-4071
▁Meeriitti	-4072
▁Saffisaan	-4073
▁eenyullee	-4074
▁harkifate	-4075
▁hubachuun	-4076
▁bilcheessi	-4077
▁bineensota	-4078
▁jalqabeera	-4079
▁Garaagarummaan	-4080
ita	-4081
jji	-4082
ccaa	-4083
ijii	-4084
isan	-4085
▁Fal	-4086
▁Kon	-4087
aasni	-4088
▁Dand	-4089
▁Ijji	-4090
▁Lola	-4091
▁Saam	-4092
tistii	-4093
▁Farda	-4094
▁Iddoo	-4095
▁ajaja	-4096
▁argan	-4097
▁darba	-4098
▁duree	-4099
▁ganna	-4100
▁jenne	-4101
▁jibbu	-4102
▁morma	-4103
▁mudat	-4104
▁waraa	-4105
▁weell	-4106
▁Gurbaa	-4107
▁aartii	-4108
▁dhabne	-4109
▁waldaa	-4110
▁Kompiit	-4111
▁Meeriif	-4112
▁Walitti	-4113
▁baradha	-4114
▁dagadhu	-4115
▁deemnee	-4116
▁deemtaa	-4117
▁maallaq	-4118
▁sirnaan	-4119
▁xuuxuun	-4120
▁gaafanne	-4121
▁gaazexaa	-4122
▁nyaadhee	-4123
▁sirritti	-4124
▁barbaaddi	-4125
▁bashannan	-4126
▁bohaartii	-4127
▁fakkaatti	-4128
▁guyyaatti	-4129
▁Dhukkubbii	-4130
▁Meeshaalee	-4131
▁jaallachuu	-4132
▁yaabbachuu	-4133
▁Biskileetiin	-4134
▁qulqulluudha	-4135
ist	-4136
andh	-4137
ofaa	-4138
▁isk	-4139
agaan	-4140
oofaa	-4141
▁Baga	-4142
▁bahe	-4143
▁rafa	-4144
koolii	-4145
neetii	-4146
▁Shakk	-4147
▁Sirna	-4148
▁boqon	-4149
▁warri	-4150
ojektii	-4151
▁Fakkii	-4152
▁adeera	-4153
▁argitu	-4154
▁barruu	-4155
▁burjaa	-4156
▁dambal	-4157
▁dhabee	-4158
▁dhufee	-4159
▁dhuunf	-4160
▁dirqis	-4161
▁furuuf	-4162
▁guddif	-4163
▁jabina	-4164
▁jiidha	-4165
▁karaan	-4166
▁kolfuu	-4167
▁Bineens	-4168
▁Taaksii	-4169
▁xumurre	-4170
varsiitii	-4171
▁beellama	-4172
▁jechoota	-4173
▁jedhamee	-4174
▁shamizii	-4175
▁Waxabajjii	-4176
▁guddaadhaan	-4177
▁Dhaabbatichi	-4178
ss	-4179
tr	-4180
alk	-4181
muu	-4182
qaq	-4183
dhim	-4184
elaa	-4185
immi	-4186
maat	-4187
▁Aja	-4188
▁Lan	-4189
eezii	-4190
famee	-4191
▁Suur	-4192
▁alar	-4193
▁qabe	-4194
▁Deebi	-4195
▁Kunis	-4196
▁duras	-4197
▁manni	-4198
eessine	-4199
tukaana	-4200
▁Dhufuu	-4201
▁Landan	-4202
▁Ofitti	-4203
▁Saayin	-4204
▁barate	-4205
▁cimsee	-4206
▁dhabde	-4207
▁diriir	-4208
▁fiigaa	-4209
▁taasif	-4210
▁Daldala	-4211
▁baradhu	-4212
▁dhaquuf	-4213
▁saffisa	-4214
▁Buufatni	-4215
▁Jarmanii	-4216
▁amansiif	-4217
▁fuudhuuf	-4218
▁gahaadha	-4219
▁hadoochu	-4220
▁hantuuta	-4221
▁hayyamuu	-4222
▁kenneera	-4223
▁raawwate	-4224
▁Dhukkubni	-4225
▁barreessu	-4226
▁hojiirraa	-4227
▁ijoolleen	-4228
▁milkoofne	-4229
attaniittuu	-4230
▁Qurxummiin	-4231
▁carraaqqii	-4232
▁dubbiseera	-4233
▁gaddisiisaa	-4234
luu	-4235
uune	-4236
▁Dug	-4237
▁gib	-4238
agdee	-4239
chaaf	-4240
iftii	-4241
▁Dhuk	-4242
▁Quba	-4243
▁elek	-4244
▁jaam	-4245
▁qora	-4246
tichaa	-4247
ukkeen	-4248
▁Aduun	-4249
▁Baree	-4250
▁bakki	-4251
▁bitte	-4252
▁oofaa	-4253
▁rafne	-4254
▁Kootii	-4255
▁Muuziq	-4256
▁Oromoo	-4257
▁Tarree	-4258
▁aansee	-4259
▁chokol	-4260
▁dhihaa	-4261
▁dhiisa	-4262
▁tolche	-4263
▁Dhugaan	-4264
▁Lammata	-4265
▁Paarkii	-4266
▁Riqichi	-4267
▁barsiif	-4268
▁bitanne	-4269
▁carraan	-4270
▁dabarsa	-4271
▁dambali	-4272
▁jedhiin	-4273
▁kunneen	-4274
▁manneen	-4275
▁qabneef	-4276
▁qophoof	-4277
▁saawwan	-4278
▁sodaata	-4279
▁burjaaja	-4280
▁dhukkube	-4281
▁fagoodha	-4282
▁fokkisaa	-4283
▁furmaata	-4284
▁haasofne	-4285
▁hammamii	-4286
▁jijjiiru	-4287
▁jiraadhu	-4288
▁jiraatan	-4289
▁kuufamaa	-4290
▁muuziyee	-4291
▁qabattee	-4292
▁bilbiluun	-4293
▁gadhiisuu	-4294
▁hojjetamu	-4295
▁Hospitaala	-4296
▁chokoleetii	-4297
▁konkolaataan	-4298
ip	-4299
ut	-4300
ari	-4301
ver	-4302
▁or	-4303
oomi	-4304
tara	-4305
▁Hat	-4306
▁Mas	-4307
▁Sob	-4308
▁Tiy	-4309
▁gee	-4310
▁kor	-4311
geree	-4312
iixee	-4313
ticha	-4314
▁Fayy	-4315
▁ibse	-4316
▁jilb	-4317
eechaa	-4318
▁Bunni	-4319
▁Dafii	-4320
▁Dugda	-4321
▁Kukii	-4322
▁Meeqa	-4323
▁akeek	-4324
▁sirna	-4325
alkanii	-4326
▁Dhagaa	-4327
▁Eessaa	-4328
▁eebbif	-4329
▁jaamaa	-4330
▁yaalne	-4331
qaqsanii	-4332
▁Walaloo	-4333
▁argitan	-4334
▁beekuuf	-4335
▁dhuguun	-4336
▁dubbisa	-4337
▁fedhiin	-4338
▁filadhu	-4339
▁hoteela	-4340
▁dhiphina	-4341
▁ilaalamu	-4342
▁michoota	-4343
▁Daraaraan	-4344
▁Dhiironni	-4345
▁fuulduraa	-4346
▁gammaddan	-4347
▁xumuramuu	-4348
▁Pirezidaan	-4349
▁Qorqorroon	-4350
▁taphachuuf	-4351
▁Dubartoonni	-4352
▁argiteettaa	-4353
▁gargaareera	-4354
zz	-4355
orri	-4356
unaa	-4357
▁Bur	-4358
anaaf	-4359
nikii	-4360
seera	-4361
ummii	-4362
yyoon	-4363
▁Gudd	-4364
▁badh	-4365
▁bool	-4366
▁dibe	-4367
alleen	-4368
ooftaa	-4369
▁Boqon	-4370
▁Gabaa	-4371
▁Sunis	-4372
▁Urgaa	-4373
▁aadaa	-4374
▁ammoo	-4375
▁galch	-4376
▁galma	-4377
▁kadha	-4378
▁mukaa	-4379
▁ollaa	-4380
ariitii	-4381
ukaatoo	-4382
▁Hantuu	-4383
▁banuun	-4384
▁ciisuu	-4385
▁dhandh	-4386
▁feetan	-4387
▁taphaa	-4388
▁Bashann	-4389
▁Hayyama	-4390
▁dhufuuf	-4391
▁dhugoom	-4392
▁gahumsa	-4393
▁ittisuu	-4394
▁kenname	-4395
▁kennitu	-4396
▁Duubatti	-4397
▁dhiisuuf	-4398
▁gammadde	-4399
▁irrattis	-4400
▁keenyaan	-4401
▁komachuu	-4402
▁koobilii	-4403
▁qabsiise	-4404
▁qunnamuu	-4405
▁sodaadhu	-4406
▁Dubartiin	-4407
▁bilbilame	-4408
▁dhiqannaa	-4409
▁gurgurtaa	-4410
▁ispoortii	-4411
▁ooltummaa	-4412
▁yaaddessa	-4413
▁Lammiileen	-4414
▁balaadhaaf	-4415
▁nuffisiisa	-4416
▁Barreeffama	-4417
▁Kompiitarri	-4418
▁dhukkubbiin	-4419
▁gammachiise	-4420
▁waliigaltee	-4421
▁hojjetteetta	-4422
wa	-4423
arf	-4424
ess	-4425
ind	-4426
atuu	-4427
dina	-4428
lloo	-4429
oork	-4430
▁Gan	-4431
▁yom	-4432
aniin	-4433
▁Diin	-4434
▁Sirb	-4435
▁ibsu	-4436
▁sada	-4437
chisee	-4438
ootaan	-4439
▁Badii	-4440
▁Biqil	-4441
▁Herre	-4442
▁Lagni	-4443
▁dhume	-4444
▁falma	-4445
▁ganda	-4446
▁hafuu	-4447
▁kaans	-4448
▁oolle	-4449
▁ragaa	-4450
▁sadan	-4451
▁Qabxii	-4452
▁Sirrii	-4453
▁beekti	-4454
▁deemti	-4455
▁haarom	-4456
▁hatame	-4457
▁ilaali	-4458
▁seenin	-4459
▁yaaltu	-4460
▁Daabboo	-4461
▁cheezii	-4462
▁dhufuun	-4463
▁galchaa	-4464
▁goolfii	-4465
▁himeera	-4466
▁jilbeen	-4467
▁kennuuf	-4468
▁miiccaa	-4469
▁Fiigicha	-4470
▁Hojiitti	-4471
▁Muuziyee	-4472
▁Qabeenya	-4473
▁argachaa	-4474
▁dhaamsuu	-4475
▁dheeraan	-4476
▁jiraatin	-4477
▁jiraatti	-4478
▁sagantaa	-4479
▁boqqolloo	-4480
▁dirqisiis	-4481
▁rakkachaa	-4482
▁Dhugumayyuu	-4483
▁dhaabbachuu	-4484
▁ilaalchisee	-4485
▁sodaadheera	-4486
▁barbaachifne	-4487
iiw	-4488
tni	-4489
▁Di	-4490
essu	-4491
ogaa	-4492
shur	-4493
wiit	-4494
▁fid	-4495
▁jah	-4496
zinaa	-4497
▁Ibsa	-4498
▁Kubb	-4499
▁Leen	-4500
▁Niiw	-4501
▁bubb	-4502
▁gamm	-4503
ilabii	-4504
▁dhiir	-4505
▁email	-4506
▁gadde	-4507
▁manca	-4508
▁yakka	-4509
alaatti	-4510
▁Barbaa	-4511
▁Dhohin	-4512
▁himame	-4513
▁ifatti	-4514
▁kiiloo	-4515
▁qofaan	-4516
▁walakk	-4517
▁yommuu	-4518
▁Kaayyoo	-4519
▁Kubbaan	-4520
▁Walumaa	-4521
▁baratte	-4522
▁dabarsu	-4523
▁yaaddan	-4524
▁Meeshaan	-4525
▁beeksisa	-4526
▁dursitee	-4527
▁fageenya	-4528
▁fudhatte	-4529
▁jijjiire	-4530
▁kabajuuf	-4531
▁kufaatii	-4532
▁yakkamaa	-4533
▁Sirriitti	-4534
▁biraatiin	-4535
▁dabarsine	-4536
▁jaallanna	-4537
▁jaallanne	-4538
▁lallaafaa	-4539
▁tokkoffaa	-4540
▁gaafatamaa	-4541
▁jiraachuuf	-4542
▁Meeshaaleen	-4543
▁barbaachise	-4544
▁bineensotaa	-4545
▁Simbirroonni	-4546
▁poostaadhaan	-4547
▁qulqulleessi	-4548
ent	-4549
per	-4550
uni	-4551
tiri	-4552
▁Ajj	-4553
essuu	-4554
micha	-4555
siisu	-4556
uusaa	-4557
▁Goww	-4558
▁anga	-4559
▁baal	-4560
▁cufi	-4561
▁duum	-4562
▁galg	-4563
▁tuul	-4564
▁Harki	-4565
▁aduun	-4566
▁duute	-4567
▁eegdu	-4568
▁hiike	-4569
▁himee	-4570
▁sheel	-4571
▁sirbu	-4572
galatti	-4573
▁Qophii	-4574
▁Sanaaf	-4575
▁baqate	-4576
▁beelof	-4577
▁dhorke	-4578
▁guddoo	-4579
▁maqaan	-4580
▁nagaan	-4581
▁Tarkaan	-4582
▁eenyuuf	-4583
▁galaana	-4584
▁kanaati	-4585
▁keelloo	-4586
▁dhaladhe	-4587
▁dubbanna	-4588
▁filachuu	-4589
▁gammadaa	-4590
▁halkanii	-4591
▁jilbeenf	-4592
▁jiraattu	-4593
▁qabadhaa	-4594
▁rukutame	-4595
▁viidiyoo	-4596
▁yaadattu	-4597
▁dhiqachuu	-4598
▁konkolaat	-4599
▁miliyoona	-4600
▁Mootummaan	-4601
▁fayyadamaa	-4602
▁Hatattamaan	-4603
▁dhukkubsate	-4604
▁kennitaniif	-4605
▁yaadachiisa	-4606
▁xiyyaaraatti	-4607
▁suukaneessaadha	-4608
yii	-4609
▁Af	-4610
dhab	-4611
reen	-4612
▁Kor	-4613
▁Qon	-4614
▁Qub	-4615
▁bin	-4616
aakee	-4617
aangu	-4618
ggaas	-4619
ikaan	-4620
imman	-4621
▁Beey	-4622
▁Giif	-4623
▁fann	-4624
▁qood	-4625
atudha	-4626
▁Jaakk	-4627
▁Yuuni	-4628
▁hotee	-4629
▁jilba	-4630
▁sabab	-4631
▁sobaa	-4632
▁tolch	-4633
▁turaa	-4634
amtoota	-4635
▁Adaraa	-4636
▁Barruu	-4637
▁Saanii	-4638
▁darban	-4639
▁deddee	-4640
▁dhufta	-4641
▁haasaa	-4642
▁sobduu	-4643
▁waliig	-4644
▁xumure	-4645
toobisii	-4646
wiiterii	-4647
▁Dooniin	-4648
▁Lubbuun	-4649
▁amantii	-4650
▁argatan	-4651
▁gabaasa	-4652
▁raggaas	-4653
▁shawaar	-4654
▁sodaate	-4655
▁yaadame	-4656
onsartiin	-4657
▁Jaalalli	-4658
▁Raadiyoo	-4659
▁caccabee	-4660
▁dhihaate	-4661
▁dubbatti	-4662
▁hojjetta	-4663
▁jalqabee	-4664
▁jedhetti	-4665
▁taphataa	-4666
▁xumurama	-4667
▁bilbilaan	-4668
▁eessayyuu	-4669
▁fakkaatuu	-4670
▁galatoomi	-4671
▁dhungachuu	-4672
▁amansiisuuf	-4673
▁interneetii	-4674
▁qaxxaamuraa	-4675
▁dargaggummaa	-4676
▁jaalladhudha	-4677
▁galateeffadha	-4678
▁Walumaagalatti	-4679
pii	-4680
ibni	-4681
omaa	-4682
ottu	-4683
tive	-4684
xiin	-4685
▁Mar	-4686
▁Saf	-4687
▁Til	-4688
▁icc	-4689
aawun	-4690
alaqq	-4691
ddeen	-4692
▁Haww	-4693
▁hafu	-4694
▁hanq	-4695
▁huba	-4696
▁qufa	-4697
▁yuni	-4698
amanii	-4699
siyoon	-4700
▁Cidha	-4701
▁boruu	-4702
▁ciise	-4703
▁diina	-4704
▁haxaa	-4705
▁kolfa	-4706
▁kutuu	-4707
▁qajee	-4708
▁torba	-4709
▁Baasii	-4710
▁Paaris	-4711
▁Qajeel	-4712
▁egeree	-4713
▁garaan	-4714
▁himtee	-4715
▁qabuun	-4716
aaliyaan	-4717
▁Doktara	-4718
▁Waaqayy	-4719
▁arganna	-4720
▁badeera	-4721
▁bidiruu	-4722
▁dhadhaa	-4723
▁geessan	-4724
▁geessuu	-4725
▁kaffalu	-4726
▁keetiif	-4727
▁lamatti	-4728
▁walaloo	-4729
▁Barnoota	-4730
▁Doolaara	-4731
▁Kaayyoon	-4732
▁Piyaanoo	-4733
▁callisee	-4734
▁duraanuu	-4735
▁fudhattu	-4736
▁hedduutu	-4737
▁jiraanna	-4738
▁kaameraa	-4739
▁keessumm	-4740
shuraansii	-4741
▁Asoosamni	-4742
▁deebisuuf	-4743
▁eegaleera	-4744
▁fagaachuu	-4745
▁gurguddoo	-4746
▁kaffaluuf	-4747
▁qabachuun	-4748
▁qunnamtii	-4749
▁Dandeettii	-4750
▁Dhaabbanni	-4751
▁Dhiyeessii	-4752
▁Waliigaltee	-4753
▁dulloomeera	-4754
▁Hojjettoonni	-4755
▁fuulduraatti	-4756
ic	-4757
ow	-4758
xe	-4759
ddug	-4760
oora	-4761
▁Isk	-4762
▁Min	-4763
▁Mor	-4764
bbeen	-4765
itiin	-4766
kirri	-4767
oogii	-4768
▁Wagg	-4769
▁chaa	-4770
▁dirq	-4771
▁kurn	-4772
aasaan	-4773
aayiin	-4774
attuun	-4775
yiniin	-4776
▁Haasa	-4777
▁Yakka	-4778
▁Yoork	-4779
▁bobba	-4780
▁dursa	-4781
▁jennu	-4782
▁Halluu	-4783
▁Ifatti	-4784
▁Suuqii	-4785
▁Tasgab	-4786
▁boolla	-4787
▁dhaabu	-4788
▁funyoo	-4789
▁gadhee	-4790
▁hodhuu	-4791
▁ibiddi	-4792
▁madaal	-4793
▁mararf	-4794
▁miidhe	-4795
▁mindaa	-4796
▁qabsaa	-4797
▁qofaaf	-4798
▁Baankii	-4799
▁Yaaluun	-4800
▁abdannu	-4801
▁beekuun	-4802
▁deebinu	-4803
▁fagaata	-4804
▁ilaalan	-4805
▁kaffale	-4806
▁rukutte	-4807
▁sodaatu	-4808
▁uumamaa	-4809
▁yaaduun	-4810
▁Dhukaasa	-4811
▁Faayidaa	-4812
▁dhiistee	-4813
▁elektiri	-4814
▁jalqabne	-4815
▁maayilii	-4816
▁xiyyaara	-4817
▁xumuruun	-4818
▁Akkanatti	-4819
▁Dhaggeeff	-4820
▁Tikeetiin	-4821
▁qophiidha	-4822
▁shubbisuu	-4823
▁weellisaa	-4824
▁Barbaachis	-4825
▁Maashiniin	-4826
▁gaariidhaa	-4827
▁raawwatame	-4828
▁sirreessuuf	-4829
▁qulqulleessuun	-4830
ge	-4831
000	-4832
ers	-4833
ick	-4834
zaa	-4835
▁sp	-4836
▁Jim	-4837
▁Kib	-4838
aasti	-4839
ulfii	-4840
▁Gama	-4841
▁absh	-4842
▁adam	-4843
▁galm	-4844
aansoo	-4845
▁Daree	-4846
▁Ragaa	-4847
▁amane	-4848
▁baala	-4849
▁farda	-4850
▁firii	-4851
▁goona	-4852
▁hafne	-4853
amnedha	-4854
iknikii	-4855
oolessa	-4856
▁Gaarii	-4857
▁Ibiddi	-4858
▁Ispeen	-4859
▁Murtee	-4860
▁Tilmaa	-4861
▁amanee	-4862
▁cabsee	-4863
▁dagate	-4864
▁eegeen	-4865
▁fuudhe	-4866
aaqanaaf	-4867
▁Boorsaa	-4868
▁baratta	-4869
▁dabaluu	-4870
▁dhabdee	-4871
▁gaafata	-4872
▁masaraa	-4873
▁Kanaafuu	-4874
▁aksiyoon	-4875
▁bitaatti	-4876
▁chaappaa	-4877
▁dhufutti	-4878
▁gammaduu	-4879
▁heerumte	-4880
▁hojiirra	-4881
▁ijaarame	-4882
▁ilaaleen	-4883
▁imimmaan	-4884
▁saddeeti	-4885
▁kaffaluun	-4886
▁shamarran	-4887
▁Faarfannaa	-4888
▁Gammachuun	-4889
▁Keessattuu	-4890
▁Konsartiin	-4891
▁amansiisuu	-4892
▁bashannana	-4893
▁dhugaadhaa	-4894
▁hirmaachuu	-4895
▁kuduraalee	-4896
▁raawwachuu	-4897
▁taasiseera	-4898
▁Jijjiiramni	-4899
▁Faransaayitti	-4900
▁galateeffachuu	-4901
gni	-4902
ous	-4903
qni	-4904
situ	-4905
▁Baq	-4906
▁Muk	-4907
▁dog	-4908
oolee	-4909
umaaf	-4910
▁daan	-4911
▁falf	-4912
▁fidu	-4913
▁jaar	-4914
▁ulee	-4915
▁Ajaja	-4916
▁Galat	-4917
▁Gamoo	-4918
▁Hotee	-4919
▁Sodaa	-4920
▁aaree	-4921
▁dhala	-4922
▁dheeb	-4923
▁hafan	-4924
▁harki	-4925
▁kanas	-4926
▁qubee	-4927
eesseen	-4928
imaatti	-4929
jjabbii	-4930
▁Haroon	-4931
▁Ibidda	-4932
▁Lubbuu	-4933
▁Ollaan	-4934
▁birraa	-4935
▁ciccim	-4936
▁dhugne	-4937
▁gabaab	-4938
▁galche	-4939
▁kaasaa	-4940
▁mudata	-4941
amtoonni	-4942
▁godhame	-4943
▁isheeti	-4944
▁kaadhim	-4945
▁Tiyoorii	-4946
▁Waaqayyo	-4947
▁alkoolii	-4948
▁bineensa	-4949
▁cimsitee	-4950
▁dhibbeen	-4951
▁dinagdee	-4952
▁duumessa	-4953
▁guddadhe	-4954
▁icciitii	-4955
▁piknikii	-4956
▁qusachuu	-4957
▁Qorannoon	-4958
▁battaluma	-4959
▁ciniiname	-4960
▁jaalladhe	-4961
▁akaakayyuu	-4962
▁murteessee	-4963
▁Barreessaan	-4964
▁elektirikii	-4965
▁harkifachuu	-4966
▁marsariitii	-4967
▁rakkadheera	-4968
▁Barreeffamni	-4969
▁Dargaggoonni	-4970
▁Jaappaanitti	-4971
▁battalumatti	-4972
▁dhukkubsataa	-4973
▁karoorfadheera	-4974
aap	-4975
eel	-4976
abal	-4977
qqee	-4978
▁Bof	-4979
▁Erg	-4980
▁Hii	-4981
alaaf	-4982
amtuu	-4983
arvii	-4984
▁Haal	-4985
▁diig	-4986
▁gagg	-4987
aroota	-4988
irraan	-4989
▁Agars	-4990
▁Gorsi	-4991
▁Mukti	-4992
▁aarsa	-4993
▁galan	-4994
▁guute	-4995
▁yaadi	-4996
atamaan	-4997
▁Dursee	-4998
▁Maamil	-4999
▁button	-5000
▁cufame	-5001
▁dubbif	-5002
▁ilaall	-5003
▁kottaa	-5004
▁piizaa	-5005
▁poolii	-5006
▁seenan	-5007
▁seente	-5008
▁Asirraa	-5009
▁alarjii	-5010
▁angafaa	-5011
▁bilbilu	-5012
▁deeggar	-5013
▁eenyuun	-5014
▁funyaan	-5015
▁hubattu	-5016
▁midhaan	-5017
▁qabadha	-5018
▁Ilaalcha	-5019
▁deddeebi	-5020
▁dubbisne	-5021
▁gaafatan	-5022
▁guutamee	-5023
▁jalqaban	-5024
▁kaazinaa	-5025
▁kunuunsu	-5026
▁sheelfii	-5027
▁Addunyaan	-5028
▁Bilbilaan	-5029
▁Dukkaanni	-5030
▁ajjeechaa	-5031
▁bilbiluuf	-5032
▁biyyattii	-5033
▁fagaadhaa	-5034
▁gargaarsi	-5035
▁guddaatti	-5036
▁jalqabuuf	-5037
▁maraattee	-5038
▁Gargaaruuf	-5039
▁dubartoota	-5040
▁jijjiiramu	-5041
▁kitaabicha	-5042
▁kudhanitti	-5043
▁Bineensonni	-5044
▁murteessite	-5045
▁dhaggeeffadhaa	-5046
fi	-5047
sk	-5048
huu	-5049
▁Ja	-5050
▁Qo	-5051
aama	-5052
uggu	-5053
▁Raf	-5054
▁ach	-5055
▁riq	-5056
aalii	-5057
aannu	-5058
iraaf	-5059
istii	-5060
▁Bakk	-5061
▁Chaa	-5062
▁Faay	-5063
▁Kaba	-5064
▁Obsa	-5065
▁adaa	-5066
▁bule	-5067
▁gogg	-5068
▁qara	-5069
▁yoon	-5070
▁Beela	-5071
▁garba	-5072
▁odola	-5073
choonni	-5074
▁Dafnee	-5075
▁amantu	-5076
▁beekte	-5077
▁dafnee	-5078
▁darbaa	-5079
▁dhugee	-5080
▁eeyyee	-5081
▁godhin	-5082
▁hawaas	-5083
▁jirraa	-5084
▁qoonqa	-5085
▁tulluu	-5086
▁uumame	-5087
aanaadha	-5088
atameera	-5089
▁bilisaa	-5090
▁darbate	-5091
▁ilaalla	-5092
▁jechuuf	-5093
▁kabajuu	-5094
▁madaala	-5095
▁nyaatan	-5096
▁rukutuu	-5097
▁sababni	-5098
▁ulfaatu	-5099
▁Jeequmsa	-5100
▁Poolisii	-5101
▁Soogidda	-5102
▁Sukkaara	-5103
▁baafadhu	-5104
▁dagachuu	-5105
▁dheerata	-5106
▁dureessa	-5107
▁guututti	-5108
▁irrattin	-5109
▁maraataa	-5110
▁shantama	-5111
▁Konsartii	-5112
▁Muuziqaan	-5113
▁beeksisuu	-5114
▁dhageesse	-5115
▁eeggachaa	-5116
▁fudhattee	-5117
▁galeessaa	-5118
▁saayinsii	-5119
▁torbaatti	-5120
▁Jaalalleen	-5121
▁Simbirroon	-5122
▁Taajjabbii	-5123
▁Tarkaanfii	-5124
▁sirreessaa	-5125
▁Tookiyootti	-5126
▁dhaabbattee	-5127
▁saddeetitti	-5128
▁Televijiinii	-5129
▁akeekkachiis	-5130
▁xiyyeeffachuu	-5131
▁Konkolaachisaa	-5132
eg	-5133
id	-5134
ard	-5135
egg	-5136
▁Ak	-5137
eser	-5138
▁arj	-5139
satti	-5140
▁Aang	-5141
▁Ifni	-5142
▁Kall	-5143
▁araa	-5144
▁baga	-5145
▁degg	-5146
▁fufa	-5147
▁ifaa	-5148
▁iyye	-5149
▁ring	-5150
▁uume	-5151
aartaa	-5152
achiif	-5153
eengoo	-5154
uummee	-5155
▁Fardi	-5156
▁Hunda	-5157
▁Onkol	-5158
▁Sirbi	-5159
▁aarte	-5160
▁babal	-5161
▁kaasi	-5162
ibsiisa	-5163
▁Chokol	-5164
▁Maangu	-5165
▁Qophaa	-5166
▁Shaamp	-5167
▁dhiibe	-5168
▁dogong	-5169
▁godhee	-5170
▁hospit	-5171
▁muuziq	-5172
ummaadha	-5173
▁Kaartaa	-5174
▁Mukkeen	-5175
▁Salphaa	-5176
▁amanuun	-5177
▁argitaa	-5178
▁daangaa	-5179
▁faallaa	-5180
▁ibseera	-5181
▁nyaanna	-5182
▁oomisha	-5183
▁ammayyaa	-5184
▁bilisaan	-5185
▁fagaatee	-5186
▁jedhutti	-5187
▁mudachaa	-5188
▁sigaaraa	-5189
▁sirratti	-5190
▁tokkicha	-5191
▁Dorgommii	-5192
▁Gargaarsi	-5193
▁Maashinii	-5194
▁Xaaliyaan	-5195
▁dhiisinaa	-5196
▁gaafachaa	-5197
▁mufachiis	-5198
▁murteessi	-5199
▁Ameerikaan	-5200
▁Dubartoota	-5201
▁Mallattoon	-5202
▁jijjiiruuf	-5203
▁jijjiiruun	-5204
▁kallattiin	-5205
▁pirezidaan	-5206
▁barreessite	-5207
▁hojjettoota	-5208
▁kompiitaraa	-5209
▁Onkoloolessa	-5210
▁tokkottillee	-5211
▁qulqulleessuu	-5212
▁yunivarsiitii	-5213
fir	-5214
isi	-5215
ust	-5216
▁CD	-5217
▁He	-5218
▁Ne	-5219
bbaa	-5220
iinx	-5221
oors	-5222
▁App	-5223
▁amm	-5224
▁cin	-5225
▁jal	-5226
▁lag	-5227
▁nur	-5228
▁qam	-5229
ingil	-5230
shina	-5231
▁Alaa	-5232
▁Ibsi	-5233
▁babb	-5234
▁hojj	-5235
▁kadh	-5236
▁rafu	-5237
▁Dhaab	-5238
▁Dhimm	-5239
▁Marii	-5240
▁Sirni	-5241
▁booji	-5242
▁buuse	-5243
▁daang	-5244
▁didde	-5245
▁fooyy	-5246
▁geejj	-5247
▁sanas	-5248
▁sibii	-5249
▁turin	-5250
irribni	-5251
▁Faayil	-5252
▁Mirkan	-5253
▁Samiin	-5254
▁dhibne	-5255
▁doktor	-5256
▁ijaare	-5257
▁kamiif	-5258
▁makame	-5259
▁quufne	-5260
▁rifate	-5261
▁sirraa	-5262
▁yaalte	-5263
▁Deeskii	-5264
▁Furtuun	-5265
▁Haasaan	-5266
▁Hattuun	-5267
▁Kushina	-5268
▁Qarqara	-5269
▁adaadaa	-5270
▁argannu	-5271
▁beekama	-5272
▁callise	-5273
▁deebiin	-5274
▁dhaamse	-5275
▁galeera	-5276
▁qaaliin	-5277
▁qamalee	-5278
▁quxisuu	-5279
▁shaakal	-5280
▁ummataa	-5281
▁yaaddof	-5282
▁Eessatti	-5283
▁Furmaata	-5284
▁Keessumm	-5285
▁Kufaatii	-5286
▁Miidhaan	-5287
▁Sooressa	-5288
▁Wayiniin	-5289
▁babbaree	-5290
▁cufaadha	-5291
▁dadhabee	-5292
▁galgalaa	-5293
▁isheetti	-5294
▁komachaa	-5295
▁kurnanii	-5296
▁qabadhee	-5297
▁qisaasuu	-5298
▁qofaadha	-5299
▁saantima	-5300
▁sibiilaa	-5301
▁taphannu	-5302
▁taphatan	-5303
▁tiraafik	-5304
▁uwwifame	-5305
▁Boqonnaan	-5306
▁Guutumaan	-5307
▁Hantuutni	-5308
▁dorgommii	-5309
▁fakkeesse	-5310
▁gargaarre	-5311
▁hinaaffaa	-5312
▁isheetiif	-5313
▁miidhamne	-5314
▁mirgaatti	-5315
▁qulqullaa	-5316
▁Jaakkeetii	-5317
▁aksiyoonaa	-5318
▁amansiifne	-5319
▁baqaqsanii	-5320
▁fudhadheen	-5321
▁keessattis	-5322
▁sodaachisa	-5323
▁barreesseen	-5324
▁fayyadamuun	-5325
▁dhaggeeffatu	-5326
▁qulqullummaa	-5327
▁ariifachiisaa	-5328
▁xiyyeeffannoo	-5329
ob	-5330
bul	-5331
irt	-5332
lop	-5333
ucc	-5334
▁ay	-5335
▁da	-5336
▁up	-5337
goof	-5338
gugg	-5339
ttii	-5340
▁Foo	-5341
▁Sok	-5342
iinsi	-5343
maamm	-5344
▁Bubb	-5345
▁Dura	-5346
▁Hiyy	-5347
▁aare	-5348
▁boos	-5349
▁diin	-5350
▁gegg	-5351
▁taat	-5352
diyyaa	-5353
umaara	-5354
▁Duuti	-5355
▁Eeguu	-5356
▁Hiika	-5357
▁Sagan	-5358
▁feete	-5359
▁halee	-5360
▁jedhi	-5361
▁qabde	-5362
▁qalla	-5363
▁toora	-5364
eessinu	-5365
▁Bittaa	-5366
▁Bosona	-5367
▁Ergaan	-5368
▁Isniin	-5369
▁Mariin	-5370
▁Tulluu	-5371
▁deemee	-5372
▁geenyu	-5373
▁jabaat	-5374
▁namaan	-5375
▁uffatu	-5376
unnamtii	-5377
▁Galaana	-5378
▁Ogeessa	-5379
▁abdadha	-5380
▁darbine	-5381
▁dhugaan	-5382
▁furgugg	-5383
▁gaafatu	-5384
▁haasawa	-5385
▁harkaan	-5386
▁hayyame	-5387
▁himinaa	-5388
▁isaatii	-5389
▁nyaatte	-5390
▁rukutaa	-5391
▁xumuree	-5392
▁Balaliin	-5393
▁Masaraan	-5394
▁Walakkaa	-5395
▁biyyoota	-5396
▁boruutti	-5397
▁dhibbaan	-5398
▁gadhiise	-5399
▁gurguruu	-5400
▁mudachuu	-5401
▁sodaatte	-5402
▁tokkorra	-5403
eeffannoon	-5404
eessitoota	-5405
▁Ispoortii	-5406
▁Qormaanni	-5407
▁Sagantaan	-5408
▁Suuraalee	-5409
▁Taphataan	-5410
▁amansiise	-5411
▁baafachuu	-5412
▁deebisuun	-5413
▁dhaabbatu	-5414
▁faashinii	-5415
▁fayyadame	-5416
▁qaaliidha	-5417
▁qabaattan	-5418
▁raawwadhu	-5419
▁rasaasaan	-5420
▁Kolleejjii	-5421
▁dadhabbiin	-5422
▁gurgurtaaf	-5423
▁kanarratti	-5424
▁pirojektii	-5425
▁dhibbeentaa	-5426
▁fakkaatutti	-5427
▁hawwatuudha	-5428
▁Magaalattiin	-5429
▁Garaagarummaa	-5430
▁kofalchiisudha	-5431
der	-5432
ock	-5433
▁Ra	-5434
ksan	-5435
ustr	-5436
▁but	-5437
▁the	-5438
aazii	-5439
iisni	-5440
ilmoo	-5441
irree	-5442
oofoo	-5443
oolaa	-5444
tarri	-5445
▁Boqo	-5446
▁bana	-5447
▁kudh	-5448
▁micc	-5449
▁obaa	-5450
abbata	-5451
alluun	-5452
diyoon	-5453
eenyee	-5454
▁Aarii	-5455
▁Odola	-5456
▁ayisk	-5457
▁boson	-5458
▁bunni	-5459
▁doors	-5460
▁kootu	-5461
▁maash	-5462
▁ofiif	-5463
▁oliif	-5464
uudhaan	-5465
▁Aangoo	-5466
▁Baalli	-5467
▁Fuulli	-5468
▁Kantii	-5469
▁Sarara	-5470
▁eegduu	-5471
▁fannif	-5472
▁fiixee	-5473
▁hadhaa	-5474
▁haguug	-5475
▁hidhii	-5476
▁kaatee	-5477
▁kolfan	-5478
▁miidhu	-5479
▁qunnam	-5480
aattonni	-5481
▁Dirqama	-5482
▁Fedhiin	-5483
▁Paartii	-5484
▁deebisi	-5485
▁deebisu	-5486
▁dhukaas	-5487
▁herrega	-5488
▁qabsiis	-5489
▁rukutee	-5490
▁Fuuldura	-5491
▁Hiriyyaa	-5492
▁Hoteelli	-5493
▁Ilaalchi	-5494
▁Imimmaan	-5495
▁dadhabne	-5496
▁dhaamsaa	-5497
▁duraanii	-5498
▁garaajee	-5499
▁hojjette	-5500
▁kudhanii	-5501
▁qabamtee	-5502
▁raawwatu	-5503
▁waamicha	-5504
▁xumuramu	-5505
▁Boqqolloo	-5506
▁Dubbachuu	-5507
▁Gaarummaa	-5508
▁Magaalaan	-5509
▁Tasgabbaa	-5510
▁dhumaatti	-5511
▁kaansarii	-5512
▁sagalitti	-5513
▁Barattoota	-5514
▁barbaaduuf	-5515
▁shawaariin	-5516
▁barreessuuf	-5517
▁bashannanaa	-5518
▁dhuunfaatti	-5519
▁Maariyaamiin	-5520
▁ayiskiriimii	-5521
▁barbaachisoo	-5522
▁xumurteettaa	-5523
▁karoorfadheen	-5524
▁Konkolaachisaan	-5525
qi	-5526
▁Fo	-5527
▁tu	-5528
amin	-5529
ikil	-5530
kkii	-5531
tist	-5532
troo	-5533
▁Iyy	-5534
▁lix	-5535
aasha	-5536
adaan	-5537
amaaf	-5538
hiyaa	-5539
ichis	-5540
michi	-5541
▁Atis	-5542
▁Badh	-5543
▁Mata	-5544
▁Murt	-5545
▁Yakk	-5546
▁anis	-5547
▁diim	-5548
▁ibsi	-5549
▁qaam	-5550
▁qind	-5551
aattii	-5552
aramee	-5553
ataman	-5554
vation	-5555
▁Rasaa	-5556
▁Warsh	-5557
▁aarri	-5558
▁aarse	-5559
▁bunaa	-5560
▁ciisa	-5561
▁dhiqa	-5562
▁fiiga	-5563
▁gocha	-5564
▁gurri	-5565
▁jetta	-5566
▁kufaa	-5567
eessiin	-5568
▁Dhimmi	-5569
▁Gingil	-5570
▁Ragaan	-5571
▁achiis	-5572
▁banuuf	-5573
▁barata	-5574
▁cabsuu	-5575
▁durbaa	-5576
▁fideen	-5577
▁gootee	-5578
▁lilmoo	-5579
▁mijatu	-5580
▁sirbaa	-5581
▁summii	-5582
▁yaadde	-5583
▁yaalin	-5584
aakeejii	-5585
amneerra	-5586
amummaan	-5587
▁Hidhiin	-5588
▁Jaaksan	-5589
▁Ogeessi	-5590
▁buusuun	-5591
▁dagannu	-5592
▁firijii	-5593
▁fuudhee	-5594
▁hubatte	-5595
▁ilaaltu	-5596
▁kooppii	-5597
▁qunnama	-5598
▁soorata	-5599
▁uffattu	-5600
▁Chaappaa	-5601
▁Saantima	-5602
▁Sareenis	-5603
▁cicciree	-5604
▁deebisaa	-5605
▁dubbisee	-5606
▁gammadan	-5607
▁haasoftu	-5608
▁ibiddaan	-5609
▁jaallate	-5610
▁jireenyi	-5611
▁jiruudha	-5612
▁qunnamaa	-5613
▁sababiin	-5614
▁sodaadhe	-5615
▁Sanduuqni	-5616
▁dabaleera	-5617
▁dandeesse	-5618
▁dureeyyii	-5619
▁fakkaatte	-5620
▁gargaarte	-5621
▁gargaartu	-5622
▁kallattii	-5623
▁maashinii	-5624
▁uffadheen	-5625
▁wallaalee	-5626
▁Dogoggorri	-5627
▁dhugumatti	-5628
▁fageenyaan	-5629
▁fudhatinaa	-5630
▁gowwoomsaa	-5631
▁hojjeteera	-5632
▁jalqabaati	-5633
▁kaffaltiin	-5634
▁dargaggoota	-5635
▁fayyadamuuf	-5636
▁murteessine	-5637
▁qabbanaawaa	-5638
▁Dargaggeessa	-5639
▁dandeenyedha	-5640
▁jalqabaatiif	-5641
▁dubbisteettaa	-5642
▁gammachuudhaan	-5643
▁Ay	-5644
▁Un	-5645
baay	-5646
fakk	-5647
ifne	-5648
ling	-5649
▁Ham	-5650
▁all	-5651
▁kon	-5652
iiroo	-5653
iteen	-5654
oomii	-5655
▁Afri	-5656
▁Baal	-5657
▁Dhiq	-5658
▁Imal	-5659
▁Wara	-5660
▁aaru	-5661
▁lola	-5662
▁paas	-5663
▁qixa	-5664
aasiin	-5665
iiraan	-5666
saaraa	-5667
▁Damma	-5668
▁Gaafa	-5669
▁Qaama	-5670
▁baanu	-5671
▁bahan	-5672
▁bilis	-5673
▁damee	-5674
▁fufte	-5675
▁gumaa	-5676
▁kufee	-5677
▁taatu	-5678
eeyyiin	-5679
gooftuu	-5680
▁Funyoo	-5681
▁Gaazex	-5682
▁Galata	-5683
▁Imalli	-5684
▁baratu	-5685
▁degger	-5686
▁dhiiga	-5687
▁eegala	-5688
▁gaazex	-5689
▁galmaa	-5690
▁gibira	-5691
▁gubate	-5692
▁himate	-5693
▁loonii	-5694
▁miliqe	-5695
▁tolchu	-5696
ooloojii	-5697
▁Galmeen	-5698
▁Herrega	-5699
▁Ummanni	-5700
▁dhiifte	-5701
▁dhiiftu	-5702
▁diimaan	-5703
▁isiniin	-5704
▁kanneen	-5705
▁kennuun	-5706
▁qabamuu	-5707
▁suutaan	-5708
▁Akkasuma	-5709
▁Dhiibbaa	-5710
▁Nageenya	-5711
▁Sirboota	-5712
▁Xiyyaara	-5713
▁baaseera	-5714
▁dabareen	-5715
▁dhukaase	-5716
▁digdamii	-5717
▁hidhamee	-5718
▁injifata	-5719
▁jalqabde	-5720
▁jiraatee	-5721
▁kutachuu	-5722
▁qabaatte	-5723
▁qabannee	-5724
▁salphaan	-5725
▁sirreeff	-5726
▁tajaajil	-5727
▁taphadhu	-5728
▁wallaale	-5729
eservation	-5730
▁ajjeefame	-5731
▁cufameera	-5732
▁dabarsitu	-5733
▁dadhabuun	-5734
▁gootaniif	-5735
▁hubachuuf	-5736
▁sibiilaan	-5737
▁taphattuu	-5738
▁tasgabbii	-5739
▁Kaameeraan	-5740
▁Salphaatti	-5741
▁barreessee	-5742
▁dhiyeessii	-5743
▁gaddisiisu	-5744
▁iswiiterii	-5745
▁nuffisiise	-5746
▁sirriidhaa	-5747
▁yaadachiis	-5748
▁Xaaliyaanii	-5749
▁dhangalaase	-5750
▁hawaasummaa	-5751
▁hedduudhaaf	-5752
▁mirkaneesse	-5753
▁Ameerikaatti	-5754
▁dhaabbatichaa	-5755
ali	-5756
les	-5757
lug	-5758
caaf	-5759
ggii	-5760
ibii	-5761
lope	-5762
ppil	-5763
quun	-5764
▁Gad	-5765
▁Gom	-5766
▁Qal	-5767
▁Uum	-5768
▁lab	-5769
▁ukk	-5770
attoo	-5771
uccuu	-5772
▁Ajaa	-5773
▁Dull	-5774
▁Nyaa	-5775
▁Seer	-5776
▁banu	-5777
▁orma	-5778
▁quub	-5779
▁saay	-5780
aarjii	-5781
allaan	-5782
iilaan	-5783
stirii	-5784
tiriin	-5785
velope	-5786
▁Diina	-5787
▁Gaara	-5788
▁Haall	-5789
▁Himni	-5790
▁Jiraa	-5791
▁Kamtu	-5792
▁argaa	-5793
▁cilee	-5794
▁eegde	-5795
▁eegnu	-5796
▁fufaa	-5797
▁haquu	-5798
▁hawaa	-5799
▁kukii	-5800
▁lafee	-5801
▁marii	-5802
dhabdee	-5803
unkaana	-5804
▁Button	-5805
▁Dhiiga	-5806
▁Falmii	-5807
▁Hiikni	-5808
▁Keessa	-5809
▁Liftii	-5810
▁Yaalii	-5811
▁cufama	-5812
▁dhiyaa	-5813
▁dhokse	-5814
▁dhoohe	-5815
▁doolii	-5816
▁dorgom	-5817
▁fagaat	-5818
▁galaan	-5819
▁geessa	-5820
▁ibsuuf	-5821
▁kennan	-5822
▁maasii	-5823
▁mooraa	-5824
▁mufate	-5825
▁qabnee	-5826
▁tolcha	-5827
▁uffate	-5828
▁ukkaam	-5829
▁waraab	-5830
▁yaadin	-5831
▁yaalii	-5832
aatiivii	-5833
poortiin	-5834
▁Buddeen	-5835
▁Dukkana	-5836
▁argaman	-5837
▁beektan	-5838
▁cinatti	-5839
▁deemtuu	-5840
▁dhaquun	-5841
▁dhorkuu	-5842
▁furdina	-5843
▁hirmaat	-5844
▁kaampii	-5845
▁kamitti	-5846
▁qabadhe	-5847
▁seenuuf	-5848
▁sirbitu	-5849
▁suphamu	-5850
▁walfakk	-5851
▁xumuraa	-5852
▁Barataan	-5853
▁Daldalli	-5854
▁Waamicha	-5855
▁abdachaa	-5856
▁argattan	-5857
▁baaburri	-5858
▁badhaasa	-5859
▁barbaadi	-5860
▁bilbilte	-5861
▁dabarsaa	-5862
▁dubbadhe	-5863
▁dursinee	-5864
▁firaasha	-5865
▁fudhatan	-5866
▁gaafattu	-5867
▁gammadne	-5868
▁haaleera	-5869
▁heerumne	-5870
▁herregaa	-5871
▁hubannoo	-5872
▁ilaalama	-5873
▁quufeera	-5874
▁rifachuu	-5875
▁tilmaamu	-5876
▁Jechoonni	-5877
▁Shubbisuu	-5878
▁akkasumas	-5879
▁cirrachaa	-5880
▁dheerinni	-5881
▁dhiheenya	-5882
▁dhiqachaa	-5883
▁dhufeenya	-5884
▁dogoggore	-5885
▁gammaddee	-5886
▁gurguddaa	-5887
▁hammamiif	-5888
▁hojjettan	-5889
▁idileetti	-5890
▁michuudha	-5891
▁poolisiin	-5892
▁simbirroo	-5893
▁uffachuun	-5894
▁Galatoomaa	-5895
▁burtukaana	-5896
▁gadhiisuuf	-5897
▁Chokolaataa	-5898
▁Dogoggoraan	-5899
▁jijjiiramaa	-5900
▁xumurameera	-5901
▁Odeeffannoon	-5902
▁barreeffamaa	-5903
▁Otobusiidhaan	-5904
▁jijjiirameera	-5905
as	-5906
ps	-5907
pir	-5908
tar	-5909
▁Aa	-5910
biis	-5911
essi	-5912
illi	-5913
jiif	-5914
naaf	-5915
tuuf	-5916
uman	-5917
yyii	-5918
▁Muf	-5919
▁ann	-5920
▁boq	-5921
▁gol	-5922
▁guf	-5923
▁kib	-5924
deela	-5925
ineef	-5926
ittoo	-5927
kichi	-5928
ootni	-5929
uutni	-5930
▁Gurg	-5931
▁Hima	-5932
▁Paan	-5933
▁cite	-5934
▁jirr	-5935
▁kiyy	-5936
aallii	-5937
anneef	-5938
iiniin	-5939
oombii	-5940
▁Beeks	-5941
▁Deemu	-5942
▁Ganda	-5943
▁Haroo	-5944
▁Komii	-5945
▁Miidh	-5946
▁Sofaa	-5947
▁aarsu	-5948
▁diduu	-5949
▁hafee	-5950
▁leenj	-5951
▁lolaa	-5952
▁qabee	-5953
▁xuuxa	-5954
▁Bakkan	-5955
▁Dhaaba	-5956
▁Garaan	-5957
▁Giddug	-5958
▁Haaloo	-5959
▁Hindii	-5960
▁Ilmaan	-5961
▁afeere	-5962
▁alatti	-5963
▁baatii	-5964
▁dhiira	-5965
▁dhugdu	-5966
▁gaazii	-5967
▁gootaa	-5968
▁gowwom	-5969
▁guutaa	-5970
▁hiyyee	-5971
▁oolche	-5972
▁qulfii	-5973
▁seenee	-5974
▁takkaa	-5975
atteetta	-5976
▁Balalii	-5977
▁Barataa	-5978
▁Bidiruu	-5979
▁Ergasii	-5980
▁Haalluu	-5981
▁Ilaaluu	-5982
▁Jimaata	-5983
▁Saffisa	-5984
▁baattee	-5985
▁bilbili	-5986
▁biraati	-5987
▁deemtan	-5988
▁dhiphoo	-5989
▁kilabii	-5990
▁micciir	-5991
▁Beellama	-5992
▁Cirrachi	-5993
▁Eeshiyaa	-5994
▁Namichis	-5995
▁Qorannoo	-5996
▁Sadarkaa	-5997
▁Waraqaan	-5998
▁beekamoo	-5999
▁dabarsan	-6000
▁dadhaboo	-6001
▁dammaqee	-6002
▁gammaddu	-6003
▁gammanne	-6004
▁garagali	-6005
▁hayyamaa	-6006
▁hojjetti	-6007
▁jedhinaa	-6008
▁jirtutti	-6009
▁kaffalaa	-6010
▁kanaatti	-6011
▁liqeessa	-6012
▁nyaadhaa	-6013
▁qilleens	-6014
▁sadiitti	-6015
▁shaakala	-6016
▁tasaatti	-6017
arameellaa	-6018
▁Abukaatoo	-6019
▁Mallattoo	-6020
▁argadheen	-6021
▁barruulee	-6022
▁fakkaanne	-6023
▁fakkeenya	-6024
▁fudhadhee	-6025
▁geejjibaa	-6026
▁qabatamaa	-6027
▁qunnamuuf	-6028
▁urgooftuu	-6029
▁yaadattaa	-6030
▁agarsiisaa	-6031
▁akkamittan	-6032
▁barsiisaan	-6033
▁cirrachaan	-6034
▁dabalataaf	-6035
▁haasofsiis	-6036
▁hojjedheen	-6037
▁hubadheera	-6038
▁keenyaatti	-6039
▁qajeelfama	-6040
▁qulqullina	-6041
▁Paaspoortii	-6042
▁murteessuuf	-6043
▁dhageessisaa	-6044
▁Daawwattoonni	-6045
▁qulqulleessuuf	-6046
od	-6047
ich	-6048
mni	-6049
one	-6050
qoo	-6051
sim	-6052
uur	-6053
▁Oo	-6054
▁sk	-6055
niin	-6056
▁Saa	-6057
▁isp	-6058
▁zay	-6059
▁zoo	-6060
aasaa	-6061
aayim	-6062
ateef	-6063
bboon	-6064
ittii	-6065
▁Aysk	-6066
▁Kaap	-6067
▁barb	-6068
▁eegi	-6069
▁guba	-6070
▁hafa	-6071
▁kaab	-6072
▁koos	-6073
▁minj	-6074
▁sard	-6075
▁tarr	-6076
aarama	-6077
agdeen	-6078
amneef	-6079
iinsaa	-6080
oojjii	-6081
tajjii	-6082
▁Fujii	-6083
▁Galma	-6084
▁Urjii	-6085
▁banuu	-6086
▁faarf	-6087
▁qooda	-6088
▁waamu	-6089
▁xiinx	-6090
eessitu	-6091
tiraata	-6092
ugguxii	-6093
▁Daraar	-6094
▁Gariin	-6095
▁Gurgur	-6096
▁Machaa	-6097
▁Piizaa	-6098
▁Ummata	-6099
▁arjoom	-6100
▁banamu	-6101
▁beeyla	-6102
▁ciisin	-6103
▁eegale	-6104
▁ilmaan	-6105
▁kakaas	-6106
▁loogii	-6107
▁mariis	-6108
▁miidha	-6109
▁shaamp	-6110
▁sochoo	-6111
▁soddom	-6112
▁Barumsa	-6113
▁Birraan	-6114
▁Deemuuf	-6115
▁Fakkiin	-6116
▁Gabatee	-6117
▁Halluun	-6118
▁darbuuf	-6119
▁deebine	-6120
▁dukkana	-6121
▁geengoo	-6122
▁hafeera	-6123
▁hamaatu	-6124
▁kaayyoo	-6125
▁miliquu	-6126
▁milkoof	-6127
▁miseens	-6128
▁qunnamu	-6129
▁quuqama	-6130
▁raafama	-6131
▁seenuun	-6132
▁walqixa	-6133
▁Dubbisuu	-6134
▁Giiftiin	-6135
▁beekneef	-6136
▁daangeff	-6137
▁dhaabuun	-6138
▁dhokatee	-6139
▁dhungate	-6140
▁guddaatu	-6141
▁ilaaltan	-6142
▁kadhadha	-6143
▁miseensa	-6144
▁nyaannee	-6145
▁saayikil	-6146
▁taphatti	-6147
▁tolchite	-6148
▁uumamaan	-6149
▁Fakkeenya	-6150
▁barateera	-6151
▁bitachuun	-6152
▁dhiqadhaa	-6153
▁dubbistee	-6154
▁gurgurama	-6155
▁guutuutti	-6156
▁hojjetama	-6157
▁ilaalamuu	-6158
▁jaallatte	-6159
▁kudhaniif	-6160
▁tilmaamaa	-6161
▁xumuramne	-6162
▁Qajeelfama	-6163
▁agarsiifte	-6164
▁harkifatte	-6165
▁hojjetaman	-6166
▁kaffaleera	-6167
▁madaalawaa	-6168
▁nyaadheera	-6169
▁qopheessuu	-6170
▁Muuziyeemii	-6171
▁akkanumatti	-6172
▁babbareedoo	-6173
▁dadhaboodha	-6174
▁jijjiiramuu	-6175
▁miidhameera	-6176
▁gammachiisuuf	-6177
bbo	-6178
ert	-6179
ive	-6180
jin	-6181
ums	-6182
▁US	-6183
▁st	-6184
mmal	-6185
qqis	-6186
sine	-6187
▁Guu	-6188
▁Nan	-6189
▁New	-6190
▁bet	-6191
▁out	-6192
▁som	-6193
doota	-6194
ilaan	-6195
wween	-6196
▁Chee	-6197
▁Duum	-6198
▁Faal	-6199
▁Qaam	-6200
▁boca	-6201
▁kufa	-6202
▁oofu	-6203
▁qeeq	-6204
▁rama	-6205
ichaan	-6206
ooliin	-6207
▁Chick	-6208
▁Garba	-6209
▁Iskii	-6210
▁Raash	-6211
▁Santa	-6212
▁adiin	-6213
▁daran	-6214
▁gadii	-6215
▁gahee	-6216
▁sofaa	-6217
▁tiyaa	-6218
▁xuuxe	-6219
aarichi	-6220
ataadha	-6221
ibsiise	-6222
▁Callis	-6223
▁Hidhii	-6224
▁Himata	-6225
▁Mindaa	-6226
▁Mobaay	-6227
▁Tajaaj	-6228
▁Tuutni	-6229
▁Walgah	-6230
▁araada	-6231
▁baasne	-6232
▁bubbee	-6233
▁ciccir	-6234
▁dhufin	-6235
▁dirree	-6236
▁duubaa	-6237
▁fiigde	-6238
▁hatatt	-6239
▁kuusaa	-6240
▁liqiin	-6241
▁mijata	-6242
▁mootii	-6243
▁mormii	-6244
▁narvii	-6245
▁pilaan	-6246
▁qeensa	-6247
▁seenne	-6248
▁soofaa	-6249
▁teesse	-6250
▁uumama	-6251
▁yaadan	-6252
aastikii	-6253
alaammal	-6254
eessituu	-6255
maammata	-6256
▁Bubbeen	-6257
▁Guddina	-6258
▁Keekiin	-6259
▁argamtu	-6260
▁baasisa	-6261
▁beekamu	-6262
▁bitadhu	-6263
▁dafanii	-6264
▁dhiifne	-6265
▁dhiifnu	-6266
▁dhoqqee	-6267
▁digdama	-6268
▁eegamne	-6269
▁guddate	-6270
▁gurgura	-6271
▁hanqina	-6272
▁hordofa	-6273
▁ilaalin	-6274
▁kaastee	-6275
▁kenneef	-6276
▁manatti	-6277
▁meetroo	-6278
▁obbolaa	-6279
▁ofittoo	-6280
▁sabbata	-6281
▁tasgabb	-6282
▁tuqinaa	-6283
▁Cirracha	-6284
▁Dhohinsa	-6285
▁Gabaasni	-6286
▁Sigaaraa	-6287
▁Taphichi	-6288
▁afurtama	-6289
▁anniisaa	-6290
▁dadhabaa	-6291
▁dhalatte	-6292
▁dhiirota	-6293
▁falfalaa	-6294
▁fiigicha	-6295
▁goggogaa	-6296
▁haasofna	-6297
▁harkisee	-6298
▁hojjetaa	-6299
▁jabaadha	-6300
▁jabaatta	-6301
▁jiraatta	-6302
▁namootaa	-6303
▁qaanessa	-6304
▁qabaattu	-6305
▁saroonni	-6306
▁xumurree	-6307
▁Baaburaan	-6308
▁Barnoonni	-6309
▁Qilleensa	-6310
▁allaattii	-6311
▁dadhabeen	-6312
▁lammiilee	-6313
▁maallaqni	-6314
▁qabaadhaa	-6315
▁qusachuuf	-6316
▁tokkootti	-6317
▁Barreessuu	-6318
▁dhaabbataa	-6319
▁dhabameera	-6320
▁dhorkaadha	-6321
▁garagalchi	-6322
▁qabaachuuf	-6323
▁waliigalaa	-6324
▁Harkifachuu	-6325
▁argamaniiru	-6326
▁injifachuun	-6327
▁mirkaneessi	-6328
▁tilmaameera	-6329
▁qulqulleesse	-6330
▁akeekkachiisa	-6331
▁dhaggeeffattu	-6332
ec	-6333
ig	-6334
lo	-6335
are	-6336
iff	-6337
ink	-6338
iti	-6339
ixx	-6340
ran	-6341
ure	-6342
xuu	-6343
▁uj	-6344
▁un	-6345
daaf	-6346
eetu	-6347
esse	-6348
iira	-6349
isin	-6350
kira	-6351
moon	-6352
ooji	-6353
ssaa	-6354
uuph	-6355
▁Arr	-6356
▁Din	-6357
▁Kam	-6358
▁Tsh	-6359
▁naq	-6360
ratti	-6361
tamaa	-6362
▁Adab	-6363
▁Guyy	-6364
▁Minj	-6365
▁Unka	-6366
▁York	-6367
▁gung	-6368
▁hora	-6369
▁kami	-6370
▁miil	-6371
▁qoos	-6372
▁tolf	-6373
▁torb	-6374
diruun	-6375
oofees	-6376
tuudha	-6377
▁Aadaa	-6378
▁Austr	-6379
▁Kottu	-6380
▁baasa	-6381
▁baasi	-6382
▁basaa	-6383
▁cidha	-6384
▁cuuph	-6385
▁darbi	-6386
▁galtu	-6387
▁jiidh	-6388
▁kaasa	-6389
▁naive	-6390
▁nurra	-6391
▁oolch	-6392
▁shall	-6393
▁taata	-6394
▁turtu	-6395
▁xuuxu	-6396
ateeraa	-6397
eenyaaf	-6398
immanii	-6399
oojikii	-6400
qaaquun	-6401
▁Deemsa	-6402
▁Dubbii	-6403
▁Liqiin	-6404
▁Ruuzii	-6405
▁Soofaa	-6406
▁Taatee	-6407
▁Tshirt	-6408
▁Xumura	-6409
▁argita	-6410
▁dheebo	-6411
▁geenya	-6412
▁hubata	-6413
▁jiruun	-6414
▁komate	-6415
▁mudhii	-6416
▁qabama	-6417
▁saalaa	-6418
▁sanyii	-6419
▁sassaa	-6420
▁taanee	-6421
▁utaale	-6422
▁walsim	-6423
eessitee	-6424
▁Dallaan	-6425
▁Kanaafi	-6426
▁Muummee	-6427
▁Qabxiin	-6428
▁Shorbaa	-6429
▁argamuu	-6430
▁arginee	-6431
▁barattu	-6432
▁burjaaj	-6433
▁daakuun	-6434
▁dabarse	-6435
▁dafqaan	-6436
▁dhoksee	-6437
▁dubbisi	-6438
▁gadhiif	-6439
▁hubatan	-6440
▁kaasuuf	-6441
▁kakaase	-6442
▁kakadha	-6443
▁maatiin	-6444
▁makamuu	-6445
▁riqicha	-6446
▁utaaluu	-6447
▁yaalluu	-6448
toobisiin	-6449
▁Australi	-6450
▁Fagootti	-6451
▁Kaapteen	-6452
▁Shorbaan	-6453
▁argamuuf	-6454
▁beeksise	-6455
▁callisaa	-6456
▁cinaatti	-6457
▁dhaabuuf	-6458
▁dhoksuuf	-6459
▁gaafatin	-6460
▁harkisaa	-6461
▁hirkatuu	-6462
▁hubattee	-6463
▁jedheera	-6464
▁jiruutti	-6465
▁kirkirri	-6466
▁sadaffaa	-6467
▁shubbisa	-6468
▁yerootti	-6469
▁Yoorkitti	-6470
▁bilbiltee	-6471
▁dogongora	-6472
▁gargaaran	-6473
▁guddittii	-6474
▁hidhaatti	-6475
▁kennameef	-6476
▁Kopheewwan	-6477
▁Yeroodhaaf	-6478
▁dabarsitee	-6479
▁dhiyeessan	-6480
▁fakkeessee	-6481
▁fudhateera	-6482
▁gurguddoon	-6483
▁hatattamaa	-6484
▁liqimfamuu	-6485
▁Ayskiriimii	-6486
▁Biqiltoonni	-6487
▁Daraaroonni	-6488
▁Dhiyeessiin	-6489
▁Isniinaatti	-6490
▁Yuunivarsii	-6491
▁dandeenyeef	-6492
▁isaaniiyyuu	-6493
▁pilaastikii	-6494
▁Dargaggeessi	-6495
▁Inshuraansii	-6496
▁dandeessutti	-6497
▁walqunnamtii	-6498
▁xumuramuutti	-6499
alaammaltummaa	-6500
▁Konkolaattonni	-6501
▁konkolaachisuun	-6502
hh	-6503
os	-6504
qu	-6505
ice	-6506
ula	-6507
uxx	-6508
wus	-6509
▁Eb	-6510
▁bl	-6511
abii	-6512
amdh	-6513
deem	-6514
zaan	-6515
▁Gol	-6516
▁Siw	-6517
▁ice	-6518
ameen	-6519
aqqab	-6520
dheef	-6521
ilxuu	-6522
qqiin	-6523
uufan	-6524
▁Bool	-6525
▁Kann	-6526
▁Muuz	-6527
▁Qoos	-6528
▁Teek	-6529
▁bakk	-6530
▁dadd	-6531
▁fash	-6532
▁hirm	-6533
▁ilmi	-6534
▁nuts	-6535
▁qall	-6536
▁qeen	-6537
▁xuxx	-6538
essert	-6539
▁Dhiph	-6540
▁Duuba	-6541
▁Fudha	-6542
▁Galii	-6543
▁Gurra	-6544
▁Shaak	-6545
▁akkoo	-6546
▁bulaa	-6547
▁ciisu	-6548
▁dhabu	-6549
▁duune	-6550
▁fidde	-6551
▁madda	-6552
▁qoodd	-6553
▁reeff	-6554
▁sobde	-6555
▁warsh	-6556
waantii	-6557
▁Kabaja	-6558
▁Sobduu	-6559
▁Tiraaf	-6560
▁boqote	-6561
▁buusuu	-6562
▁cidhaa	-6563
▁dhaame	-6564
▁dhamdh	-6565
▁dhiita	-6566
▁digrii	-6567
▁eegnee	-6568
▁hoolaa	-6569
▁kalaqe	-6570
▁mataan	-6571
▁meetii	-6572
▁poolis	-6573
▁qabata	-6574
▁sadaff	-6575
▁sodaan	-6576
istoonni	-6577
taniittu	-6578
▁Afrikaa	-6579
▁Biiraan	-6580
▁Cheezii	-6581
▁Chicken	-6582
▁Faayila	-6583
▁Fayyaan	-6584
▁Firijii	-6585
▁Hawwiin	-6586
▁Qoosaan	-6587
▁Saantaa	-6588
▁Shamarr	-6589
▁Suuqiin	-6590
▁Yaaddoo	-6591
▁ciiftee	-6592
▁dhiibaa	-6593
▁filatta	-6594
▁gabatee	-6595
▁gubatee	-6596
▁haalaan	-6597
▁hiikuun	-6598
▁ijaaran	-6599
▁isarraa	-6600
▁jahatti	-6601
▁nyaatin	-6602
▁nyaatta	-6603
▁qabaatu	-6604
▁shamarr	-6605
▁uffadha	-6606
▁Boorsaan	-6607
▁Shaayiin	-6608
▁Taaksiin	-6609
▁artistii	-6610
▁beelofne	-6611
▁boqochuu	-6612
▁chaarjii	-6613
▁ciniinuu	-6614
▁dadhabuu	-6615
▁darbadhu	-6616
▁fashalaa	-6617
▁gaafatta	-6618
▁himatame	-6619
▁kamiifuu	-6620
▁karoorri	-6621
▁kennitaa	-6622
▁nyaachif	-6623
▁nyaattee	-6624
▁qabdudha	-6625
▁qusachaa	-6626
▁sodaattu	-6627
▁Appaartaa	-6628
▁Barruulee	-6629
▁Dhukkubsa	-6630
▁Laaqanaaf	-6631
▁agarsiisu	-6632
▁baafachaa	-6633
▁barsiifte	-6634
▁haguuggii	-6635
▁kenniteef	-6636
▁raawwadhe	-6637
▁sirreesse	-6638
▁walakkaan	-6639
▁Akaakayyuu	-6640
▁Burtukaana	-6641
▁Fakkiiwwan	-6642
▁Kaffaltiin	-6643
▁Otoobisiin	-6644
▁dhagahamaa	-6645
▁garagalche	-6646
▁jedhameera	-6647
▁maallaqaan	-6648
▁obboleessi	-6649
▁raawwatamu	-6650
▁Qilleedhaaf	-6651
▁barbaadetti	-6652
▁galaanaatti	-6653
▁mirkaneessa	-6654
▁Barbaachisaa	-6655
▁barbaachisuu	-6656
▁Dhukkubsataan	-6657
▁ooltummaadhaan	-6658
▁Pirezidaantichi	-6659
▁dhageessaniittu	-6660
eat	-6661
eem	-6662
ful	-6663
sha	-6664
▁Om	-6665
▁Sw	-6666
▁at	-6667
elli	-6668
ster	-6669
▁Gib	-6670
▁Haw	-6671
▁Kiy	-6672
▁kum	-6673
▁min	-6674
▁ree	-6675
▁veg	-6676
▁vol	-6677
▁way	-6678
aansa	-6679
aarii	-6680
andii	-6681
dicha	-6682
famuu	-6683
filee	-6684
iyeen	-6685
otora	-6686
taara	-6687
uweer	-6688
▁Ilaa	-6689
▁dool	-6690
▁hihh	-6691
▁kann	-6692
▁mudd	-6693
aayira	-6694
amudha	-6695
angala	-6696
eettaa	-6697
fuleen	-6698
▁Bahuu	-6699
▁Deegg	-6700
▁Faaya	-6701
▁Fagoo	-6702
▁Yakki	-6703
▁banin	-6704
▁burtu	-6705
▁haadd	-6706
▁himan	-6707
▁kaasu	-6708
▁mormu	-6709
▁qonna	-6710
▁tuuta	-6711
eeffame	-6712
shiinaa	-6713
▁Birraa	-6714
▁armaan	-6715
▁ayyaan	-6716
▁falmuu	-6717
▁fedhes	-6718
▁galcha	-6719
▁golgaa	-6720
▁haadda	-6721
▁kaanii	-6722
▁kumaat	-6723
▁liftii	-6724
▁ofumaa	-6725
▁qaqqab	-6726
▁qilxuu	-6727
▁waliif	-6728
▁walqab	-6729
▁xuuxne	-6730
▁yaalla	-6731
▁yaalnu	-6732
attootaa	-6733
▁Hiikkaa	-6734
▁Kunniin	-6735
▁Mindaan	-6736
▁Saawwan	-6737
▁Shakkii	-6738
▁baraare	-6739
▁cabsuuf	-6740
▁darbite	-6741
▁deebise	-6742
▁dhiigni	-6743
▁dhiisan	-6744
▁dhoksuu	-6745
▁fuudhan	-6746
▁hubadha	-6747
▁ilaalee	-6748
▁kaartaa	-6749
▁qabsiif	-6750
▁tolchaa	-6751
▁Bidiruun	-6752
▁Dhangala	-6753
▁Hubannoo	-6754
▁Nageenyi	-6755
▁amaninaa	-6756
▁bilcheef	-6757
▁dabarsee	-6758
▁dheerina	-6759
▁fagootti	-6760
▁hirribni	-6761
▁mudateen	-6762
▁quxisuun	-6763
▁seeraati	-6764
▁xumurtee	-6765
▁Akkasumas	-6766
▁Jiraachuu	-6767
▁Minjaalli	-6768
▁beekamtii	-6769
▁dammaqsuu	-6770
▁dhiheessa	-6771
▁dhiisanii	-6772
▁dubbatama	-6773
▁furguggii	-6774
▁gadhiisee	-6775
▁garagalee	-6776
▁gubbaatti	-6777
▁isaaniiti	-6778
▁qabaattee	-6779
▁qabatanii	-6780
▁qopheesse	-6781
▁raawwanne	-6782
▁raawwatte	-6783
▁sammuutti	-6784
▁tiyaatira	-6785
▁waggaatti	-6786
▁xumuramee	-6787
▁Barreessaa	-6788
▁Hanqaaquun	-6789
▁Imaltoonni	-6790
▁Landanitti	-6791
▁dandeessee	-6792
▁fayyadamee	-6793
▁fayyadamne	-6794
▁gargaartan	-6795
▁mufadheera	-6796
▁qopheessaa	-6797
▁xiqqeessuu	-6798
alaqqeessaan	-6799
▁Poolisoonni	-6800
▁barreeffama	-6801
▁barreessine	-6802
▁hawwataadha	-6803
▁karoorfatte	-6804
▁kumaatamaan	-6805
▁poolisiitti	-6806
▁yaabbachuun	-6807
▁Amanamummaan	-6808
▁Beeysiboolii	-6809
▁karoorfattan	-6810
▁kireeffachuu	-6811
▁akeekkachiise	-6812
▁dhaggeeffanne	-6813
▁mallatteessuu	-6814
▁Ingiliffaatiin	-6815
em	-6816
oy	-6817
up	-6818
ale	-6819
art	-6820
ath	-6821
cho	-6822
enu	-6823
ksi	-6824
lii	-6825
sni	-6826
ush	-6827
▁Ca	-6828
▁en	-6829
▁sc	-6830
amta	-6831
eeqa	-6832
koop	-6833
oker	-6834
vard	-6835
▁Alb	-6836
▁Bul	-6837
▁Gii	-6838
▁Ist	-6839
▁niw	-6840
▁off	-6841
▁sil	-6842
andaa	-6843
arian	-6844
eeroo	-6845
ibuun	-6846
laand	-6847
ookii	-6848
otaaf	-6849
ummoo	-6850
yyeff	-6851
▁Adam	-6852
▁Dhok	-6853
▁Kaal	-6854
▁Nars	-6855
▁Sukk	-6856
▁jazz	-6857
▁kaka	-6858
▁laam	-6859
▁weer	-6860
atamee	-6861
itanii	-6862
likoop	-6863
▁Dhiig	-6864
▁Isaaf	-6865
▁barte	-6866
▁citaa	-6867
▁faall	-6868
▁fiigu	-6869
▁komii	-6870
▁muruu	-6871
eechaan	-6872
eessina	-6873
eessita	-6874
etarian	-6875
oombiin	-6876
tootaaf	-6877
▁Adeera	-6878
▁Ammaaf	-6879
▁Boolla	-6880
▁Gidduu	-6881
▁Gommaa	-6882
▁Gurraa	-6883
▁Hospit	-6884
▁Kiyoot	-6885
▁Turtii	-6886
▁baafte	-6887
▁beekin	-6888
▁dhohin	-6889
▁dippil	-6890
▁filate	-6891
▁gabaas	-6892
▁hojiif	-6893
▁huccuu	-6894
▁jirtan	-6895
▁mormaa	-6896
▁qoosan	-6897
▁qoosuu	-6898
▁seentu	-6899
▁soores	-6900
▁suphaa	-6901
▁suutii	-6902
▁vaayil	-6903
aannisni	-6904
aawuntii	-6905
ariitiin	-6906
▁Deeggar	-6907
▁Fardeen	-6908
▁Funyaan	-6909
▁Gitaara	-6910
▁Gowwoom	-6911
▁Harvard	-6912
▁Miidhaa	-6913
▁Pirojek	-6914
▁Qawween	-6915
▁ajjeesa	-6916
▁beeksis	-6917
▁bulchaa	-6918
▁dhiiste	-6919
▁eegalte	-6920
▁eeginaa	-6921
▁gooftaa	-6922
▁gurguru	-6923
▁jaarraa	-6924
▁jibbitu	-6925
▁jirudha	-6926
▁qabatee	-6927
▁qeenxee	-6928
▁qoonqoo	-6929
▁quubsaa	-6930
▁rasaasa	-6931
▁shubbis	-6932
▁xumurru	-6933
firaansii	-6934
▁Biriteen	-6935
▁Daabboon	-6936
▁Dhohinsi	-6937
▁Giitaara	-6938
▁Maangudd	-6939
▁Shaampoo	-6940
▁deeggara	-6941
▁dhiqadha	-6942
▁dhugaati	-6943
▁dubbatee	-6944
▁galchite	-6945
▁gurguraa	-6946
▁hayyaman	-6947
▁ijaaruuf	-6948
▁iskeetii	-6949
▁jiraatte	-6950
▁kaayyeff	-6951
▁komatamu	-6952
▁kunuunsi	-6953
▁moodeela	-6954
▁muraasaa	-6955
▁qorichaa	-6956
▁sekondii	-6957
▁shanitti	-6958
▁Biyyoonni	-6959
▁Furmaanni	-6960
▁Gargaaruu	-6961
▁Himannaan	-6962
▁Raashiyaa	-6963
▁abukaatoo	-6964
▁baafadhaa	-6965
▁balleesse	-6966
▁baraaruuf	-6967
▁beeyladaa	-6968
▁dadhabeef	-6969
▁dhiphisuu	-6970
▁hammachuu	-6971
▁hiriyoota	-6972
▁jiraattaa	-6973
▁qabeenyaa	-6974
▁tajaajila	-6975
▁Diinagdeen	-6976
▁Kuduraalee	-6977
▁barsiisota	-6978
▁faarfannaa	-6979
▁harkifatta	-6980
▁hojjetudha	-6981
▁kunuunsuun	-6982
▁mudateeraa	-6983
▁mufachiise	-6984
▁qabatamaan	-6985
▁rifachiisa	-6986
▁roobaatiin	-6987
▁Carraaqqiin	-6988
▁Daandiiwwan	-6989
▁Gingilchaan	-6990
▁Meeriidhaaf	-6991
▁agarsiisuuf	-6992
▁daawwachuun	-6993
▁dhihaateera	-6994
▁gaggeeffama	-6995
▁kennuudhaaf	-6996
▁paaspoortii	-6997
▁Appaartaamaa	-6998
▁Hidhamtoonni	-6999
▁Jaappaanonni	-7000
▁Maamiltoonni	-7001
▁argatteettaa	-7002
▁barbaaddetti	-7003
▁bilcheessite	-7004
▁karoorfachuu	-7005
▁qilleensarra	-7006
▁salphaadhaan	-7007
▁Obomboleettii	-7008
▁gaarummaadhaan	-7009
▁dhaggeeffachuun	-7010
erk	-7011
fti	-7012
kir	-7013
omp	-7014
pet	-7015
tic	-7016
unk	-7017
▁En	-7018
▁fl	-7019
▁pr	-7020
aati	-7021
barr	-7022
chee	-7023
itan	-7024
jjen	-7025
liin	-7026
ries	-7027
tokk	-7028
zzle	-7029
▁Gil	-7030
▁Mic	-7031
▁Sab	-7032
dinni	-7033
eenii	-7034
ishni	-7035
ppiin	-7036
sikoo	-7037
tooni	-7038
▁Dees	-7039
▁Haqa	-7040
▁Kaan	-7041
▁Kiyy	-7042
▁Raak	-7043
▁Soor	-7044
▁Suph	-7045
▁Xiqq	-7046
▁hoos	-7047
▁inva	-7048
▁kuff	-7049
▁lolu	-7050
▁tasa	-7051
▁tuqe	-7052
aachif	-7053
aafata	-7054
aamila	-7055
aaykir	-7056
alaada	-7057
alaasi	-7058
inicha	-7059
▁Barri	-7060
▁Halee	-7061
▁Kanas	-7062
▁Kiraa	-7063
▁Mirga	-7064
▁Rafuu	-7065
▁boqot	-7066
▁buune	-7067
▁buusi	-7068
▁faaya	-7069
▁galii	-7070
▁gante	-7071
▁kaane	-7072
▁niwuk	-7073
▁oofan	-7074
▁qodaa	-7075
▁sirbe	-7076
▁waajj	-7077
aniidha	-7078
jjennoo	-7079
umayyuu	-7080
▁Balbal	-7081
▁Diinni	-7082
▁Gaarri	-7083
▁Harmee	-7084
▁Naanna	-7085
▁Soksii	-7086
▁akeeke	-7087
▁amanaa	-7088
▁amanan	-7089
▁biyyee	-7090
▁boonuu	-7091
▁bultii	-7092
▁cimnee	-7093
▁dabale	-7094
▁daddar	-7095
▁dhabam	-7096
▁dheera	-7097
▁dhimmi	-7098
▁dhufti	-7099
▁fufuuf	-7100
▁gaabbu	-7101
▁hamman	-7102
▁hattuu	-7103
▁hihhir	-7104
▁ibsaan	-7105
▁ittisa	-7106
▁jedhaa	-7107
▁oofuun	-7108
▁roobne	-7109
▁seennu	-7110
▁shanii	-7111
▁xumuru	-7112
▁xuxxuq	-7113
▁yaadna	-7114
oonnicha	-7115
siiseera	-7116
▁Albamii	-7117
▁Dhiigni	-7118
▁Hundaaf	-7119
▁Miilaan	-7120
▁Narsiin	-7121
▁Qorroon	-7122
▁Shawaar	-7123
▁abshaal	-7124
▁awwaara	-7125
▁baallee	-7126
▁banamee	-7127
▁beeksif	-7128
▁buusuuf	-7129
▁cheerii	-7130
▁ciisuun	-7131
▁dagatte	-7132
▁darbuun	-7133
▁dhaabde	-7134
▁gaheera	-7135
▁gartokk	-7136
▁hiikuuf	-7137
▁kalaasi	-7138
▁kenninu	-7139
▁laamsha	-7140
▁nyaanni	-7141
▁qalbiin	-7142
▁qonnaan	-7143
▁qunname	-7144
▁sochoon	-7145
▁teessee	-7146
▁turedha	-7147
▁ujummoo	-7148
fuleenzaa	-7149
▁Beeksisa	-7150
▁Biyyoota	-7151
▁Jeequmsi	-7152
▁Michoota	-7153
▁Mootorri	-7154
▁ajajamuu	-7155
▁balbalaa	-7156
▁beekamti	-7157
▁bitattee	-7158
▁dhiphisa	-7159
▁dhiphisu	-7160
▁fagaadhu	-7161
▁fudhatee	-7162
▁gaafannu	-7163
▁gaarreen	-7164
▁harkatti	-7165
▁harkisuu	-7166
▁jijjiira	-7167
▁jiraannu	-7168
▁kennitee	-7169
▁loltoota	-7170
▁maaliifi	-7171
▁muddamaa	-7172
▁nageenyi	-7173
▁qusadhaa	-7174
▁salphina	-7175
▁taphattu	-7176
▁uffannee	-7177
▁Agarsiisa	-7178
▁Australia	-7179
▁Bareedduu	-7180
▁Fuuldurri	-7181
▁Hiyyeessa	-7182
▁Ingiliffa	-7183
▁Jaalalaan	-7184
▁Raadiyoon	-7185
▁Rakkoolee	-7186
▁Sukkaarri	-7187
▁addunyaan	-7188
▁dabarsiti	-7189
▁dabarsuun	-7190
▁dagadheen	-7191
▁darbachuu	-7192
▁dhiironni	-7193
▁dinqisiis	-7194
▁dubbadhee	-7195
▁gaafadhaa	-7196
▁gaafatame	-7197
▁godhachuu	-7198
▁guutuudha	-7199
▁hundumaaf	-7200
▁injifanne	-7201
▁jijjiirte	-7202
▁sooressaa	-7203
▁Faransaayi	-7204
▁Mirkaneeff	-7205
▁Pirojektii	-7206
▁Sirumayyuu	-7207
▁argineerra	-7208
▁fakkeessuu	-7209
▁gaafatinaa	-7210
▁gammachuun	-7211
▁keessaniin	-7212
▁kutachiisa	-7213
▁rifachiise	-7214
▁vegetarian	-7215
▁waggootaaf	-7216
▁Fuulduratti	-7217
▁Gaaffiiwwan	-7218
▁Ingiliffaan	-7219
▁Reservation	-7220
▁barreessuun	-7221
▁ciccimoodha	-7222
▁dadhabaadha	-7223
▁isaaniitiin	-7224
▁jijjiireera	-7225
▁kamittiyyuu	-7226
▁karameellaa	-7227
▁maraatummaa	-7228
▁muuziyeemii	-7229
▁simbirroota	-7230
▁uffatteetti	-7231
▁gammachiisuu	-7232
▁hojjetamedha	-7233
▁miidhamaniiru	-7234
▁tiraafikaatiin	-7235
▁Yuunivarsiitiin	-7236
▁konkolaataatiin	-7237
sc	-7238
yi	-7239
ant	-7240
ber	-7241
est	-7242
ipe	-7243
man	-7244
nii	-7245
▁By	-7246
▁Sp	-7247
bbii	-7248
cuma	-7249
ifte	-7250
jata	-7251
laus	-7252
mtuu	-7253
shee	-7254
▁Bin	-7255
▁Gir	-7256
▁Hum	-7257
▁Sim	-7258
▁Yoh	-7259
aatan	-7260
dhuuf	-7261
iisuu	-7262
riyaa	-7263
tirob	-7264
ulula	-7265
umbaa	-7266
▁Daak	-7267
▁Deeb	-7268
▁Foor	-7269
▁Gadi	-7270
▁Juun	-7271
▁Kibx	-7272
▁Kolf	-7273
▁Meek	-7274
▁cala	-7275
▁dhor	-7276
▁dinq	-7277
▁doof	-7278
▁haxx	-7279
aakkii	-7280
barruu	-7281
eewwan	-7282
iiroon	-7283
ilaraa	-7284
kaanaa	-7285
kaanni	-7286
oordii	-7287
tiksii	-7288
toobis	-7289
ummaaf	-7290
▁Bilis	-7291
▁Biraa	-7292
▁Biyyi	-7293
▁Bofti	-7294
▁Claus	-7295
▁Gogaa	-7296
▁Gosti	-7297
▁Walii	-7298
▁banee	-7299
▁dafqa	-7300
▁gaafa	-7301
▁gubaa	-7302
▁hawwu	-7303
▁hidhe	-7304
▁ibsee	-7305
▁injin	-7306
▁inkii	-7307
▁kiraa	-7308
▁kunis	-7309
▁kutin	-7310
▁qoree	-7311
▁quufe	-7312
▁saayi	-7313
▁spoon	-7314
artiiba	-7315
biisota	-7316
eessota	-7317
jiiniin	-7318
kooppii	-7319
ooronni	-7320
▁Aadaan	-7321
▁Akeekk	-7322
▁Beeyla	-7323
▁Dhiira	-7324
▁Ergama	-7325
▁Hafuur	-7326
▁Hawwii	-7327
▁Iddoon	-7328
▁Mootar	-7329
▁Pilaan	-7330
▁argeen	-7331
▁arginu	-7332
▁arraba	-7333
▁baruuf	-7334
▁ciifte	-7335
▁dabali	-7336
▁eegama	-7337
▁eegamu	-7338
▁filata	-7339
▁fuudhu	-7340
▁hiriyy	-7341
▁imaluu	-7342
▁kiyyaa	-7343
▁loomii	-7344
▁maamil	-7345
▁misoom	-7346
▁narraa	-7347
▁qoodnu	-7348
▁rukutu	-7349
▁teenyu	-7350
▁Awwaara	-7351
▁Barumsi	-7352
▁Dadhabe	-7353
▁Dhadhaa	-7354
▁Dhiirri	-7355
▁Foddaan	-7356
▁Goolfii	-7357
▁Kilabii	-7358
▁Maarsii	-7359
▁Miseens	-7360
▁Omishni	-7361
▁Riqicha	-7362
▁Soorama	-7363
▁Yookaan	-7364
▁alaatti	-7365
▁argamti	-7366
▁balalii	-7367
▁barumsa	-7368
▁bitatan	-7369
▁boombii	-7370
▁cabsite	-7371
▁cufamuu	-7372
▁dhiisii	-7373
▁dhiqatu	-7374
▁dhokate	-7375
▁eegumsa	-7376
▁godhamu	-7377
▁guddatu	-7378
▁gurgure	-7379
▁ilaalta	-7380
▁komadhu	-7381
▁laafina	-7382
▁maraate	-7383
▁qabaata	-7384
▁qabutti	-7385
▁qalamaa	-7386
▁saamame	-7387
▁seensaa	-7388
▁taaneef	-7389
▁tuffate	-7390
▁utaalee	-7391
▁uumeera	-7392
▁yaaduuf	-7393
bulaansii	-7394
▁Badhaasa	-7395
▁Deeskiin	-7396
▁Helikoop	-7397
▁Mootichi	-7398
▁Shaakala	-7399
▁abshaala	-7400
▁bilbilee	-7401
▁buttooni	-7402
▁calaqqis	-7403
▁ciniinee	-7404
▁dammaqse	-7405
▁dammaqsi	-7406
▁dheeratu	-7407
▁dubbistu	-7408
▁fudhatta	-7409
▁galchuun	-7410
▁hayyamne	-7411
▁injifatu	-7412
▁jalqabna	-7413
▁kanniisa	-7414
▁loojikii	-7415
▁miidhaan	-7416
▁miliquuf	-7417
▁qabaanna	-7418
▁qisaases	-7419
▁sibiilli	-7420
▁taasisaa	-7421
▁turtetti	-7422
▁ummataaf	-7423
▁Daawwitii	-7424
▁Dubbisuun	-7425
▁Yohaannis	-7426
▁ariifataa	-7427
▁awwaalcha	-7428
▁baadiyyaa	-7429
▁biyyaatti	-7430
▁cufamanii	-7431
▁daawwadha	-7432
▁darbaniif	-7433
▁dhihaatti	-7434
▁dhiphisaa	-7435
▁dhungatte	-7436
▁hirribaan	-7437
▁jiraachis	-7438
▁keenyaati	-7439
▁kiyyaatti	-7440
▁magaalota	-7441
▁sodaattuu	-7442
▁Carraaqqii	-7443
▁Poolisichi	-7444
▁Saayintist	-7445
▁Suuraaleen	-7446
▁balleessaa	-7447
▁daawwannaa	-7448
▁dabarsitan	-7449
▁dhuftaniif	-7450
▁dirqisiise	-7451
▁fayyadamtu	-7452
▁gammoojjii	-7453
▁injifannoo	-7454
▁kunuunsuuf	-7455
▁Amanamummaa	-7456
▁Awwaannisni	-7457
▁Doktooronni	-7458
▁Magaalattii	-7459
▁bashannanne	-7460
▁dhiyeenyaan	-7461
▁dhungachuuf	-7462
▁jiraadheera	-7463
▁karoorfanne	-7464
▁niwukilaraa	-7465
▁pilaaneetii	-7466
▁qaxxaamuruu	-7467
▁qisaasessuu	-7468
▁qisaasuudha	-7469
▁uffataniiru	-7470
▁Faransaayiis	-7471
▁baratamnedha	-7472
▁bilcheessuuf	-7473
▁dhaggeeffate	-7474
▁gaafatameera	-7475
▁gammadneerra	-7476
▁harkifateera	-7477
▁inshuraansii	-7478
▁qulqulleessu	-7479
▁gargaartaniif	-7480
▁dhukkubsadheera	-7481
gii	-7482
ipp	-7483
nuu	-7484
orm	-7485
tub	-7486
▁Ju	-7487
▁To	-7488
▁pa	-7489
ooni	-7490
vent	-7491
▁Dii	-7492
▁Ele	-7493
▁Jab	-7494
▁Kuu	-7495
▁Mad	-7496
▁Oom	-7497
▁abi	-7498
▁boc	-7499
▁fac	-7500
▁hum	-7501
▁qan	-7502
▁qar	-7503
aanii	-7504
aatol	-7505
darii	-7506
eater	-7507
iimii	-7508
iizar	-7509
iladd	-7510
iteek	-7511
maara	-7512
uunne	-7513
▁Dhab	-7514
▁Dool	-7515
▁Ebla	-7516
▁Indu	-7517
▁Liin	-7518
▁Mars	-7519
▁Piik	-7520
▁Taat	-7521
▁anaa	-7522
▁fufu	-7523
▁marg	-7524
▁naqe	-7525
▁reeb	-7526
▁sobu	-7527
agahee	-7528
ammaff	-7529
baasii	-7530
bichaa	-7531
iftiin	-7532
iizaan	-7533
michaa	-7534
miidha	-7535
umsaaf	-7536
uuziin	-7537
▁Aarri	-7538
▁Aliis	-7539
▁Dheer	-7540
▁Garuu	-7541
▁Kaans	-7542
▁Kilaa	-7543
▁Kolfi	-7544
▁Liqii	-7545
▁Lolli	-7546
▁Oosaa	-7547
▁Shaaw	-7548
▁Socho	-7549
▁Weell	-7550
▁buute	-7551
▁dhoww	-7552
▁hafte	-7553
▁hakii	-7554
▁jetti	-7555
▁kaate	-7556
▁kilab	-7557
▁kolfu	-7558
▁kufte	-7559
▁rukun	-7560
▁timaa	-7561
▁ulfaa	-7562
▁yakki	-7563
arichis	-7564
ariisaa	-7565
oogiddi	-7566
▁Biraaz	-7567
▁Dambal	-7568
▁Fiixee	-7569
▁Gabaab	-7570
▁Hattuu	-7571
▁Heerum	-7572
▁Mataan	-7573
▁Nagaan	-7574
▁Oomish	-7575
▁Roomaa	-7576
▁Seensa	-7577
▁Summii	-7578
▁Yaadda	-7579
▁banama	-7580
▁boonna	-7581
▁dhabaa	-7582
▁dhiquu	-7583
▁dhugnu	-7584
▁dugdaa	-7585
▁ergite	-7586
▁gahaan	-7587
▁gahuun	-7588
▁gatiin	-7589
▁guunne	-7590
▁haaluu	-7591
▁haqame	-7592
▁hiikaa	-7593
▁himeen	-7594
▁hoteel	-7595
▁kalaqa	-7596
▁kornee	-7597
▁manaan	-7598
▁namaaf	-7599
▁qaanof	-7600
▁raasaa	-7601
▁yaalan	-7602
▁zeeroo	-7603
▁Giiftii	-7604
▁Hamilee	-7605
▁Irratti	-7606
▁Namicha	-7607
▁Roozaan	-7608
▁Yaaliin	-7609
▁addatti	-7610
▁ajjeesu	-7611
▁alaatii	-7612
▁amanuuf	-7613
▁baafate	-7614
▁boqodhu	-7615
▁deebina	-7616
▁deebite	-7617
▁dhuftaa	-7618
▁dhugduu	-7619
▁duriiti	-7620
▁fannise	-7621
▁fiiguuf	-7622
▁guutuuf	-7623
▁haamtuu	-7624
▁hawaasa	-7625
▁hidhame	-7626
▁hordofe	-7627
▁ibsamuu	-7628
▁imaluuf	-7629
▁jirreef	-7630
▁kuduraa	-7631
▁kunuuns	-7632
▁mufatte	-7633
▁namicha	-7634
▁qabamne	-7635
▁qumaara	-7636
▁roobeef	-7637
▁sirbuun	-7638
▁tolchan	-7639
▁yaadatu	-7640
▁yaadeen	-7641
atamaadha	-7642
isiisudha	-7643
uuxannoon	-7644
▁Dunkaana	-7645
▁Dureessa	-7646
▁Guddinni	-7647
▁Kasaaraa	-7648
▁Kirkirri	-7649
▁Paantiin	-7650
▁Siwiizar	-7651
▁Tilmaama	-7652
▁balballi	-7653
▁barsiisu	-7654
▁bilbille	-7655
▁cabseera	-7656
▁cheekiin	-7657
▁dafeedha	-7658
▁filatame	-7659
▁fudhanna	-7660
▁garagale	-7661
▁godhamuu	-7662
▁guddatte	-7663
▁gumaacha	-7664
▁ittisuuf	-7665
▁marfamee	-7666
▁miidhuuf	-7667
▁qajeelaa	-7668
▁simannaa	-7669
▁taphanna	-7670
▁uffadhee	-7671
ibsiifadhe	-7672
iladdunyaa	-7673
▁Dheerinni	-7674
▁Dhiibbaan	-7675
▁Guyyoonni	-7676
▁Kantiibaa	-7677
▁Mobaayila	-7678
▁Otoobisii	-7679
▁Paakeejii	-7680
▁Tilmaamni	-7681
▁Urjiileen	-7682
▁awwaannis	-7683
▁baaburaan	-7684
▁banaadhaa	-7685
▁dadhabdee	-7686
▁deebiftee	-7687
▁deeggaraa	-7688
▁dhimmicha	-7689
▁dhukaasaa	-7690
▁dubbatamu	-7691
▁fagoodhaa	-7692
▁foonnicha	-7693
▁gurguruuf	-7694
▁jijjiirre	-7695
▁kunuunsaa	-7696
▁laaqanaaf	-7697
▁maxxansaa	-7698
▁murtoofne	-7699
▁soddomaaf	-7700
▁waltajjii	-7701
▁yaaddessu	-7702
▁Agarsiisni	-7703
▁Bareedinni	-7704
▁Injifachuu	-7705
▁Kontiraata	-7706
▁Waggootaaf	-7707
▁amansiisaa	-7708
▁awwaalchaa	-7709
▁balaliisaa	-7710
▁deemaniiru	-7711
▁dhaabbatee	-7712
▁dhabaniiru	-7713
▁dhalootaan	-7714
▁fagaadheen	-7715
▁fagaateera	-7716
▁gartokkoon	-7717
▁godhaniiru	-7718
▁kalaasikaa	-7719
▁kennaniiru	-7720
▁liqeessuun	-7721
▁murteessan	-7722
▁nyaachisuu	-7723
▁saayikilii	-7724
elevijiiniin	-7725
▁Ariifachuun	-7726
▁argataniiru	-7727
▁barbaadudha	-7728
▁barreessitu	-7729
▁bilcheefame	-7730
▁burtukaanaa	-7731
▁geessiseera	-7732
▁hawwiidhaan	-7733
▁hiriyyoonni	-7734
▁hospitaalaa	-7735
▁jilbeenfate	-7736
▁lammaffaati	-7737
▁micciiramaa	-7738
▁mufachiisuu	-7739
▁taphattoota	-7740
▁xiyyeeffate	-7741
▁akeekkachiif	-7742
▁barreessitee	-7743
▁dulloomaadha	-7744
▁hammaataadha	-7745
▁karoorfannee	-7746
▁dhaggeeffadhu	-7747
▁konkolaachisa	-7748
▁otobusiidhaan	-7749
▁xumurtaniittuu	-7750
pe	-7751
sy	-7752
wu	-7753
ye	-7754
ort	-7755
ser	-7756
ter	-7757
▁Ij	-7758
▁sw	-7759
aafi	-7760
ansi	-7761
imok	-7762
oost	-7763
tron	-7764
▁Hol	-7765
▁Jii	-7766
▁Sii	-7767
▁Xur	-7768
▁fan	-7769
▁gat	-7770
▁gir	-7771
▁jar	-7772
▁mim	-7773
▁soo	-7774
ambur	-7775
katin	-7776
tirri	-7777
uzzle	-7778
▁Aduu	-7779
▁Araa	-7780
▁Bofa	-7781
▁Cacc	-7782
▁Hanq	-7783
▁Hool	-7784
▁Maxx	-7785
▁Qarq	-7786
▁Shee	-7787
▁Ulaa	-7788
▁Ulee	-7789
▁duun	-7790
▁fidi	-7791
▁garb	-7792
▁giif	-7793
▁gube	-7794
▁haph	-7795
▁mogg	-7796
▁mura	-7797
▁oper	-7798
▁paar	-7799
▁teek	-7800
▁unka	-7801
athtub	-7802
deemsa	-7803
ichaaf	-7804
iitiin	-7805
imokir	-7806
itoota	-7807
maataa	-7808
▁Abboo	-7809
▁Alaan	-7810
▁Cimee	-7811
▁Dhaga	-7812
▁Intar	-7813
▁Juice	-7814
▁Leenj	-7815
▁Qonna	-7816
▁Sibii	-7817
▁Siyaa	-7818
▁albuu	-7819
▁arjaa	-7820
▁fufan	-7821
▁fufee	-7822
▁iyyee	-7823
▁jibbe	-7824
▁koree	-7825
▁lafti	-7826
▁lolan	-7827
▁morme	-7828
▁oduun	-7829
▁raase	-7830
▁rafan	-7831
▁rafte	-7832
▁sidha	-7833
▁taana	-7834
▁waama	-7835
amaatti	-7836
aroonni	-7837
chummaa	-7838
iyoonaa	-7839
oloojii	-7840
▁Affeer	-7841
▁Kaatol	-7842
▁Kibbaa	-7843
▁Koppii	-7844
▁Onneen	-7845
▁Sodaan	-7846
▁Tasuma	-7847
▁Toomis	-7848
▁Waldaa	-7849
▁bokkaa	-7850
▁boolli	-7851
▁dhufnu	-7852
▁dhugda	-7853
▁galtuu	-7854
▁gorsuu	-7855
▁gurmaa	-7856
▁himtaa	-7857
▁hundee	-7858
▁ibsite	-7859
▁ibsuun	-7860
▁kaabaa	-7861
▁kirist	-7862
▁kiyyoo	-7863
▁miilli	-7864
▁narsii	-7865
▁paawun	-7866
▁paayii	-7867
▁qabsoo	-7868
▁simata	-7869
▁vaazii	-7870
▁yeroof	-7871
amburger	-7872
inaansii	-7873
iyeenara	-7874
▁Ariitii	-7875
▁Baafata	-7876
▁Baqalaa	-7877
▁Cheekii	-7878
▁Daangaa	-7879
▁Dhagaan	-7880
▁Dirqiin	-7881
▁Eenyuun	-7882
▁Falmiin	-7883
▁Nagahee	-7884
▁Paantii	-7885
▁Qonnaan	-7886
▁Qumaara	-7887
▁Sweater	-7888
▁aansuun	-7889
▁afaanii	-7890
▁argatti	-7891
▁baafata	-7892
▁baranna	-7893
▁dhaabaa	-7894
▁dhiibuu	-7895
▁ergamaa	-7896
▁fiiguun	-7897
▁filanne	-7898
▁godheen	-7899
▁haalluu	-7900
▁hordofu	-7901
▁irraati	-7902
▁kirkira	-7903
▁kolfite	-7904
▁miidhag	-7905
▁oolchuu	-7906
▁qaqqabe	-7907
▁rakkate	-7908
▁rifadhe	-7909
▁sibiila	-7910
▁taphate	-7911
▁warshaa	-7912
▁xiyyaar	-7913
miidhagoo	-7914
▁Afaanota	-7915
▁Biraazil	-7916
▁Dabareen	-7917
▁Duumessi	-7918
▁Envelope	-7919
▁Kilaawus	-7920
▁Oosaakaa	-7921
▁Paartiin	-7922
▁Qabeenyi	-7923
▁Qarqarri	-7924
▁abjoodha	-7925
▁afaanota	-7926
▁ajjeeste	-7927
▁ariitiin	-7928
▁beekudha	-7929
▁ciccimoo	-7930
▁deebisne	-7931
▁dhiqadhu	-7932
▁dhoksite	-7933
▁gubachaa	-7934
▁gungumaa	-7935
▁gurraach	-7936
▁haasofnu	-7937
▁hojjetin	-7938
▁ilkaanii	-7939
▁jirretti	-7940
▁kaffalle	-7941
a	-7942
▁	-7943
i	-7944
e	-7945
n	-7946
u	-7947
o	-7948
t	-7949
r	-7950
k	-7951
d	-7952
h	-7953
s	-7954
b	-7955
m	-7956
l	-7957
g	-7958
f	-7959
y	-7960
j	-7961
q	-7962
'	-7963
c	-7964
w	-7965
T	-7966
A	-7967
M	-7968
K	-7969
S	-7970
H	-7971
D	-7972
p	-7973
B	-7974
W	-7975
I	-7976
Y	-7977
G	-7978
x	-7979
N	-7980
F	-7981
O	-7982
ʼ	-7983
J	-7984
Q	-7985
R	-7986
z	-7987
L	-7988
E	-7989
C	-7990
P	-7991
X	-7992
U	-7993
0	-7994
v	-7995
