<pad>	0
<unk>	0
<s>	0
</s>	0
▁አ	-0
▁እ	-1
▁ነ	-2
▁በ	-3
▁የ	-4
▁መ	-5
▁ይ	-6
▁እን	-7
▁ነው	-8
ለሁ	-9
ቶም	-10
▁ያ	-11
▁ለ	-12
▁ማ	-13
▁ቶም	-14
▁ከ	-15
▁ተ	-16
ምን	-17
▁ስ	-18
▁ወ	-19
▁ብ	-20
▁ነበ	-21
▁ት	-22
▁አይ	-23
▁እንደ	-24
▁አል	-25
▁ሰ	-26
ፈል	-27
▁አለ	-28
▁ይህ	-29
▁ው	-30
▁ነበር	-31
ገር	-32
▁ምን	-33
▁ሁ	-34
▁ላ	-35
ዚህ	-36
▁ል	-37
ጣም	-38
▁በጣም	-39
ጊዜ	-40
ውን	-41
▁አን	-42
▁ላይ	-43
▁አስ	-44
▁ጥ	-45
▁ጊዜ	-46
ስጥ	-47
▁ወደ	-48
▁ደ	-49
▁ውስጥ	-50
▁ቀ	-51
▁ነገር	-52
ችን	-53
ፈልጋ	-54
▁የሚ	-55
ነት	-56
ችላ	-57
መስ	-58
ለህ	-59
▁ም	-60
ድረ	-61
ንም	-62
▁አይደ	-63
▁ገ	-64
▁ይህን	-65
ለም	-66
▁እና	-67
▁ቤ	-68
▁እየ	-69
▁አላ	-70
▁ብዙ	-71
ቸው	-72
ደር	-73
▁ለመ	-74
ሆነ	-75
▁ጠ	-76
▁ሁሉ	-77
▁የተ	-78
ዎች	-79
ኛል	-80
ሆን	-81
ድረግ	-82
▁ታ	-83
ችል	-84
▁እንዳ	-85
▁ግ	-86
▁ጋ	-87
ለው	-88
▁ባ	-89
▁አለብ	-90
▁የም	-91
ሁን	-92
▁ፈ	-93
▁ሰው	-94
▁ለማ	-95
▁አንድ	-96
▁ጋር	-97
ኝም	-98
▁ስለ	-99
ንድ	-100
ሄድ	-101
በት	-102
▁እፈልጋ	-103
▁እፈልጋለሁ	-104
ውቅ	-105
▁ጥሩ	-106
▁ምንም	-107
ላል	-108
ናል	-109
▁ማድረግ	-110
▁ያን	-111
ውቃ	-112
ስተ	-113
▁በእ	-114
▁ቤት	-115
▁ሊ	-116
▁ብቻ	-117
▁ይመስ	-118
▁ክ	-119
▁እኔ	-120
ዋል	-121
ለን	-122
ርያ	-123
▁በአ	-124
▁እዚህ	-125
ስት	-126
▁እር	-127
ለች	-128
ህን	-129
▁ስራ	-130
ሳይ	-131
ችልም	-132
▁እሱ	-133
▁ና	-134
▁ለምን	-135
ዴት	-136
▁ዛ	-137
▁አይደለም	-138
▁ያንን	-139
ደረ	-140
ውቅም	-141
ፈልግ	-142
ንት	-143
ነበ	-144
▁አሁን	-145
▁እንዴት	-146
ለት	-147
ዚያ	-148
▁የእ	-149
▁እንዲ	-150
▁ከእ	-151
▁ይችላ	-152
▁ማን	-153
ቅር	-154
ወዳ	-155
▁ነኝ	-156
ገና	-157
ግር	-158
▁ካ	-159
ሰራ	-160
▁አት	-161
▁መን	-162
▁የማ	-163
▁ያለ	-164
የት	-165
ህል	-166
ራት	-167
▁ድ	-168
▁ነገ	-169
▁የት	-170
ቱን	-171
ገባ	-172
ችሁ	-173
ታል	-174
▁በመ	-175
▁ዛሬ	-176
ረን	-177
▁እንድ	-178
ርያም	-179
▁ሁሉም	-180
▁እያ	-181
▁እንደሚ	-182
▁ቦ	-183
ሰማ	-184
መለ	-185
▁ትን	-186
ኩት	-187
▁ብዬ	-188
▁መስ	-189
▁ናቸው	-190
▁ኣ	-191
▁የመ	-192
▁ሳ	-193
ፊት	-194
▁የለ	-195
▁ጉ	-196
ተኛ	-197
▁እስ	-198
▁እባ	-199
▁ፍ	-200
ሪያ	-201
ረው	-202
▁ዘ	-203
▁ያህል	-204
▁ሀ	-205
ኋላ	-206
▁ዝ	-207
ድር	-208
▁ትንሽ	-209
▁ቆ	-210
ስዎ	-211
ቷል	-212
▁አያ	-213
▁ች	-214
▁ሞ	-215
ጣት	-216
▁አላውቅም	-217
ሃል	-218
▁ያስ	-219
ምህ	-220
▁ግን	-221
ለኛል	-222
ንዘ	-223
ኪና	-224
ዎት	-225
ባት	-226
▁ሌ	-227
▁የአ	-228
ርት	-229
▁አሉ	-230
▁ህ	-231
ጓደ	-232
▁ሙ	-233
ጀመ	-234
▁በኋላ	-235
▁ሲ	-236
▁ክፍ	-237
▁በዚህ	-238
▁እንደሆነ	-239
▁አልችልም	-240
ትን	-241
▁መጠ	-242
ፈልገ	-243
▁ገንዘ	-244
▁ቁ	-245
▁አለብኝ	-246
▁ን	-247
▁ቢ	-248
ረንሳይ	-249
ሰብ	-250
▁አውቃ	-251
ፈልግም	-252
▁መፅ	-253
ቶች	-254
መጣ	-255
▁አውቃለሁ	-256
▁ይመስለኛል	-257
ኩም	-258
ክል	-259
ገድ	-260
▁ጓደ	-261
ማሪ	-262
▁ሰዎች	-263
ናገር	-264
ረዳ	-265
▁ከአ	-266
ኘት	-267
ዬን	-268
▁ይህንን	-269
ወት	-270
▁ማርያም	-271
▁እነ	-272
▁የሚያ	-273
▁ለእ	-274
▁የበ	-275
▁አልነበ	-276
ጨረ	-277
▁ይችላል	-278
▁እንደም	-279
▁ተስ	-280
ፈለ	-281
ላት	-282
ደርጋ	-283
ታው	-284
ረንሳይኛ	-285
ችላለሁ	-286
▁እችላለሁ	-287
ውነት	-288
▁መኪና	-289
ንተ	-290
ልቅ	-291
ዎን	-292
▁አው	-293
▁እንዳለ	-294
▁መሆን	-295
ቻለሁ	-296
▁በፊት	-297
▁ማንም	-298
▁መሄድ	-299
▁መፅሀ	-300
ብኝ	-301
ዎችን	-302
▁ገንዘብ	-303
▁የሆነ	-304
ገኘ	-305
▁መል	-306
ገረ	-307
መት	-308
ሮች	-309
ሉም	-310
▁ልጅ	-311
▁ትና	-312
▁ከመ	-313
ዋለሁ	-314
▁አስተ	-315
ላይ	-316
▁ረ	-317
▁አንዳ	-318
▁ይፈልጋ	-319
▁እባክ	-320
ደው	-321
ባለሁ	-322
ምህርት	-323
በላ	-324
ወቅ	-325
▁አሳ	-326
▁ጨ	-327
▁እድ	-328
▁ተስፋ	-329
▁ቦታ	-330
▁ነበረ	-331
▁ነህ	-332
▁አለኝ	-333
▁ይመስላል	-334
▁ቃ	-335
▁የምት	-336
ቀም	-337
ኛው	-338
▁በማ	-339
▁ባለ	-340
ሁት	-341
▁ፈረንሳይኛ	-342
ድን	-343
ረም	-344
ደርግ	-345
▁ሰኣ	-346
▁ሆ	-347
ሶስት	-348
▁ሌላ	-349
ሩን	-350
▁አደ	-351
ያው	-352
▁ጎ	-353
▁ጉዳ	-354
▁አሁ	-355
▁ትናንት	-356
▁ትችላ	-357
▁እየተ	-358
▁ሁል	-359
ግብ	-360
ግጠ	-361
▁ችግር	-362
▁አሁንም	-363
▁አስባለሁ	-364
መን	-365
▁ቅ	-366
▁ኮ	-367
▁እወዳ	-368
ነው	-369
▁ሁኔ	-370
▁የለኝም	-371
ፍት	-372
ታት	-373
▁ቀን	-374
▁ከዚህ	-375
ቀጥ	-376
▁አልተ	-377
ወድ	-378
▁ልጆ	-379
▁አለው	-380
▁በፍ	-381
ለጠ	-382
▁አንዳንድ	-383
▁አልፈልግም	-384
ሳብ	-385
▁ይችላሉ	-386
ወስ	-387
ማር	-388
ተት	-389
▁ምክ	-390
▁አልቻ	-391
▁አለብን	-392
መል	-393
▁እወዳለሁ	-394
▁ዋ	-395
ርስዎ	-396
▁ጣ	-397
▁ወይ	-398
▁አድር	-399
▁ተና	-400
▁በላይ	-401
ኑን	-402
ከር	-403
ጠብ	-404
▁በተ	-405
▁አብ	-406
▁ከባ	-407
▁እንደማ	-408
ጨረሻ	-409
ክክል	-410
▁ሄ	-411
ቤት	-412
▁አይነት	-413
▁በት	-414
ቀመ	-415
▁መንገድ	-416
ችው	-417
▁አዲ	-418
▁ሁኔታ	-419
▁መፅሀፍ	-420
በቅ	-421
ኖር	-422
▁ራ	-423
ሳት	-424
▁ሙሉ	-425
▁የለም	-426
ቹን	-427
የቀ	-428
ናት	-429
▁ቶምን	-430
▁አይደል	-431
ስተኛ	-432
▁አይመስ	-433
▁መጥ	-434
▁በሚ	-435
▁እርግጠ	-436
▁የበለጠ	-437
ሄዳ	-438
▁ነች	-439
▁ጓደኛ	-440
ያቄ	-441
▁እንድት	-442
▁እርግጠኛ	-443
ንያ	-444
▁ትችላለህ	-445
▁ትልቅ	-446
▁አንተ	-447
▁መቼ	-448
ራል	-449
ውነ	-450
ድረስ	-451
ናለሁ	-452
▁ይሆ	-453
▁አባ	-454
መር	-455
ሱን	-456
▁እንደገና	-457
ደን	-458
▁ከባድ	-459
ሴት	-460
ዳት	-461
▁ፖ	-462
▁ሰኣት	-463
▁ማታ	-464
▁ጥያቄ	-465
ግኘት	-466
ንግ	-467
▁ደስተኛ	-468
ከተ	-469
ገው	-470
▁እሷ	-471
ስታ	-472
▁ታውቃ	-473
ልኝ	-474
▁ትምህርት	-475
▁ለአ	-476
▁መብ	-477
ጀመሪያ	-478
▁ከተ	-479
ፈው	-480
ልም	-481
▁እንግ	-482
▁ሁሉንም	-483
▁ክፍል	-484
▁ሃ	-485
ደረግ	-486
▁ይፈልጋሉ	-487
ነጋ	-488
ሃለሁ	-489
ስተን	-490
▁ስንት	-491
▁ይሆናል	-492
ቀድ	-493
▁ጀ	-494
▁ቡ	-495
ለሁም	-496
▁አይደለሁም	-497
▁አደርጋ	-498
ራለሁ	-499
▁አታ	-500
▁አየ	-501
▁ውሻ	-502
ወጣ	-503
ርስ	-504
▁ስሜ	-505
ኛለሁ	-506
▁ምግብ	-507
▁ለማድረግ	-508
▁አደርጋለሁ	-509
ኞች	-510
▁ወን	-511
▁ማየት	-512
ምንት	-513
ጠይ	-514
ወሰ	-515
ርያምን	-516
ጥነት	-517
▁ማለት	-518
ልክ	-519
▁ታውቃለህ	-520
▁አም	-521
ጅም	-522
▁እነዚህ	-523
ቀው	-524
ያለሁ	-525
▁አስፈ	-526
ቴን	-527
▁አለብህ	-528
ቂት	-529
▁ልት	-530
▁ደረ	-531
▁ፀ	-532
▁ይቅር	-533
▁ስህ	-534
ብስ	-535
▁ሁለ	-536
መሰ	-537
▁ሁለት	-538
▁አለህ	-539
ፈልገው	-540
▁ይሰማ	-541
ናገ	-542
መለስ	-543
ጫወት	-544
▁እባክህ	-545
ልፍ	-546
▁ያለው	-547
▁ይወዳ	-548
▁ገና	-549
ንጆ	-550
▁አዲስ	-551
ህም	-552
▁በጥ	-553
▁ተጨ	-554
▁የቶም	-555
ተር	-556
▁ዳ	-557
ከት	-558
▁ዶ	-559
ተዋል	-560
▁አስደ	-561
▁እውነት	-562
▁በቀ	-563
ሯል	-564
▁ሀሳብ	-565
▁ምክንያ	-566
▁እንደዚህ	-567
▁ማወቅ	-568
▁ድረስ	-569
▁ቆንጆ	-570
▁እስካ	-571
▁መግ	-572
ረኝ	-573
▁ሁላ	-574
▁እዚያ	-575
ጠኝ	-576
▁ቃል	-577
በል	-578
▁ብሎ	-579
▁ጉዳይ	-580
ብሰ	-581
▁ማርያምን	-582
▁አልነበረም	-583
▁ፊ	-584
▁መው	-585
▁እርስዎ	-586
ርሳ	-587
▁ከእኔ	-588
ገኝ	-589
▁ያውቃ	-590
▁አለበት	-591
በር	-592
▁ሶስት	-593
ቆም	-594
ደብ	-595
ናብ	-596
ለውም	-597
▁የእኔ	-598
ፓር	-599
▁መጥፎ	-600
ረት	-601
▁ጫ	-602
ችንም	-603
▁ከማ	-604
ስራ	-605
▁ቀላል	-606
▁የማይ	-607
▁እስከ	-608
▁አደጋ	-609
ረጋ	-610
▁ወንድ	-611
ሎች	-612
▁ነን	-613
ለኝም	-614
▁ኣይ	-615
▁ትፈልጋ	-616
▁እስካሁን	-617
ሞክ	-618
▁ቤተ	-619
ተው	-620
▁ሻ	-621
ይወት	-622
ዎታል	-623
ነሳ	-624
▁በእውነት	-625
ዘጋ	-626
▁ይቅርታ	-627
በብ	-628
ዋት	-629
▁የምን	-630
▁የለውም	-631
ዛት	-632
▁በእር	-633
ተሃል	-634
ፁም	-635
▁ምር	-636
ለኛ	-637
ቢያ	-638
ከል	-639
ደም	-640
▁ሁልጊዜ	-641
▁በቂ	-642
ላጆ	-643
ጃፓ	-644
▁እውነ	-645
ማማ	-646
▁መር	-647
ላጊ	-648
▁ከፍ	-649
▁አይመስለኝም	-650
▁እመ	-651
▁አገኘ	-652
ያን	-653
ወድም	-654
▁አግ	-655
ነግ	-656
ዶች	-657
ገዛ	-658
ገኛ	-659
▁ሚ	-660
▁ስሜት	-661
ቸውን	-662
ቀጥለው	-663
▁ሽ	-664
▁ተጠ	-665
ህና	-666
ዳታ	-667
ነጋገር	-668
▁ስህተት	-669
ቀት	-670
▁ሊሆን	-671
ረዶ	-672
አት	-673
ላሉ	-674
▁ያል	-675
ሻለ	-676
ተናል	-677
▁ደብ	-678
▁ነገሮች	-679
▁አስፈላጊ	-680
የቅ	-681
▁አጥ	-682
▁በል	-683
ሳች	-684
ጉት	-685
ጠረ	-686
ምር	-687
▁ሴት	-688
▁ጠን	-689
▁አያስ	-690
ናልባት	-691
▁ምናልባት	-692
▁በቅር	-693
ልህ	-694
▁እኛ	-695
▁በትክክል	-696
ቅም	-697
▁ውሃ	-698
መሰግ	-699
▁ትፈልጋለህ	-700
▁እንዳል	-701
▁እንዲህ	-702
ሜሪ	-703
ጎት	-704
▁ልጆች	-705
▁እቅ	-706
ቂቃ	-707
▁ኩ	-708
▁ምንድን	-709
▁እንደምት	-710
ጃፓን	-711
▁ማግኘት	-712
▁አልቻል	-713
የር	-714
ታለሁ	-715
▁ማስ	-716
▁ሳይ	-717
▁እጠ	-718
ችንን	-719
ደረገ	-720
▁ውድ	-721
ሙሉ	-722
ጴዛ	-723
▁አጠ	-724
▁በሰ	-725
▁ታሪ	-726
ሰበ	-727
▁በደን	-728
ለፍ	-729
▁ሳምንት	-730
▁ውጭ	-731
▁አመት	-732
ጥር	-733
▁ደህና	-734
▁በደንብ	-735
ሆኑ	-736
▁ችግ	-737
▁ወሰ	-738
▁ደቂቃ	-739
▁ገባ	-740
▁እንኳ	-741
▁በፍጥነት	-742
▁ቴ	-743
▁ዋጋ	-744
▁ይሰማኛል	-745
▁መቆ	-746
▁አስደሳች	-747
▁ሰር	-748
▁ዝናብ	-749
ንቀ	-750
▁ባቡ	-751
▁አያውቅም	-752
▁ሆነ	-753
▁እራ	-754
▁ተናግ	-755
▁ባለፈው	-756
▁ተማሪ	-757
▁ወጣ	-758
▁መናገር	-759
▁አግኝ	-760
▁ተመ	-761
▁ደስ	-762
▁ለቶም	-763
ጠበ	-764
▁ጠዋት	-765
ልኩ	-766
ዳቤ	-767
▁ሆኖ	-768
▁በሚቀጥለው	-769
ቃት	-770
▁ነበሩ	-771
▁ጥቂት	-772
መድ	-773
▁ስለዚህ	-774
ከብ	-775
▁መጣ	-776
▁ገዛ	-777
▁መም	-778
▁እንኳን	-779
ዱን	-780
▁ልታ	-781
▁ፍላ	-782
ደርገው	-783
ምንም	-784
ሞከር	-785
▁ተጨማሪ	-786
ረብ	-787
▁የሚያስ	-788
ግጥ	-789
▁ብር	-790
▁በሙሉ	-791
ንቅ	-792
ወደ	-793
▁ጭ	-794
ለመ	-795
ቁም	-796
▁ኖ	-797
▁ጨዋ	-798
▁የቤት	-799
▁አይችልም	-800
▁ቦስተን	-801
▁አልቻልኩም	-802
▁መቀ	-803
▁መስሎ	-804
የቀኑ	-805
▁በስ	-806
▁አባቴ	-807
▁ወይም	-808
▁የለብ	-809
▁በየቀኑ	-810
▁ፎ	-811
ላችሁ	-812
ቡን	-813
ዳን	-814
▁እድል	-815
▁መስራት	-816
ባው	-817
▁ጀመ	-818
▁መዝ	-819
▁ለእኔ	-820
▁ሁላችንም	-821
ባል	-822
ኛውን	-823
ካከል	-824
▁ቡና	-825
▁ሰማ	-826
▁ስም	-827
▁ይገባ	-828
▁ደብዳቤ	-829
ሰር	-830
ቶቡ	-831
ኝነት	-832
▁ከሰ	-833
ሉት	-834
ከረ	-835
▁ር	-836
▁ማው	-837
▁በግ	-838
▁አበ	-839
▁ፖሊ	-840
ገብ	-841
ቃለሁ	-842
ከፍ	-843
ፃፍ	-844
▁ከቶም	-845
ምሮ	-846
ስክ	-847
ጠር	-848
ካችሁ	-849
▁ምክንያት	-850
▁መሆ	-851
ዎቹ	-852
ጫወ	-853
ረፍት	-854
▁በአንድ	-855
ላለሁ	-856
▁እባካችሁ	-857
ሏል	-858
ጋሪ	-859
ጨነ	-860
▁ብለው	-861
▁በቅርቡ	-862
▁እመኛለሁ	-863
ብን	-864
ቀመጥ	-865
▁ኣመ	-866
▁እሱን	-867
ቆይ	-868
▁ሊያ	-869
▁ዝግ	-870
▁እርዳታ	-871
▁እንደተ	-872
▁ፍላጎት	-873
▁አለብዎት	-874
ከሰ	-875
ቶችን	-876
▁ቀናት	-877
▁ተመል	-878
▁ነዎት	-879
ለኝ	-880
ችኋ	-881
ኖች	-882
ድነው	-883
ማት	-884
ችሉም	-885
ሳል	-886
▁እህ	-887
▁ረጅም	-888
ራው	-889
ንቋ	-890
▁እንቅ	-891
▁የተሻለ	-892
▁ወር	-893
▁ከተማ	-894
▁ትክክል	-895
▁እንዳለብኝ	-896
ቦች	-897
ዝቃ	-898
▁ወድ	-899
▁በዝ	-900
▁አይችሉም	-901
ሞች	-902
▁ሙዚ	-903
▁በጭ	-904
▁ወላጆ	-905
ሰጥ	-906
ሁም	-907
ቀር	-908
ዘን	-909
▁ሄደ	-910
▁በህ	-911
ሉን	-912
▁ስት	-913
▁አስቸ	-914
ልፅ	-915
▁ይጠ	-916
▁መብላት	-917
▁የምፈልገው	-918
ችላለን	-919
▁እንችላለን	-920
ሽት	-921
ታም	-922
ዋን	-923
ይወ	-924
ገም	-925
▁ቅር	-926
▁ይፈልጋል	-927
ለውን	-928
ፈለግ	-929
▁መጠበቅ	-930
▁እንዲያ	-931
▁ሰራ	-932
▁ፈል	-933
▁አልወድም	-934
▁ስር	-935
▁ጠየቀ	-936
▁በእርግጥ	-937
ሴን	-938
ጣል	-939
▁ነበርኩ	-940
ሰድ	-941
ከባ	-942
▁ያውቃል	-943
ብህ	-944
00	-945
መም	-946
ሮችን	-947
ረጥ	-948
▁ተሳ	-949
▁ሰጠ	-950
▁በየ	-951
ግባ	-952
ፕላ	-953
▁ግድ	-954
▁እየሰራ	-955
ፉን	-956
▁ፅ	-957
▁ሱ	-958
▁ዘግ	-959
▁ነበረብኝ	-960
ቢያው	-961
ወደው	-962
▁ብዙውን	-963
ፈራ	-964
ኛውም	-965
ተና	-966
▁ንግ	-967
▁አር	-968
▁አዝ	-969
▁ይሻ	-970
▁ሁለቱ	-971
▁መታ	-972
▁በራ	-973
▁መስሎኝ	-974
▁እንግሊ	-975
▁ቀደም	-976
▁ብዙም	-977
▁እንደሚያ	-978
ከው	-979
▁የኔ	-980
ሷል	-981
▁መዋ	-982
▁እንግዳ	-983
ሰው	-984
በዝ	-985
ጣለሁ	-986
ንስ	-987
▁አካ	-988
▁ታሪክ	-989
▁አስቀድ	-990
ሌት	-991
በቃ	-992
ባሉ	-993
ክት	-994
▁ሀብ	-995
▁ስላ	-996
▁ዝም	-997
ሳሳይ	-998
ውቀው	-999
▁አስቤ	-1000
ሰጠ	-1001
ቼን	-1002
ነፍ	-1003
ዳል	-1004
ቋንቋ	-1005
ቀኝ	-1006
▁በፍፁም	-1007
ፋት	-1008
▁አገ	-1009
ራሽ	-1010
▁ደክ	-1011
ጦታ	-1012
▁ዝግጁ	-1013
▁በሩን	-1014
▁መግዛት	-1015
ሞት	-1016
▁ዘግይ	-1017
▁የገና	-1018
ንገ	-1019
▁ሸ	-1020
ገረኝ	-1021
▁አልቻለም	-1022
ዝቃዛ	-1023
▁መምጣት	-1024
▁እባክዎን	-1025
ክፍ	-1026
ባቸው	-1027
▁ጉዞ	-1028
▁ኣመት	-1029
ህር	-1030
ላቸው	-1031
▁ተወ	-1032
▁ድም	-1033
▁ተመለ	-1034
ችኝ	-1035
ሁድ	-1036
ሰብኩ	-1037
▁ቤቱ	-1038
▁ትኩ	-1039
▁የወ	-1040
▁አላስ	-1041
▁ተናግሯል	-1042
ሜሪካ	-1043
▁እቅድ	-1044
ሳተ	-1045
ነቱ	-1046
ያዝ	-1047
ሳለሁ	-1048
▁ሰም	-1049
▁ፀጉ	-1050
▁ቋንቋ	-1051
▁ይወዳል	-1052
ቋል	-1053
ዳው	-1054
ጋው	-1055
ፏል	-1056
▁ኢ	-1057
▁መሰ	-1058
▁ወረ	-1059
▁ህይወት	-1060
▁ማውራት	-1061
ሸን	-1062
ደሰ	-1063
▁በኣ	-1064
▁ድመ	-1065
▁አላምንም	-1066
▁ምስ	-1067
▁ጫማ	-1068
ስም	-1069
▁ቲ	-1070
▁ወዲ	-1071
ቦስተን	-1072
▁ስጦታ	-1073
▁ይወዳሉ	-1074
▁እንድታ	-1075
▁ከእርስዎ	-1076
ኖረው	-1077
ግርህ	-1078
▁የራ	-1079
▁በመጨረሻ	-1080
ልድ	-1081
▁በዚያ	-1082
▁እንፈልጋ	-1083
ካም	-1084
▁ሰላ	-1085
▁ጠረ	-1086
▁አንዱ	-1087
▁እንፈልጋለን	-1088
ረጃ	-1089
▁ዜ	-1090
▁ቁጥር	-1091
▁መጫወት	-1092
ኬት	-1093
ክክ	-1094
ታችን	-1095
▁በበ	-1096
▁ካል	-1097
▁መኖር	-1098
▁የተለ	-1099
ሩት	-1100
▁ለብ	-1101
▁ለዚህ	-1102
ጠና	-1103
ጦር	-1104
ፓርቲ	-1105
▁ምሽት	-1106
▁አሉኝ	-1107
▁የእርስዎ	-1108
ራሉ	-1109
▁በም	-1110
▁ዶክ	-1111
▁ቀዝቃዛ	-1112
▁አስቸጋሪ	-1113
ሂድ	-1114
ምፒ	-1115
ወሰነ	-1116
▁በባ	-1117
▁አጣ	-1118
▁ይቻ	-1119
▁ይኖ	-1120
▁አለን	-1121
▁እናቴ	-1122
▁የመጀመሪያ	-1123
መው	-1124
▁ወስ	-1125
▁ደግ	-1126
▁ፕ	-1127
▁ልብ	-1128
▁ፎቶ	-1129
▁አሉት	-1130
▁እሁድ	-1131
▁አመሰግ	-1132
▁ተመሳሳይ	-1133
▁እንደሆን	-1134
▁ማጥ	-1135
▁በወ	-1136
▁ይሰራ	-1137
▁ስራውን	-1138
▁ይቻላል	-1139
ሆንም	-1140
▁በረዶ	-1141
▁ደረጃ	-1142
▁ፈልጌ	-1143
▁መደ	-1144
▁ደክሞ	-1145
▁ብቻዬን	-1146
ሙን	-1147
ፈን	-1148
ጴዛው	-1149
▁ለመስ	-1150
▁በጭራሽ	-1151
▁እረፍት	-1152
▁ወደዚያ	-1153
ሶች	-1154
ታዊ	-1155
▁ፈቃ	-1156
▁የአየር	-1157
ርባ	-1158
ይት	-1159
▁ብት	-1160
▁ያስፈልገ	-1161
ኗል	-1162
▁መለ	-1163
▁ቀድ	-1164
▁ኩባ	-1165
▁የው	-1166
▁ደር	-1167
ነገር	-1168
ርዝ	-1169
ጉም	-1170
▁ለሁ	-1171
▁ቦርሳ	-1172
▁አመሰግናለሁ	-1173
ካራ	-1174
መስላ	-1175
ሮፕላ	-1176
▁ተቀ	-1177
ሄዳለሁ	-1178
▁መማር	-1179
▁በአው	-1180
▁እሄዳለሁ	-1181
ብር	-1182
ነስ	-1183
ጠፋ	-1184
ችሁም	-1185
ጠይቅ	-1186
▁ፊት	-1187
ተኛት	-1188
▁አድ	-1189
▁ያስባሉ	-1190
▁አንችልም	-1191
ወስድ	-1192
▁ምሳ	-1193
▁ተከ	-1194
▁መቆየት	-1195
ቀስ	-1196
ባቢ	-1197
▁ለው	-1198
▁ማሳ	-1199
▁እድሜ	-1200
▁መካከል	-1201
▁አውቶቡ	-1202
▁ለማርያም	-1203
▁1	-1204
ደርገ	-1205
▁በፈ	-1206
▁ትመስላ	-1207
ቀቅ	-1208
ፈት	-1209
▁ኳ	-1210
በው	-1211
ቷን	-1212
▁ልክ	-1213
▁ትር	-1214
▁ኣመታት	-1215
ጨስ	-1216
▁ታስ	-1217
▁ፒ	-1218
ስትራ	-1219
▁አመ	-1220
▁አልገባ	-1221
ለማ	-1222
ለድ	-1223
▁ልን	-1224
▁ካር	-1225
▁ስብሰ	-1226
▁የእሱ	-1227
▁ያደረ	-1228
▁ለአንድ	-1229
▁ከአሁን	-1230
▁እንቅልፍ	-1231
▁ማንበብ	-1232
ግራ	-1233
▁ተራ	-1234
▁ጎበዝ	-1235
ጠበቅ	-1236
▁በር	-1237
▁ነፃ	-1238
▁መንገ	-1239
ራጭ	-1240
▁አጋ	-1241
▁ሙዚቃ	-1242
▁ብስክ	-1243
▁እውነቱን	-1244
ሳኔ	-1245
ስር	-1246
ጠን	-1247
ለህም	-1248
ልሃል	-1249
ሰማኝ	-1250
▁ዳር	-1251
ስትራሊ	-1252
▁ጓደኞች	-1253
▁በቦስተን	-1254
ቃል	-1255
የው	-1256
▁መሳ	-1257
▁የል	-1258
▁ለገና	-1259
ሚያ	-1260
ችለው	-1261
ያየት	-1262
▁ደን	-1263
▁ቀኑን	-1264
▁በሁ	-1265
▁መስኮ	-1266
▁ለማየት	-1267
መጣል	-1268
▁ስጠኝ	-1269
▁ለማግኘት	-1270
▁የመጨረሻ	-1271
ላር	-1272
ይታ	-1273
▁ተኝ	-1274
▁መዋኘት	-1275
▁መውጣት	-1276
▁ወዲያው	-1277
ሊት	-1278
ሌም	-1279
ስብ	-1280
▁ቀይ	-1281
▁ጨዋታ	-1282
▁ፖሊስ	-1283
ናገረ	-1284
▁ልዩ	-1285
▁የቀ	-1286
▁ድምፅ	-1287
▁አትችልም	-1288
ቻል	-1289
ኩኝ	-1290
ደት	-1291
ፈር	-1292
▁መክ	-1293
▁የታ	-1294
▁ካንተ	-1295
▁እንዳት	-1296
▁ከሰአት	-1297
ሆና	-1298
ቤተ	-1299
▁መልስ	-1300
▁ማስተ	-1301
▁ይሄዳ	-1302
▁ግልፅ	-1303
ሬን	-1304
ሰል	-1305
ዷል	-1306
▁ሮ	-1307
ሰራው	-1308
▁ሳጥ	-1309
▁በሳ	-1310
▁ሁሌም	-1311
▁አሳል	-1312
ነገ	-1313
ረጅም	-1314
▁ተቃ	-1315
▁ኣሳ	-1316
ጄዋለሁ	-1317
▁ትክክ	-1318
ቤቴ	-1319
ጠት	-1320
▁ልጁ	-1321
▁ለማን	-1322
▁ልብስ	-1323
ታማ	-1324
▁በው	-1325
▁እግ	-1326
▁ሰአት	-1327
▁መሆኑን	-1328
ዋቂ	-1329
▁ውሳኔ	-1330
ስትራሊያ	-1331
ኒስ	-1332
ፃህ	-1333
ነዚህ	-1334
▁ጀመረ	-1335
▁ፈተና	-1336
ክስ	-1337
ረዳት	-1338
▁ሲያ	-1339
▁ቀጠ	-1340
▁ፊልም	-1341
▁ንገረኝ	-1342
ሀይ	-1343
ቃሚ	-1344
▁ህል	-1345
▁ቁል	-1346
ዘኛ	-1347
የኝ	-1348
ይል	-1349
ደል	-1350
▁መነ	-1351
▁ሰኞ	-1352
▁ወቅ	-1353
▁ቀለም	-1354
ረድ	-1355
ደኛ	-1356
ጧል	-1357
ታለች	-1358
ዝኛ	-1359
ፁህ	-1360
ፎች	-1361
ፈልጉ	-1362
▁አፍ	-1363
▁እመር	-1364
▁አደረግ	-1365
▁መጀመሪያ	-1366
▁እንደማይ	-1367
ዱት	-1368
▁አዳ	-1369
▁የመጣ	-1370
ኩህ	-1371
▁መፍ	-1372
▁ከወ	-1373
▁ወጥ	-1374
ናገረው	-1375
▁ህይወ	-1376
▁በመስ	-1377
▁ደደብ	-1378
▁አስተማሪ	-1379
ቂያ	-1380
ስማማ	-1381
ነበር	-1382
ፖርት	-1383
▁አቀ	-1384
▁መምህ	-1385
ሸት	-1386
አለሁ	-1387
▁ቢራ	-1388
▁እመርጣለሁ	-1389
ሌቪ	-1390
ሌቪዥ	-1391
ዎትም	-1392
▁ኖሮ	-1393
▁አለመ	-1394
▁መመለስ	-1395
ጠራ	-1396
▁ኪ	-1397
ሸነፍ	-1398
▁ረሳ	-1399
▁በእኔ	-1400
ረፍ	-1401
▁ኬ	-1402
▁አይደሉም	-1403
▁እንደዚያ	-1404
ሩኝ	-1405
▁ለመግ	-1406
▁ምርጫ	-1407
▁አየሁ	-1408
▁ዶላር	-1409
▁ጠቃሚ	-1410
▁ያውቃሉ	-1411
ገበ	-1412
ስፒ	-1413
ክሲ	-1414
ራለች	-1415
ጀመር	-1416
▁ድር	-1417
ፈልገውን	-1418
▁ትላ	-1419
▁ውጤ	-1420
▁ወድጄዋለሁ	-1421
ሄደ	-1422
ማል	-1423
በስ	-1424
ወር	-1425
▁ፈለ	-1426
▁የተሳ	-1427
▁እነዚያ	-1428
▁ያለውን	-1429
▁ነገሮችን	-1430
ናው	-1431
ጠጣ	-1432
▁በጉ	-1433
▁አቁም	-1434
▁ወቅት	-1435
▁ወጣት	-1436
▁መተኛት	-1437
▁እነዚህን	-1438
መረ	-1439
ክም	-1440
ጎዳ	-1441
▁ሴ	-1442
▁ንፁህ	-1443
▁ኣይነት	-1444
▁ጓደኛዬ	-1445
▁ከማርያም	-1446
ከቱ	-1447
ኩል	-1448
▁ድን	-1449
▁ግራ	-1450
▁መጠን	-1451
▁ለምንድነው	-1452
ቋቋ	-1453
በረ	-1454
ደደ	-1455
ጋት	-1456
▁ፓ	-1457
▁ስልክ	-1458
▁እራት	-1459
▁እንደዛ	-1460
▁ይሰራል	-1461
ያኖ	-1462
▁ሄድ	-1463
ላው	-1464
ዲህ	-1465
ጣን	-1466
▁ተን	-1467
▁ይቆ	-1468
▁ማቆም	-1469
▁መስማት	-1470
ዲዮ	-1471
▁አቅ	-1472
▁ጨር	-1473
▁እኔም	-1474
▁እንዳይ	-1475
▁ጠንካራ	-1476
ብራ	-1477
▁ለመር	-1478
▁በእውነ	-1479
▁አልነበረ	-1480
▁መድ	-1481
ስፒታል	-1482
▁ጠንክ	-1483
▁መውሰድ	-1484
ተህ	-1485
▁ሀኪ	-1486
▁ፍፁም	-1487
▁አካባቢ	-1488
ሬት	-1489
▁ሂ	-1490
ለችም	-1491
ኮትን	-1492
▁ተኛ	-1493
▁ተጫ	-1494
▁ያሳ	-1495
▁አደገኛ	-1496
▁ጣቢያው	-1497
▁እጠላለሁ	-1498
▁ጃ	-1499
ለመደ	-1500
ረዋል	-1501
▁እፈ	-1502
▁የባ	-1503
ልሃለሁ	-1504
▁እንስ	-1505
▁ጀምሮ	-1506
▁ከአንድ	-1507
▁ከፍተኛ	-1508
▁የተለየ	-1509
▁እባኮትን	-1510
ዘጋጀ	-1511
ጨረስ	-1512
▁መከ	-1513
▁ስእ	-1514
▁በሌ	-1515
▁በረ	-1516
▁ምክር	-1517
▁ሀብታም	-1518
▁ከእንግ	-1519
ዳሜ	-1520
ህንፃ	-1521
ለዋል	-1522
▁ከሁ	-1523
▁ኳስ	-1524
▁ፈፅ	-1525
▁ያደርጋ	-1526
ዘግ	-1527
▁ሻይ	-1528
▁ቀድሞ	-1529
▁ቃላት	-1530
▁ይናገ	-1531
ሟል	-1532
ኣቱ	-1533
▁ሹ	-1534
▁በሩ	-1535
▁የጥ	-1536
▁መቼም	-1537
▁ከእኛ	-1538
▁ሁለቱም	-1539
▁ለመርዳት	-1540
ለል	-1541
ውም	-1542
ዙሪያ	-1543
▁አማ	-1544
▁እቃ	-1545
▁ህመም	-1546
▁ወይን	-1547
▁የምታ	-1548
▁ፓርቲ	-1549
ደድ	-1550
▁ማመን	-1551
▁ባቡሩ	-1552
▁ወንድሜ	-1553
ራዊ	-1554
ጠቀም	-1555
▁በላ	-1556
▁እጅ	-1557
▁ፕሮ	-1558
ሻሻ	-1559
ሽን	-1560
ይን	-1561
ገት	-1562
ቀመጫ	-1563
▁ባህ	-1564
▁እኔን	-1565
▁ቴሌቪዥ	-1566
▁አልፈለ	-1567
▁በእውነቱ	-1568
▁አይመስልም	-1569
ዝና	-1570
ያዊ	-1571
ፈቅ	-1572
ረጋገ	-1573
▁ህፃ	-1574
▁ቢሮ	-1575
▁ክብ	-1576
▁ጥን	-1577
▁ቅዳሜ	-1578
▁ፈፅሞ	-1579
▁በመኪና	-1580
▁ወደዚህ	-1581
▁ፍጥነት	-1582
ቂኝ	-1583
ድስት	-1584
ጠየቅ	-1585
▁ኬክ	-1586
▁ጦር	-1587
▁የዚህ	-1588
▁ያድር	-1589
ጣሚ	-1590
▁የህ	-1591
▁ከዚያ	-1592
▁አሜሪካ	-1593
▁አልገባኝም	-1594
ቁር	-1595
ወል	-1596
ጓዝ	-1597
▁ቶ	-1598
ደርስ	-1599
ፈጠረ	-1600
▁ነግ	-1601
▁ያሉ	-1602
▁ፊል	-1603
ችኋለሁ	-1604
▁ራሴን	-1605
▁በዝቶ	-1606
▁ዳርቻ	-1607
▁መጠቀም	-1608
▁ይመጣል	-1609
ላቅ	-1610
▁ሶ	-1611
▁ፋ	-1612
ምፒው	-1613
ከተማ	-1614
▁ከት	-1615
▁ወፍ	-1616
ፃህፍት	-1617
▁መልእ	-1618
▁ማነው	-1619
▁ይገባል	-1620
ሳካ	-1621
ጥቂት	-1622
▁ባቡር	-1623
▁ብለህ	-1624
▁ትወዳ	-1625
▁አላት	-1626
▁የፈለ	-1627
▁ፈቃደኛ	-1628
▁የተወሰነ	-1629
ከን	-1630
ዘገ	-1631
በትን	-1632
▁ከም	-1633
▁እገም	-1634
▁ማንንም	-1635
▁ለእርስዎ	-1636
▁እገምታለሁ	-1637
▁ከእንግዲህ	-1638
ገን	-1639
ሄድም	-1640
ትክል	-1641
▁ተለ	-1642
▁የሰ	-1643
▁ማስታ	-1644
▁ዘፈን	-1645
▁ያስፈልግ	-1646
ጀም	-1647
ጡት	-1648
ጭር	-1649
▁ማጨስ	-1650
▁እርስ	-1651
▁ለመሄድ	-1652
▁ታደርጋ	-1653
ሀው	-1654
ራቸው	-1655
ቸዋል	-1656
ጠብቅ	-1657
▁የድ	-1658
▁ያዘ	-1659
▁አባት	-1660
▁ጃፓን	-1661
▁ፍቅር	-1662
▁የለንም	-1663
▁ይሄዳል	-1664
ጠው	-1665
▁2	-1666
መጣም	-1667
ደውል	-1668
ነግርህ	-1669
▁በክፍ	-1670
▁አብዛ	-1671
▁ደረሰ	-1672
▁ጉዳዩ	-1673
▁ለረጅም	-1674
▁ነገረኝ	-1675
▁አላቸው	-1676
▁አስተያየት	-1677
30	-1678
ስቱ	-1679
ጓል	-1680
▁በታ	-1681
▁ታም	-1682
▁አና	-1683
▁ጠብ	-1684
ታውስም	-1685
▁መረጃ	-1686
▁ታዋቂ	-1687
▁ይወስ	-1688
▁አስቂኝ	-1689
▁አጠገብ	-1690
▁ዶክተር	-1691
▁እፈራለሁ	-1692
ሃኒ	-1693
ርሱ	-1694
ወጥ	-1695
ጥብ	-1696
ችኋል	-1697
ደሰት	-1698
▁ሞተ	-1699
▁ቆይ	-1700
▁ከእሱ	-1701
▁በአንተ	-1702
▁አንተን	-1703
▁ተማሪዎች	-1704
ከፋ	-1705
▁አስር	-1706
▁ከሆነ	-1707
▁መጨረሻ	-1708
▁ነበረው	-1709
▁እንደሚሆን	-1710
▁ያስፈልግዎታል	-1711
ርፍ	-1712
▁ትእ	-1713
▁ዜና	-1714
▁ይቀ	-1715
▁ሁለታ	-1716
▁አገር	-1717
▁ጓደኞ	-1718
▁ነበረች	-1719
ስህ	-1720
▁ሞቃት	-1721
▁አደረገ	-1722
ሩም	-1723
ራፊ	-1724
ረምት	-1725
ዘንብ	-1726
ግስት	-1727
▁ተቀም	-1728
▁ነበረኝ	-1729
▁አምስት	-1730
ደግ	-1731
ፍያ	-1732
ረዳኝ	-1733
ኩትን	-1734
▁ቀጥ	-1735
▁ፖም	-1736
▁በጥሩ	-1737
▁ቴኒስ	-1738
▁ይልቅ	-1739
▁ጊዜው	-1740
▁አድርጌ	-1741
ንጥ	-1742
ረዳህ	-1743
ሻለሁ	-1744
ገናኘ	-1745
▁የፈ	-1746
▁ወሰደ	-1747
▁ግንኙ	-1748
▁መሞከር	-1749
▁መርዳት	-1750
▁መንዳት	-1751
▁በሰኣቱ	-1752
▁አብረን	-1753
▁ትክክለኛ	-1754
ንክ	-1755
ደበ	-1756
ጠል	-1757
▁ባዶ	-1758
▁ክፍት	-1759
▁ለመሆን	-1760
▁ትርጉም	-1761
ቃቄ	-1762
ችም	-1763
እምሮ	-1764
ደርጉ	-1765
▁ቀሚ	-1766
▁እም	-1767
▁ገብ	-1768
ኛውንም	-1769
▁ያልተ	-1770
▁እንዳለበት	-1771
▁በፈረንሳይኛ	-1772
ንፋ	-1773
ገግ	-1774
ኛለህ	-1775
▁የስ	-1776
▁ስራዬን	-1777
▁ወንዶች	-1778
▁መነጋገር	-1779
▁አውሮፕላ	-1780
▁እንደማት	-1781
▁እየሞከር	-1782
መኝ	-1783
ንጣ	-1784
ከኝ	-1785
ጤና	-1786
ንግሊ	-1787
▁እሆ	-1788
▁ህንፃ	-1789
▁መብራ	-1790
▁ኮፍያ	-1791
▁ውሻው	-1792
▁ገዛሁ	-1793
▁ፀጉር	-1794
▁ለማለት	-1795
▁መድሃኒ	-1796
▁ከአንተ	-1797
▁ይለኛል	-1798
▁ሆስፒታል	-1799
▁እሆናለሁ	-1800
ቤን	-1801
ቸኮ	-1802
ወራ	-1803
ዳንዱ	-1804
▁ነጭ	-1805
▁ይታ	-1806
▁አየር	-1807
ጠረጴዛው	-1808
▁መስጠት	-1809
▁ብቻውን	-1810
▁አይሆንም	-1811
▁አላስታውስም	-1812
ሬው	-1813
በዛ	-1814
ነሱ	-1815
ፈጥ	-1816
ቋቋም	-1817
▁ስል	-1818
▁ግብ	-1819
▁አንብ	-1820
▁ያንተ	-1821
▁ጥቅም	-1822
▁በህይወት	-1823
▁እንግሊዘኛ	-1824
▁ኤ	-1825
▁ኦ	-1826
ንሰር	-1827
▁ሜሪ	-1828
▁ተገ	-1829
▁ናት	-1830
▁ፈረ	-1831
▁እንቁ	-1832
▁አሰብኩ	-1833
▁ደክሞኛል	-1834
▁ማንኛውንም	-1835
▁እንደምችል	-1836
ጣሉ	-1837
▁ሆቴ	-1838
▁መተ	-1839
▁የማን	-1840
▁አስታው	-1841
▁ለመስራት	-1842
ሁኑ	-1843
ለብ	-1844
ቻለ	-1845
ገኙ	-1846
▁ሬ	-1847
ናለን	-1848
▁መራ	-1849
▁በቃ	-1850
▁ዛፍ	-1851
ረጋገጥ	-1852
▁ምልክ	-1853
▁ብልህ	-1854
▁እያን	-1855
▁መጠጣት	-1856
▁እንሂድ	-1857
▁ምንድነው	-1858
ብኛል	-1859
▁ለም	-1860
▁ስጋ	-1861
▁አደን	-1862
▁ወተት	-1863
ርክ	-1864
ፋል	-1865
ሞክር	-1866
ጨነቅ	-1867
▁ለራ	-1868
▁እህቴ	-1869
▁ቤተሰብ	-1870
ረፈ	-1871
ሮጥ	-1872
ትር	-1873
ነሰ	-1874
ንዳ	-1875
ጠቢያ	-1876
▁ጠፍ	-1877
ጠይቅህ	-1878
▁መልካም	-1879
▁ጠረጴዛ	-1880
▁ለመግዛት	-1881
ለቀ	-1882
ነብ	-1883
ንቲ	-1884
ፊያ	-1885
▁ዙሪያ	-1886
▁ጥቁር	-1887
ሞላ	-1888
የሁ	-1889
ጭቆ	-1890
ገናኝ	-1891
▁ልጄ	-1892
ችለውን	-1893
▁መተው	-1894
▁ተወዳ	-1895
▁እየቀ	-1896
▁እድለኛ	-1897
▁ወዲያውኑ	-1898
▁ታደርጋለህ	-1899
ሰቡ	-1900
ካል	-1901
ድርግ	-1902
ጀምር	-1903
▁ይም	-1904
▁መፃፍ	-1905
▁በቶም	-1906
▁ከየት	-1907
▁መጠየቅ	-1908
▁ኮምፒው	-1909
▁ለመናገር	-1910
▁መፅሀፉን	-1911
ረሳ	-1912
ሰሩ	-1913
ቧል	-1914
ንጥላ	-1915
▁ብቸ	-1916
▁ዋና	-1917
▁ለውጥ	-1918
▁ማሰብ	-1919
▁በድን	-1920
▁አልጋ	-1921
▁አስተዋ	-1922
▁ይወስዳል	-1923
▁ሜ	-1924
▁ሩ	-1925
ራለን	-1926
ነበብ	-1927
▁አያስፈልገ	-1928
▁እንዳልሆነ	-1929
ፋጭ	-1930
ከርኩ	-1931
ዎቹን	-1932
▁ሞክ	-1933
▁ውሾ	-1934
▁ይው	-1935
▁ገበ	-1936
ሬያለሁ	-1937
▁ለማስ	-1938
▁ፈገግ	-1939
▁ያለብን	-1940
ተወ	-1941
ናቂ	-1942
▁ለል	-1943
▁መመ	-1944
▁ቀር	-1945
▁ህልም	-1946
▁መደብ	-1947
▁ምርጥ	-1948
▁እናት	-1949
▁ስብሰባ	-1950
▁አድርግ	-1951
▁አይደለህም	-1952
ለቅ	-1953
ኞቹ	-1954
ሰራም	-1955
በዋል	-1956
በደር	-1957
ዘጋጅ	-1958
▁ለተ	-1959
▁በቀላሉ	-1960
▁ብርጭቆ	-1961
▁ብስክሌት	-1962
ሜራ	-1963
ርጥ	-1964
ሪዎች	-1965
ቀመጠ	-1966
▁ከቤት	-1967
▁ክፍሉ	-1968
▁የሴት	-1969
▁ለማንም	-1970
▁አድርጓል	-1971
ስን	-1972
▁ቁልፍ	-1973
▁ለሶስት	-1974
▁በእግር	-1975
ረበ	-1976
ሸራ	-1977
ትም	-1978
▁ጮ	-1979
▁አለቃ	-1980
▁ካሜራ	-1981
▁ወይስ	-1982
▁የተወ	-1983
▁ይመለ	-1984
▁አይደለ	-1985
▁የለብህም	-1986
ላፊ	-1987
በኛ	-1988
ችሉ	-1989
ፈቀ	-1990
ስህን	-1991
▁ሄጄ	-1992
▁ሰጥ	-1993
▁አሰል	-1994
▁አድራ	-1995
▁ዝርዝ	-1996
▁ሰዎችን	-1997
▁እንደሌ	-1998
▁ሰምቻለሁ	-1999
▁ይናገራል	-2000
መመ	-2001
ማሽ	-2002
ሪው	-2003
ናግ	-2004
ጆች	-2005
ለኛው	-2006
▁ባል	-2007
▁እንጂ	-2008
▁እግር	-2009
▁ጀርባ	-2010
▁ተመለከተ	-2011
▁አዝናለሁ	-2012
▁ትመስላለህ	-2013
ነቀ	-2014
▁ዲ	-2015
▁አጭር	-2016
▁መቋቋም	-2017
▁መኪናው	-2018
▁ተወዳጅ	-2019
▁እየጠበ	-2020
▁ተመልከት	-2021
▁አለባቸው	-2022
▁እውነተኛ	-2023
▁እንደሚችል	-2024
በሉ	-2025
ቶቹ	-2026
ኝታ	-2027
ያይ	-2028
ጠቀ	-2029
ፓርኩ	-2030
▁እብ	-2031
▁የግ	-2032
▁በማን	-2033
▁እመለ	-2034
▁ማስታወ	-2035
▁በጃፓን	-2036
▁አድርገ	-2037
▁ልነግርህ	-2038
ያንስ	-2039
▁የሌ	-2040
ደርግም	-2041
▁ሻንጣ	-2042
▁ችግሩ	-2043
▁ይበል	-2044
ናገረውን	-2045
▁መዝገበ	-2046
▁ቢያንስ	-2047
▁ያስፈልገዋል	-2048
ዲት	-2049
ሞችን	-2050
ነበረ	-2051
ዳለሁ	-2052
ፈለጉ	-2053
▁ልም	-2054
▁ምግ	-2055
▁ተሸ	-2056
▁ነፋ	-2057
▁ይመ	-2058
▁መነፅ	-2059
▁ፒያኖ	-2060
▁አላገኘ	-2061
▁አልበላ	-2062
▁ወላጆቼ	-2063
▁መፃህፍት	-2064
▁ግንኙነት	-2065
መጥ	-2066
በትም	-2067
▁በሽ	-2068
▁ከሌ	-2069
▁ቁርስ	-2070
▁ቡድን	-2071
▁አላየ	-2072
▁ነበርክ	-2073
▁አገኘሁ	-2074
▁አይቻለሁ	-2075
▁እናመሰግ	-2076
ላቀ	-2077
ሬታ	-2078
ታር	-2079
ነዳ	-2080
ጠላ	-2081
ቦችን	-2082
ውጣት	-2083
▁አመጣ	-2084
▁የድሮ	-2085
▁ጣፋጭ	-2086
▁ከሶስት	-2087
▁አምናለሁ	-2088
▁አይፈልግም	-2089
▁እናመሰግናለን	-2090
ባይ	-2091
ራፊክ	-2092
ብላት	-2093
ኖረኝ	-2094
▁ጠፋ	-2095
▁በርሳ	-2096
▁ፈለገ	-2097
▁ትኩረት	-2098
▁የእግር	-2099
▁የማውቀው	-2100
▁አልነበረብ	-2101
▁ጥያቄዎችን	-2102
ምት	-2103
ረዱ	-2104
ገነ	-2105
▁ጊ	-2106
ጃለሁ	-2107
▁ሃሳ	-2108
▁መገ	-2109
▁ከል	-2110
▁ጋዜ	-2111
▁ጥር	-2112
ከባከብ	-2113
▁አጣሁ	-2114
▁ያገኘ	-2115
▁ጠበቃ	-2116
▁ተሰማኝ	-2117
▁ትላንት	-2118
▁አይሰማ	-2119
▁አደንቃለሁ	-2120
ቁት	-2121
▁ንገ	-2122
▁ሚስጥ	-2123
▁ትሄዳ	-2124
▁ይሞክ	-2125
▁ቅዳሜና	-2126
▁ችግሩን	-2127
▁መኪናውን	-2128
▁ያደርጋል	-2129
ራም	-2130
ብሰል	-2131
ታቸው	-2132
▁ውጪ	-2133
▁ይሄ	-2134
ፈለግክ	-2135
▁ቅሬታ	-2136
▁አይታ	-2137
▁ለሁሉም	-2138
▁ሞከርኩ	-2139
▁ክረምት	-2140
▁አገኘሁት	-2141
▁እንደሆንክ	-2142
ርድ	-2143
ንኩ	-2144
ከራ	-2145
ደረሰ	-2146
▁ሸሚ	-2147
▁ትል	-2148
▁ጠይ	-2149
መለከት	-2150
▁ልጆቹ	-2151
▁ስልኩ	-2152
▁እችል	-2153
▁ይመል	-2154
▁ብሎኛል	-2155
▁የትኛው	-2156
▁ልጠይቅህ	-2157
▁ነበረበት	-2158
▁አስቀድሜ	-2159
▁አልነበረኝም	-2160
▁አያስፈልግም	-2161
ራችሁ	-2162
ዶችን	-2163
▁ድግ	-2164
▁በቀር	-2165
▁የእኛ	-2166
▁በኣለም	-2167
▁ማረጋገጥ	-2168
▁እንግሊዝኛ	-2169
ላሳ	-2170
ጨት	-2171
ሎችን	-2172
▁ሀኪም	-2173
▁ሞከረ	-2174
▁ራሱን	-2175
▁ስህተ	-2176
▁ስለሱ	-2177
▁ቤቱን	-2178
▁ተነሳ	-2179
▁የምር	-2180
▁ድመት	-2181
▁መሳሪያ	-2182
▁ወላጆች	-2183
▁ይሻላል	-2184
▁መልእክት	-2185
▁እያሰብኩ	-2186
▁የሆነውን	-2187
▁የትኛውን	-2188
ዮን	-2189
▁ጓ	-2190
ቆየት	-2191
▁ብታ	-2192
▁ታማ	-2193
▁የፀ	-2194
▁የፍ	-2195
▁ደወ	-2196
▁አልፎ	-2197
▁ጠየቅ	-2198
▁እንደምን	-2199
ሰቃ	-2200
ሰዱ	-2201
ቡት	-2202
ንፋን	-2203
ከውን	-2204
ገባኝ	-2205
ገንዘ	-2206
▁ልጃ	-2207
▁ሞኝ	-2208
▁ስታ	-2209
▁በደ	-2210
▁ተው	-2211
▁ጥፋ	-2212
▁አዲሱ	-2213
▁እስኪ	-2214
▁እገዛ	-2215
ግጠኝነት	-2216
▁መክፈል	-2217
▁እባክዎ	-2218
▁ከእነዚህ	-2219
ሪክ	-2220
ቦት	-2221
ጋይ	-2222
▁በብ	-2223
▁አሏ	-2224
▁ጠየ	-2225
▁በእሱ	-2226
▁እሰራ	-2227
▁እይታ	-2228
▁በበረዶ	-2229
▁አድራሻ	-2230
▁ወንበር	-2231
▁ስለነበር	-2232
▁ይሻልሃል	-2233
▁በእርግጠኝነት	-2234
ስቃ	-2235
ኪዮ	-2236
ሄደው	-2237
▁ህዝ	-2238
▁ሌሊ	-2239
▁ተደ	-2240
▁ነሽ	-2241
▁ትሆና	-2242
▁ወንጀ	-2243
▁የቅር	-2244
▁መግባት	-2245
▁ይኖራል	-2246
▁ገንዘቡን	-2247
▁ትችላላችሁ	-2248
ወቀ	-2249
ኩትም	-2250
ጋችሁ	-2251
▁ሀሳ	-2252
▁ተጋ	-2253
▁ተግባ	-2254
▁ታላቅ	-2255
▁እንድን	-2256
▁ያደረግ	-2257
▁መስኮቱን	-2258
በሳ	-2259
ንጫ	-2260
ርስቲ	-2261
ፈቅድ	-2262
▁ችሎ	-2263
▁መጠጥ	-2264
▁በመን	-2265
▁ሳይሆን	-2266
▁እንደሆንኩ	-2267
ልባ	-2268
መና	-2269
ሳቱ	-2270
ታሉ	-2271
ከለ	-2272
ገለ	-2273
ገል	-2274
ጋራ	-2275
▁ቆመ	-2276
▁ይሸ	-2277
▁ፈር	-2278
▁መፅሃ	-2279
▁አደረ	-2280
▁እሷን	-2281
▁ይጫወ	-2282
▁ጦርነት	-2283
▁አውቶቡስ	-2284
ሽም	-2285
ባበ	-2286
ባብ	-2287
ኋት	-2288
ኔን	-2289
እም	-2290
ያል	-2291
▁ሪ	-2292
መስል	-2293
ረዳው	-2294
ስበው	-2295
ብዎት	-2296
ቸውም	-2297
▁ሃይ	-2298
▁መላ	-2299
▁ምላ	-2300
▁ቆር	-2301
▁ተሰ	-2302
▁ሌሎች	-2303
▁ሰላም	-2304
▁ሰላሳ	-2305
▁ሳጥን	-2306
▁ተረድ	-2307
▁አይቼ	-2308
▁አይገባ	-2309
▁ሁላችሁም	-2310
▁ለመጨረሻ	-2311
▁መድሃኒት	-2312
▁እናደርጋ	-2313
▁አያስፈልገኝም	-2314
ጥፎ	-2315
ግባት	-2316
▁የሞ	-2317
▁የጎ	-2318
▁ለፊት	-2319
▁ተስማ	-2320
▁ተዘግ	-2321
▁ከጓደ	-2322
▁ጊታር	-2323
▁ባለቤቴ	-2324
▁ጠየቀኝ	-2325
▁አይወድም	-2326
▁እናደርጋለን	-2327
ሃን	-2328
ቀዝ	-2329
ኳር	-2330
ጥሞ	-2331
ንቀሳ	-2332
▁ከው	-2333
▁ዳግ	-2334
▁ሆቴል	-2335
▁ሴቶች	-2336
▁በልጅ	-2337
▁እየጨ	-2338
▁አትክል	-2339
▁በድንገት	-2340
▁የተሳሳተ	-2341
ሷን	-2342
ቀበ	-2343
ረውም	-2344
ረጋግ	-2345
ባለህ	-2346
ፈዋል	-2347
▁ቁጥ	-2348
▁ቲቪ	-2349
ቀዋለሁ	-2350
▁ቀሚስ	-2351
▁ቆሻሻ	-2352
▁በስራ	-2353
▁ቤተሰ	-2354
▁እኔና	-2355
▁እጠብ	-2356
▁መቀመጫ	-2357
▁ሰማያዊ	-2358
▁ችግሮች	-2359
▁እየሆነ	-2360
▁ያለብኝ	-2361
▁በጠረጴዛው	-2362
ዘም	-2363
ያዩ	-2364
ጡን	-2365
▁ሾ	-2366
ወሰን	-2367
▁ቤቴ	-2368
▁ቶሎ	-2369
▁ኋላ	-2370
▁ኢን	-2371
▁ፅሁ	-2372
▁ሰማሁ	-2373
▁በማለ	-2374
▁ቀድሞው	-2375
▁ትመስላለች	-2376
▁እየሞከርኩ	-2377
▁አውስትራሊያ	-2378
ረታ	-2379
ነቴ	-2380
ፀዳ	-2381
▁ጆ	-2382
ሶችን	-2383
▁በዛ	-2384
▁ችላ	-2385
▁አሻ	-2386
▁የሁ	-2387
▁ሃሳብ	-2388
▁ቅርብ	-2389
▁ተኛሁ	-2390
▁ታክሲ	-2391
▁ጉዳት	-2392
▁ሌሊቱን	-2393
▁ሰኣታት	-2394
▁ኩባንያ	-2395
▁የጃፓን	-2396
▁እርስዎን	-2397
▁አግኝቻለሁ	-2398
ሮው	-2399
ሳስ	-2400
ፈስ	-2401
ለተኛ	-2402
ሪያው	-2403
ስቃሴ	-2404
በታል	-2405
ቶቡስ	-2406
▁ለዛ	-2407
▁የቆ	-2408
▁በስተ	-2409
▁ባህሪ	-2410
▁እቤት	-2411
▁ውሸት	-2412
▁ጣእም	-2413
▁ልትነግ	-2414
▁ስድስት	-2415
▁ከመጠን	-2416
▁ያስቀም	-2417
▁በሳምንት	-2418
ሸጥ	-2419
ቃወ	-2420
ቡር	-2421
ፃፈ	-2422
ራለህ	-2423
▁ለስ	-2424
▁አዎ	-2425
▁ጤና	-2426
▁ሰጠኝ	-2427
▁ያሉት	-2428
▁ጭንቅ	-2429
▁ፈጣን	-2430
▁ስለዚያ	-2431
▁ተናገረ	-2432
▁ወፍራም	-2433
▁ጉንፋን	-2434
▁አታውቅም	-2435
▁ያስፈልጋ	-2436
▁አይደለችም	-2437
▁አይደለንም	-2438
▁አስታውሳለሁ	-2439
ባረ	-2440
ዶቹ	-2441
ራችን	-2442
ስዎን	-2443
ቀዋል	-2444
ጋጣሚ	-2445
▁ተቆ	-2446
▁አሮ	-2447
▁የኣ	-2448
▁ግጥ	-2449
▁በተለ	-2450
▁ነገረ	-2451
▁ልረዳህ	-2452
▁አላሰብ	-2453
▁አሰልቺ	-2454
▁አብረው	-2455
▁ከትምህርት	-2456
▁የለብዎትም	-2457
ሮቹ	-2458
ቱም	-2459
ናሽ	-2460
ፋር	-2461
ቶቹን	-2462
ቻችን	-2463
▁ቀረ	-2464
▁ከቀ	-2465
ነበረው	-2466
ውቃለን	-2467
▁በቀን	-2468
▁አስብ	-2469
▁የሚወ	-2470
▁አስፈሪ	-2471
▁አስደናቂ	-2472
▁አይተሃል	-2473
▁አትፈልግም	-2474
ሄዱ	-2475
ማረ	-2476
ራን	-2477
ርኩ	-2478
ሽር	-2479
በቀ	-2480
ነቅ	-2481
ኒው	-2482
ንሰ	-2483
ካከ	-2484
ጎበ	-2485
በላሽ	-2486
▁ተር	-2487
▁እዳ	-2488
▁ወታ	-2489
▁ላለመ	-2490
▁በጥን	-2491
▁አሉን	-2492
▁አሸን	-2493
▁ኩባያ	-2494
▁ይጠብ	-2495
▁በሁሉም	-2496
▁በባህር	-2497
▁አስቀም	-2498
▁የሆነው	-2499
▁ያስባል	-2500
▁በአትክል	-2501
▁ቴሌቪዥን	-2502
▁እንዳለህ	-2503
▁ጠረጴዛው	-2504
▁እናውቃለን	-2505
ላከ	-2506
ልን	-2507
ሎት	-2508
መህ	-2509
ራብ	-2510
ክብ	-2511
ዟል	-2512
ፈጠ	-2513
ፖሊ	-2514
▁ኑ	-2515
ወገድ	-2516
▁ረድ	-2517
▁ተዋ	-2518
▁ከፈ	-2519
▁የደ	-2520
▁ይን	-2521
ሄዳለን	-2522
▁ብሆን	-2523
▁እነሱ	-2524
▁ክፍሌ	-2525
▁ነበርን	-2526
▁ማስታወሻ	-2527
▁ጥያቄዎች	-2528
▁እንሄዳለን	-2529
ረጡ	-2530
ተሩ	-2531
ካሽ	-2532
▁ቻ	-2533
▁ዩ	-2534
ሰማው	-2535
ፈለገ	-2536
▁እጥ	-2537
▁ጎረ	-2538
▁መኝታ	-2539
▁ቀልድ	-2540
▁በገና	-2541
▁ብለን	-2542
▁ተጫዋ	-2543
▁አስራ	-2544
▁አውቅ	-2545
▁እብድ	-2546
▁ድንቅ	-2547
▁ግድግ	-2548
▁ጣቢያ	-2549
▁በተቻለ	-2550
▁እንስሳት	-2551
▁ይመልከቱ	-2552
▁ይበልጣል	-2553
ምጃ	-2554
ሩህ	-2555
ፅፍ	-2556
ፖር	-2557
▁ስን	-2558
▁ያው	-2559
ደርጉት	-2560
▁ለመቀ	-2561
▁ለማጥ	-2562
▁መሬት	-2563
▁ማብራ	-2564
▁የእጅ	-2565
▁ይደር	-2566
▁ስብሰባው	-2567
▁የምኖረው	-2568
▁እጠብቃለሁ	-2569
ረጠ	-2570
ስቶ	-2571
ንጉ	-2572
ካኝ	-2573
ዘው	-2574
ያቂ	-2575
ዲስ	-2576
ገቡ	-2577
ግሩ	-2578
ሳለች	-2579
ችሁን	-2580
ናደድ	-2581
ከሰት	-2582
▁ሀይ	-2583
▁መጨ	-2584
▁ማለ	-2585
▁በድ	-2586
▁ባይ	-2587
▁እቆ	-2588
መልከት	-2589
▁ችሎታ	-2590
▁አቅር	-2591
▁ድመቷ	-2592
▁ምልክት	-2593
▁አደርገ	-2594
▁ሰርቻለሁ	-2595
▁እሰራለሁ	-2596
▁እንቅስቃሴ	-2597
▁አደርገዋለሁ	-2598
ቧን	-2599
ነጋገ	-2600
▁ህግ	-2601
▁ሽጉ	-2602
▁ተነ	-2603
▁ዝቅ	-2604
▁የኮ	-2605
ናገርም	-2606
ገንዘብ	-2607
ፌያለሁ	-2608
▁የውጭ	-2609
▁ለአንተ	-2610
▁መሰለኝ	-2611
▁ብስክሌ	-2612
▁እርምጃ	-2613
▁አይሰማኝም	-2614
▁የማደርገው	-2615
ተን	-2616
ማመን	-2617
▁ማህ	-2618
▁በክ	-2619
▁ተም	-2620
▁መብት	-2621
▁ስለተ	-2622
▁ስእል	-2623
▁አነሳ	-2624
▁እወስ	-2625
▁ገበያ	-2626
▁አልቋል	-2627
▁አማራጭ	-2628
▁መንገዱን	-2629
▁ትወዳለች	-2630
▁የምችለው	-2631
ቿን	-2632
ድና	-2633
ተኞች	-2634
ንቀቅ	-2635
ገኘው	-2636
ጠዋል	-2637
▁ማእ	-2638
▁ይባ	-2639
▁ጀም	-2640
▁ጠር	-2641
▁ሄድኩ	-2642
▁የትም	-2643
▁አድርጎ	-2644
▁እየሄድ	-2645
▁የተሞላ	-2646
▁ይሞክሩ	-2647
▁ማንኛውም	-2648
▁በአጋጣሚ	-2649
▁በጥንቃቄ	-2650
▁እየጠበቅ	-2651
▁የመጣሁት	-2652
▁የተለመደ	-2653
▁በትምህርት	-2654
▁እንዳደርግ	-2655
▁እያንዳንዱ	-2656
ርን	-2657
ቆመ	-2658
ቦል	-2659
ወጣል	-2660
ውሰድ	-2661
▁ካለ	-2662
▁ያዝ	-2663
▁ፈራ	-2664
▁በታች	-2665
▁እስክ	-2666
▁መንሸራ	-2667
▁ማሳለፍ	-2668
▁ማብሰል	-2669
▁ያድርጉ	-2670
▁ታስባለህ	-2671
▁ትሄዳለህ	-2672
▁አውቶቡሱ	-2673
▁ለመጀመሪያ	-2674
▁የመጨረሻው	-2675
▁አልነበረውም	-2676
ሌጅ	-2677
መቱ	-2678
ኣት	-2679
ጋጠ	-2680
ጎቴ	-2681
ሳለህ	-2682
ቻቸው	-2683
▁ሂሳ	-2684
▁ለሰ	-2685
▁መጋ	-2686
▁ማረ	-2687
▁ባት	-2688
▁ስላል	-2689
▁ስኳር	-2690
▁በአደ	-2691
▁እህት	-2692
▁እየሞ	-2693
▁ረሳሁት	-2694
▁በከተማ	-2695
▁በፓርኩ	-2696
▁ንግግር	-2697
▁አንዱን	-2698
▁የለህም	-2699
▁የትርፍ	-2700
▁አደረግሁ	-2701
▁እራስህን	-2702
▁አላሰብኩም	-2703
ለቲ	-2704
ርም	-2705
ይና	-2706
በላው	-2707
ጣለች	-2708
▁ማሽ	-2709
▁ምኞ	-2710
▁ሱቅ	-2711
▁ከሚ	-2712
▁የሙ	-2713
ላችኋል	-2714
ልዎታል	-2715
ወደውም	-2716
▁ሃላፊ	-2717
▁ሳምን	-2718
▁አያቴ	-2719
▁ኣለም	-2720
▁እሞክ	-2721
▁ያነሰ	-2722
▁ሁለተኛ	-2723
▁ለጥቂት	-2724
▁በማለዳ	-2725
▁የመኪና	-2726
▁የበረዶ	-2727
▁ትሆናለህ	-2728
▁አልነበር	-2729
▁እንዲሆን	-2730
▁እንዳንተ	-2731
▁ያደረገው	-2732
▁እመለሳለሁ	-2733
▁እንደሚያስ	-2734
ሀኝ	-2735
ኖሩ	-2736
ካክ	-2737
ደሩ	-2738
ጮህ	-2739
ፉት	-2740
ፋው	-2741
ረፍተ	-2742
ነቱን	-2743
▁ለወ	-2744
▁መቶ	-2745
▁ራሴ	-2746
▁ብን	-2747
▁ፍሬ	-2748
ብሰባው	-2749
▁ላገኝ	-2750
▁መሮጥ	-2751
▁ርካሽ	-2752
▁እሷም	-2753
▁ለማወቅ	-2754
▁በሶስት	-2755
▁የሚችል	-2756
▁ቀድሞውኑ	-2757
▁ደቂቃዎች	-2758
ረቀ	-2759
ራይ	-2760
ብቅ	-2761
ንታ	-2762
ይዛ	-2763
ፈሰ	-2764
ሆንክ	-2765
ራቢያ	-2766
ናንተ	-2767
▁ቢላ	-2768
▁እጄ	-2769
▁ወለ	-2770
▁የጠ	-2771
▁ያም	-2772
▁ጎዳ	-2773
▁ፃፍ	-2774
▁ሀገር	-2775
▁በራሴ	-2776
▁የስራ	-2777
▁ያለኝ	-2778
▁ይምጡ	-2779
ርስቲያን	-2780
▁በክፍሉ	-2781
▁ተጠያቂ	-2782
▁የማይታ	-2783
▁የቅርብ	-2784
▁የወንድ	-2785
▁እየፈለግ	-2786
▁አልፈለኩም	-2787
▁አውቀዋለሁ	-2788
▁እሞክራለሁ	-2789
ጠሩ	-2790
ቀዝቀ	-2791
ቀድሞ	-2792
ቶኛል	-2793
ከባከ	-2794
ጨረቃ	-2795
▁ስኬ	-2796
▁ቀስ	-2797
▁ጫጫ	-2798
ህንነት	-2799
▁መከረ	-2800
▁ምላሽ	-2801
▁ባህር	-2802
▁ሁኔታው	-2803
▁መነፅር	-2804
▁ማጥፋት	-2805
▁እንደምታ	-2806
ስኩ	-2807
ቁን	-2808
ናሉ	-2809
ከፈ	-2810
ጣሪ	-2811
ስቷል	-2812
ቦቹን	-2813
▁በኮ	-2814
▁ናፍ	-2815
▁ያኔ	-2816
ቀዝቀዣ	-2817
ፈልጉት	-2818
▁ቀጠለ	-2819
▁አራት	-2820
▁ወደቀ	-2821
▁የሚል	-2822
▁ተኝቷል	-2823
▁አልሰማ	-2824
▁አጋጥሞ	-2825
▁እናንተ	-2826
▁ክብደት	-2827
▁ይውሰዱ	-2828
መኛ	-2829
ካማ	-2830
ካን	-2831
ኳት	-2832
ፅሀ	-2833
▁ጡ	-2834
ረጋጋ	-2835
ቁረጥ	-2836
ወሰድ	-2837
ፍትሄ	-2838
▁ቸኮ	-2839
▁ከብ	-2840
▁ጠጣ	-2841
▁ለማሳ	-2842
▁ውሾች	-2843
▁ግብዣ	-2844
▁በጉጉት	-2845
▁ወረቀት	-2846
▁ዝርዝር	-2847
▁በእንግሊ	-2848
▁የማይቻል	-2849
▁በአትክልቱ	-2850
▁የሚያስፈልገ	-2851
ሎቹ	-2852
የም	-2853
የን	-2854
ያት	-2855
ዮች	-2856
ፋሪ	-2857
ምስት	-2858
የኝም	-2859
ፖሊስ	-2860
▁የቴ	-2861
▁ሬዲዮ	-2862
▁በሚያ	-2863
▁ከማን	-2864
▁ያስደ	-2865
▁ለሁለት	-2866
▁ለመማር	-2867
▁ልጃገረ	-2868
▁ማንሳት	-2869
▁ማጥናት	-2870
▁ወንድም	-2871
▁ያለብህ	-2872
▁ለመብላት	-2873
▁አስቀድሞ	-2874
▁ይመስላሉ	-2875
▁ፈተናውን	-2876
▁ሁለታችንም	-2877
ኮች	-2878
ይዝ	-2879
ገደ	-2880
ጩሀ	-2881
መዋል	-2882
ስተም	-2883
ከተል	-2884
▁ለት	-2885
▁ስነ	-2886
▁ቃላ	-2887
▁ንፋ	-2888
▁አነ	-2889
▁በሆነ	-2890
▁አመለ	-2891
▁ወሰነ	-2892
▁የሉም	-2893
▁ያውቅ	-2894
▁ይደው	-2895
▁ደስታ	-2896
▁ድልድ	-2897
▁ጨለማ	-2898
▁አልሆነ	-2899
▁አሳየኝ	-2900
▁የሚሆን	-2901
▁መከረችው	-2902
▁ኮምፒውተር	-2903
▁የማርያምን	-2904
ቸግ	-2905
ኳይ	-2906
▁ቼ	-2907
ምጣት	-2908
ዝቦል	-2909
▁ሄዱ	-2910
▁በቁ	-2911
▁ተብ	-2912
▁ነፍ	-2913
▁ዘፈ	-2914
▁ዳቦ	-2915
ናግርህ	-2916
▁ለስራ	-2917
▁ብቃት	-2918
▁ተራራ	-2919
▁አበባ	-2920
▁የገባ	-2921
▁ፀሀይ	-2922
▁መቀመጥ	-2923
▁በህይወ	-2924
▁ተቀመጥ	-2925
▁አንዳን	-2926
▁እራሱን	-2927
▁ከጥቂት	-2928
▁ደርሷል	-2929
▁ያለብዎት	-2930
መራ	-2931
ሮፓ	-2932
ብረ	-2933
ብዛ	-2934
ዘዝ	-2935
ጎብ	-2936
▁ዣ	-2937
ረናል	-2938
▁ቀለ	-2939
▁ከዛ	-2940
ንሰርቱ	-2941
ዘጋጀት	-2942
▁ምስጢ	-2943
▁ተገኝ	-2944
▁ነፋሱ	-2945
▁አትፍ	-2946
▁የአው	-2947
▁ጠርሙ	-2948
▁ጥፋት	-2949
▁ልዩነት	-2950
▁መደወል	-2951
▁መፍትሄ	-2952
▁ተመልሶ	-2953
▁ተናገር	-2954
▁አልፏል	-2955
▁አእምሮ	-2956
▁እየበላ	-2957
▁ከፈለጉ	-2958
▁ጓደኞቼ	-2959
▁በስተቀር	-2960
▁በማንኛውም	-2961
▁እወስዳለሁ	-2962
▁ይመስላችኋል	-2963
▁በአውስትራሊያ	-2964
ጓዴ	-2965
ለብስ	-2966
ሰማህ	-2967
ሰጥህ	-2968
ቃላይ	-2969
ፈራም	-2970
▁መሀ	-2971
▁ሞት	-2972
▁ራስ	-2973
▁እጁ	-2974
▁ጠላ	-2975
▁ጥቅ	-2976
ረንጓዴ	-2977
ቼዋለሁ	-2978
▁ቀጠሮ	-2979
▁በኩል	-2980
▁ቤቶች	-2981
▁ተጠም	-2982
▁እየደ	-2983
▁ከስራ	-2984
▁ይጠይ	-2985
▁መንቀጥ	-2986
▁መደብር	-2987
▁ተናደደ	-2988
▁ክፍሉን	-2989
▁ዘግይቶ	-2990
▁ዣንጥላ	-2991
▁የፈረንሳይ	-2992
ሰች	-2993
ታተ	-2994
ካት	-2995
ዙን	-2996
ሸንፍ	-2997
ቀውን	-2998
ዳለች	-2999
▁ልማ	-3000
▁ተጣ	-3001
▁እዛ	-3002
▁ዝና	-3003
▁ይስ	-3004
▁ጉድ	-3005
▁ትሰራ	-3006
▁ትናገ	-3007
▁ንግድ	-3008
▁አልጠ	-3009
▁አውጥ	-3010
▁ከአው	-3011
▁ውጤት	-3012
▁ያለህ	-3013
▁ይላል	-3014
▁ጨካኝ	-3015
▁ተጫዋች	-3016
▁ኣረፍተ	-3017
▁እፈልግ	-3018
▁የሚገር	-3019
▁አገኛለሁ	-3020
▁የሚያምር	-3021
▁ማስተካከል	-3022
ለሽ	-3023
መጡ	-3024
ኩለ	-3025
ዘዘ	-3026
ጋግ	-3027
ጦች	-3028
ለፊያ	-3029
ሰበረ	-3030
ቋረጥ	-3031
ባከን	-3032
ከሰተ	-3033
ክምና	-3034
▁ብእ	-3035
▁ከን	-3036
▁ሌሊት	-3037
▁ሚስት	-3038
▁ሸሚዝ	-3039
▁በቤተ	-3040
▁ተጫው	-3041
▁ነጥብ	-3042
▁አቅም	-3043
▁እጠይ	-3044
▁ይገር	-3045
▁ውሻውን	-3046
▁የባህር	-3047
▁ያደርገ	-3048
▁አልነገር	-3049
▁እናድርግ	-3050
▁እንቁላል	-3051
▁ያድርጉት	-3052
▁እንደምትችል	-3053
▁እንደምትፈልግ	-3054
ቁኝ	-3055
ቋር	-3056
ዳር	-3057
ጥኩ	-3058
ፊቱ	-3059
ቃለን	-3060
ዋለን	-3061
ውያን	-3062
ገኛል	-3063
ፎችን	-3064
▁ማል	-3065
▁ሽታ	-3066
▁በጀ	-3067
▁በፀ	-3068
▁ክሬ	-3069
▁ጠራ	-3070
▁ፀጥ	-3071
ገናኘት	-3072
ፓርታማ	-3073
▁ለመጠ	-3074
▁ልምድ	-3075
▁ምስል	-3076
▁ስምም	-3077
▁ባለሙ	-3078
▁ትኩስ	-3079
▁አልቆ	-3080
▁አይቻ	-3081
▁ወዴት	-3082
▁የሚቆ	-3083
▁የተቻ	-3084
▁ገባሁ	-3085
▁ጫጫታ	-3086
▁መልቀቅ	-3087
▁እንስሳ	-3088
▁የተሰራ	-3089
▁ይባላል	-3090
▁ምክንያታዊ	-3091
▁የመጀመሪያው	-3092
ያዙ	-3093
ትንሽ	-3094
ነገረ	-3095
▁አወ	-3096
▁ወጪ	-3097
▁የዋ	-3098
▁ይሰ	-3099
መለከተ	-3100
▁ለእር	-3101
▁ማሽን	-3102
▁በሽታ	-3103
▁ብሏል	-3104
▁እወድ	-3105
▁ወታደ	-3106
▁ጀልባ	-3107
▁መምህሩ	-3108
▁መጀመር	-3109
▁ብቻህን	-3110
▁አሳለፍ	-3111
▁አረንጓዴ	-3112
▁እንድታደርግ	-3113
ለጥ	-3114
ቃጠ	-3115
ታይ	-3116
ኖሚ	-3117
ካታ	-3118
ፍን	-3119
ላለች	-3120
▁ሂድ	-3121
▁ለሌ	-3122
▁ላለ	-3123
▁መካ	-3124
▁በነ	-3125
▁ኩኪ	-3126
▁ያዙ	-3127
▁ይፈ	-3128
▁በወን	-3129
▁ታማኝ	-3130
▁እሰማ	-3131
▁እኩል	-3132
▁ጥገና	-3133
▁ፈረስ	-3134
▁መሆኔን	-3135
▁ሳይቆይ	-3136
▁ተቀመጠ	-3137
▁እንዳታ	-3138
▁ያስታው	-3139
▁ይህንኑ	-3140
▁መብራቱን	-3141
▁ትወዳለህ	-3142
▁አዝኛለሁ	-3143
▁አልወደውም	-3144
▁እንደሚፈልግ	-3145
▁እንደተፈጠረ	-3146
ላም	-3147
ቢሮ	-3148
ማለሁ	-3149
ሰዋል	-3150
ንያው	-3151
▁ማቆ	-3152
▁ስቴ	-3153
▁በቡ	-3154
▁ከበ	-3155
▁የቡ	-3156
በላለሁ	-3157
▁ሊነግ	-3158
▁መርከ	-3159
▁መያዝ	-3160
▁ሻወር	-3161
▁ባለው	-3162
▁ተንኮ	-3163
▁ትመጣ	-3164
▁አሮጌ	-3165
▁አስቆ	-3166
▁እገባ	-3167
▁ክፍያ	-3168
▁ደካማ	-3169
ደርገውም	-3170
▁ሰርቷል	-3171
▁ተውኩት	-3172
▁እስማማ	-3173
▁እየሄደ	-3174
▁እያደረ	-3175
▁ዳግመኛ	-3176
▁ለመረዳት	-3177
▁ማብራሪያ	-3178
▁እንድሄድ	-3179
▁ከፈለግክ	-3180
▁ለማንኛውም	-3181
▁በመጀመሪያ	-3182
▁አይታየኝም	-3183
▁እንዳለብን	-3184
ሁህ	-3185
ረኛ	-3186
ሪካ	-3187
ሹን	-3188
ናዳ	-3189
ወጠ	-3190
ዘር	-3191
ዳም	-3192
ጫው	-3193
▁ቪ	-3194
ሌክት	-3195
ብስብ	-3196
ታለን	-3197
ዋለች	-3198
ዳመጥ	-3199
▁ማሰ	-3200
▁ቀል	-3201
▁ከስ	-3202
▁የሳ	-3203
ስተዋል	-3204
▁ለመዋ	-3205
▁ስራው	-3206
▁ቢላዋ	-3207
▁ትልቁ	-3208
▁አልታ	-3209
▁እኛን	-3210
▁ከኋላ	-3211
▁ዘመን	-3212
▁የገዛ	-3213
▁ገናን	-3214
▁ለእራት	-3215
▁መበደር	-3216
▁በግልፅ	-3217
▁ብርሃን	-3218
▁አንዲት	-3219
▁አይርሱ	-3220
▁የአካል	-3221
▁የጥርስ	-3222
▁እነዚያን	-3223
▁እንደማል	-3224
▁እንገናኝ	-3225
▁እየሰራሁ	-3226
▁ዘግይቷል	-3227
▁የለብኝም	-3228
▁የሚያውቅ	-3229
▁እስማማለሁ	-3230
▁ያስፈልገኛል	-3231
ራበ	-3232
ቀይ	-3233
ቤቱ	-3234
ቨር	-3235
ቲክ	-3236
ናፍ	-3237
ኪያ	-3238
ድግ	-3239
ፐር	-3240
ብስክ	-3241
ነግር	-3242
ከንድ	-3243
ጊዜው	-3244
ጫለሁ	-3245
ፊያው	-3246
▁ሁን	-3247
▁ምት	-3248
▁ርእ	-3249
▁በጎ	-3250
▁በፖ	-3251
▁ከጎ	-3252
▁ውሸ	-3253
ከፍላል	-3254
▁ሄድን	-3255
▁ለመክ	-3256
▁መልሱ	-3257
▁ተገቢ	-3258
▁ነግሬ	-3259
▁ይላሉ	-3260
▁ይረዳ	-3261
▁ጋዜጣ	-3262
▁ግምት	-3263
▁መራመድ	-3264
▁ሚስጥር	-3265
▁ማጠቢያ	-3266
▁አዲሱን	-3267
▁ያልሆነ	-3268
▁ድንጋይ	-3269
▁ጫማዎች	-3270
▁ለመድረስ	-3271
▁ነበረብህ	-3272
▁አልሄድም	-3273
▁አቅራቢያ	-3274
▁መንሸራተት	-3275
ሻው	-3276
ይም	-3277
ደገ	-3278
ጎድ	-3279
ጤን	-3280
ጭን	-3281
ጮች	-3282
ሊዮን	-3283
ሰጠኝ	-3284
ንግድ	-3285
ኳቸው	-3286
ዝናና	-3287
▁ክራ	-3288
▁ወዳ	-3289
▁ውጣ	-3290
▁ይለ	-3291
▁ፍን	-3292
ታችንን	-3293
▁ለእሱ	-3294
▁ልሄድ	-3295
▁መጓዝ	-3296
▁አሰበ	-3297
▁አሳይ	-3298
▁አየሩ	-3299
▁እመክ	-3300
▁የተሻ	-3301
▁ላገኝህ	-3302
▁አንብቤ	-3303
▁ከወላጆ	-3304
▁የምችል	-3305
▁ይኖራሉ	-3306
▁ጥፋተኛ	-3307
▁ሳምንታት	-3308
▁አግኝቷል	-3309
▁እየጨመረ	-3310
▁የነበረው	-3311
▁በስብሰባው	-3312
▁እንድትሄድ	-3313
▁አልነበረብኝም	-3314
ሱት	-3315
ቀዘ	-3316
ቃሉ	-3317
ብም	-3318
ንባ	-3319
ወጡ	-3320
ዞር	-3321
ዳሚ	-3322
▁5	-3323
ምህር	-3324
▁ለሚ	-3325
▁ሰክ	-3326
▁ጫፍ	-3327
▁ጮሀ	-3328
መጣለሁ	-3329
▁ህፃኑ	-3330
▁ለመን	-3331
▁ለዚያ	-3332
▁በመቶ	-3333
▁በኣል	-3334
▁ቢሆን	-3335
▁ይሆን	-3336
▁ይጀም	-3337
▁ጥንድ	-3338
ፈልጉትን	-3339
▁በተሻለ	-3340
▁በአሁኑ	-3341
▁እንዳላ	-3342
▁እውነታ	-3343
▁ድመቶች	-3344
▁አይሰራም	-3345
▁ክርስቲያን	-3346
ሃዊ	-3347
ለደ	-3348
ምሩ	-3349
ስቸ	-3350
ውል	-3351
ደይ	-3352
ረዱኝ	-3353
ስተዋ	-3354
ጥጥር	-3355
ፅዳት	-3356
▁ናፈ	-3357
▁እጆ	-3358
▁ዘዴ	-3359
▁ገደ	-3360
▁ፀሀ	-3361
ታቸውን	-3362
▁ሰውዬ	-3363
▁በቁም	-3364
▁ትእዛ	-3365
▁ናችሁ	-3366
▁አርጅ	-3367
▁አርፍ	-3368
▁አታስ	-3369
▁አውሎ	-3370
▁አጥብ	-3371
▁እሰጥ	-3372
▁ወንዝ	-3373
▁የማል	-3374
▁ይሁን	-3375
▁ደርሶ	-3376
▁ድንገ	-3377
▁መስመር	-3378
▁መክፈት	-3379
▁ስምህን	-3380
▁ቁልፉን	-3381
▁በመስኮ	-3382
▁በባቡር	-3383
▁አበቦች	-3384
▁አታድር	-3385
▁የምግብ	-3386
▁የነገር	-3387
▁ላናግርህ	-3388
▁በመንገድ	-3389
▁አስተዋይ	-3390
▁አላገኘሁም	-3391
19	-3392
ላዊ	-3393
ልዎ	-3394
ርሃ	-3395
ከፊ	-3396
ኩበት	-3397
ኮኖሚ	-3398
ዋለህ	-3399
ፈጥሮ	-3400
▁ልቦ	-3401
▁ቀበ	-3402
▁ቀና	-3403
▁አቁ	-3404
▁የኢ	-3405
▁ፕሬ	-3406
▁ተሸፍ	-3407
▁አውቄ	-3408
▁አገል	-3409
▁አገባ	-3410
▁እየዘ	-3411
▁ዘገባ	-3412
▁መጨረስ	-3413
▁ማሸነፍ	-3414
▁ሰከንድ	-3415
▁ይመለከ	-3416
▁ለእርዳታ	-3417
▁መንግስት	-3418
▁አልሆነም	-3419
▁የለበትም	-3420
▁የማርያም	-3421
▁መንከባከብ	-3422
▁አብዛኛውን	-3423
ሂዱ	-3424
ላማ	-3425
ሳሉ	-3426
ከም	-3427
ወግ	-3428
ዱም	-3429
▁ጌ	-3430
ልህም	-3431
ቃለች	-3432
ተኛው	-3433
ኖችን	-3434
▁በካ	-3435
▁እሺ	-3436
▁ጩሀ	-3437
ሄድበት	-3438
ገራለሁ	-3439
ጎብኘት	-3440
▁በሌላ	-3441
▁አይኖ	-3442
▁እስር	-3443
▁እጄን	-3444
▁ከቤተ	-3445
▁ድግስ	-3446
▁ገንዳ	-3447
▁ጥልቅ	-3448
▁ፅሁፍ	-3449
▁ለመያዝ	-3450
▁መደነስ	-3451
▁ባለሙያ	-3452
▁አመታት	-3453
▁አታስብ	-3454
▁የሚገባ	-3455
▁የእሱን	-3456
▁ያላቸው	-3457
▁ጓደኛህ	-3458
▁ሁለቱንም	-3459
▁ለማንበብ	-3460
▁መኪናዬን	-3461
▁ተዘግቷል	-3462
▁ነበረብን	-3463
▁አላየሁም	-3464
▁አልመጣም	-3465
▁አልበላም	-3466
▁አፓርታማ	-3467
▁እመጣለሁ	-3468
▁የለብንም	-3469
▁ጓደኛሞች	-3470
▁በአውቶቡስ	-3471
▁እንደሚሰራ	-3472
▁እንደሚችሉ	-3473
▁ደብዳቤውን	-3474
▁የምትፈልገውን	-3475
ልበ	-3476
ሯን	-3477
ባቴ	-3478
ተኮ	-3479
ንን	-3480
ንጀ	-3481
ዛኝ	-3482
ደጋ	-3483
ገስ	-3484
ጥረ	-3485
▁ሺ	-3486
ሳተፍ	-3487
ቶኪዮ	-3488
ገባት	-3489
▁ሳል	-3490
▁በጨ	-3491
▁አፅ	-3492
▁ዘፋ	-3493
▁ፈጅ	-3494
ሰብኩት	-3495
ቻቸውን	-3496
▁ሃይል	-3497
▁ረሳሁ	-3498
▁በላሁ	-3499
▁በራሱ	-3500
▁ከእሷ	-3501
▁ከክፍ	-3502
▁የከፋ	-3503
▁የወደ	-3504
▁የግል	-3505
▁ይበላ	-3506
▁ጡረታ	-3507
▁ፈልጎ	-3508
▁ፖስታ	-3509
▁ማቆሚያ	-3510
▁ስለሆነ	-3511
▁በቅርብ	-3512
▁ቢኖረኝ	-3513
▁ተናጋሪ	-3514
▁ወንጀል	-3515
▁ይደውሉ	-3516
▁ፓርቲው	-3517
▁በህይወቴ	-3518
▁እራስዎን	-3519
▁የአትክል	-3520
▁የእንግሊ	-3521
▁ይጫወታል	-3522
▁አልፈለገም	-3523
▁አውሮፕላን	-3524
▁እንዳለብህ	-3525
▁የሚፈልጉት	-3526
▁ያልተለመደ	-3527
▁አልነበርኩም	-3528
ረዝ	-3529
ባሪ	-3530
ነኝ	-3531
ፀፀ	-3532
ቀበል	-3533
ታለህ	-3534
ጣጠር	-3535
ፈጠር	-3536
▁ህመ	-3537
▁ቆየ	-3538
▁ባር	-3539
▁ብል	-3540
▁ይተ	-3541
▁ደም	-3542
▁ግባ	-3543
ስማማም	-3544
ቸዋለሁ	-3545
▁ለእኛ	-3546
▁ስሙን	-3547
▁ብሩህ	-3548
▁ንፋስ	-3549
▁አጎቴ	-3550
▁እኩለ	-3551
▁እውን	-3552
▁የጠፋ	-3553
▁ፕሮጀ	-3554
▁ተስማሚ	-3555
▁ተበላሽ	-3556
▁አሳፋሪ	-3557
▁እየመጣ	-3558
▁ክራባት	-3559
▁ዜናውን	-3560
▁ተንኮለኛ	-3561
▁አስቸኳይ	-3562
▁በዝቶብኛል	-3563
▁የትምህርት	-3564
▁ትክክለኛውን	-3565
▁የሚፈልጉትን	-3566
▁የምፈልገውን	-3567
▁የሚያስፈልገኝ	-3568
ሪስ	-3569
ራጠ	-3570
ቃድ	-3571
ቼው	-3572
ፈፀ	-3573
▁ቱ	-3574
ፃፈው	-3575
▁ለበ	-3576
▁ፎቅ	-3577
ናደርግ	-3578
▁ህዝብ	-3579
▁ለመፍ	-3580
▁ሰባት	-3581
▁ሳንቲ	-3582
▁በአጠ	-3583
▁ታምሜ	-3584
▁አምል	-3585
▁አምጡ	-3586
▁አባቱ	-3587
▁አካል	-3588
▁ኣይነ	-3589
▁ወንበ	-3590
▁ዝናቡ	-3591
▁ደግሞ	-3592
▁መልበስ	-3593
▁መረዳት	-3594
▁መርከብ	-3595
▁መቀጠል	-3596
▁ታስታው	-3597
▁ፊልሞች	-3598
▁እበላለሁ	-3599
▁እንዲሄድ	-3600
▁የሚኖረው	-3601
ለታ	-3602
ለፅ	-3603
ሎጂ	-3604
ረስ	-3605
ረተ	-3606
ሪፍ	-3607
ጋሚ	-3608
ፌር	-3609
▁ዱ	-3610
ማማኝ	-3611
ምንቱ	-3612
ደርደ	-3613
ደዋል	-3614
ፈናል	-3615
▁ለዘ	-3616
▁ምቹ	-3617
▁ሮጠ	-3618
▁ከጣ	-3619
▁ውይ	-3620
▁ያቀ	-3621
▁ይዋ	-3622
▁ጆሮ	-3623
▁ግዴ	-3624
▁ጓጉ	-3625
▁ለመል	-3626
▁ልጁን	-3627
▁ቁልፎ	-3628
▁አጠፋ	-3629
▁ኣይን	-3630
▁ወጣሁ	-3631
▁የሰው	-3632
▁ጤናማ	-3633
ንቀሳቀስ	-3634
▁መቀበል	-3635
▁መቀየር	-3636
▁ማባከን	-3637
▁ስልኩን	-3638
▁አለዎት	-3639
▁አዘጋጅ	-3640
▁ጃንጥላ	-3641
▁ጠንክሮ	-3642
▁ለመውጣት	-3643
▁በእነዚህ	-3644
▁እንደሆኑ	-3645
▁ልጃገረዶች	-3646
▁ትክክለኛው	-3647
▁ይሰማዎታል	-3648
መታ	-3649
መች	-3650
ማሉ	-3651
በባ	-3652
ክሰ	-3653
ደኝ	-3654
ላችን	-3655
ተሮች	-3656
ዮርክ	-3657
ገኛሉ	-3658
ጌረዳ	-3659
▁መጡ	-3660
▁ትኬ	-3661
▁ውስ	-3662
▁ያቺ	-3663
▁ፓስ	-3664
ቻችንን	-3665
▁ሄዷል	-3666
▁ሹራብ	-3667
▁ባንክ	-3668
▁አቆመ	-3669
▁እናስ	-3670
▁ይጠቀ	-3671
ሌክትሪክ	-3672
▁መቀነስ	-3673
▁መንገር	-3674
▁ስራህን	-3675
▁አደጋው	-3676
▁ከመሄድ	-3677
▁የእሳት	-3678
▁ጀመርኩ	-3679
▁ጠፍቷል	-3680
▁ጭንቅላ	-3681
▁ለመመለስ	-3682
▁ለመቆየት	-3683
▁ማስወገድ	-3684
▁በልጅነቴ	-3685
▁ተመለከት	-3686
▁አይቻልም	-3687
▁እቆያለሁ	-3688
▁ጨርሻለሁ	-3689
▁አውሮፕላኑ	-3690
▁እናገራለሁ	-3691
▁የምችለውን	-3692
▁እንደማስበው	-3693
▁ይመስልዎታል	-3694
ማን	-3695
ሳም	-3696
ቆት	-3697
ዳዩ	-3698
▁ቫ	-3699
ሁትን	-3700
ልበት	-3701
መልስ	-3702
ራዊት	-3703
ጠበቀ	-3704
ፋለሁ	-3705
▁ሚስ	-3706
▁ብላ	-3707
▁አሸ	-3708
▁ኮት	-3709
▁ወሬ	-3710
▁ዘና	-3711
▁ገፅ	-3712
▁ፋይ	-3713
▁ሆኗል	-3714
▁ማንን	-3715
▁ማጣት	-3716
▁ስለእ	-3717
▁በሰማ	-3718
▁ተባረ	-3719
▁ታሪኩ	-3720
▁አሪፍ	-3721
▁አባል	-3722
▁ክብደ	-3723
▁ወጣች	-3724
▁ግማሽ	-3725
ያንዳንዱ	-3726
▁መነሳት	-3727
▁በዝርዝ	-3728
▁ባለቤት	-3729
▁አሻንጉ	-3730
▁እምነት	-3731
▁ጉዳዩን	-3732
▁ጥንቃቄ	-3733
▁ትእግስት	-3734
▁እንደሌለ	-3735
▁እንደሰራ	-3736
▁የሚለውን	-3737
▁የምወደው	-3738
▁ቴሌቪዥኑን	-3739
▁የአትክልት	-3740
▁ፈረንሳይኛን	-3741
ረህ	-3742
ራሲ	-3743
ሲቲ	-3744
ቲቪ	-3745
ነቃ	-3746
ጡኝ	-3747
ጣው	-3748
ፍር	-3749
▁ጂ	-3750
ሂሳብ	-3751
ላንድ	-3752
ላከያ	-3753
መኛል	-3754
ቃለህ	-3755
ቱካን	-3756
ቶታል	-3757
ኒቨር	-3758
ክበር	-3759
ወድቅ	-3760
የሁት	-3761
ደጋው	-3762
ጀመረ	-3763
ግሎት	-3764
▁ማራ	-3765
▁ሺህ	-3766
▁በች	-3767
▁በኩ	-3768
▁ከቁ	-3769
▁የካ	-3770
▁የፖ	-3771
▁ይበ	-3772
▁ይጨ	-3773
ሬአለሁ	-3774
ስቻለሁ	-3775
ፓርቲው	-3776
▁ሊኖር	-3777
▁ሊያስ	-3778
▁ምድር	-3779
▁በማየ	-3780
▁ተገረ	-3781
▁ወለድ	-3782
▁የበዛ	-3783
▁ይሂዱ	-3784
▁ጎረቤ	-3785
▁ጥበብ	-3786
ራጠራለሁ	-3787
ኒቨርሲቲ	-3788
▁ልጆቹን	-3789
▁መድረስ	-3790
▁አስገባ	-3791
▁እንዳሉ	-3792
▁እያለቀ	-3793
▁ወደፊት	-3794
▁የመሬት	-3795
▁የምለው	-3796
▁የተመሰ	-3797
▁የአንተ	-3798
▁ደወልኩ	-3799
▁ፕሮግራ	-3800
▁ስምምነት	-3801
▁በርሳቸው	-3802
▁ነገርኩት	-3803
▁እየሰራህ	-3804
▁እያደረግ	-3805
▁የትራፊክ	-3806
▁የእረፍት	-3807
▁ድንገተኛ	-3808
▁እጠይቃለሁ	-3809
▁የምትወደው	-3810
▁እጠራጠራለሁ	-3811
▁የምትፈልገው	-3812
ሰለ	-3813
በለ	-3814
ባቂ	-3815
ቻት	-3816
ቾች	-3817
ያየ	-3818
ዲያ	-3819
ፃፉ	-3820
ራመድ	-3821
ርመን	-3822
ቀርም	-3823
ቦታው	-3824
▁ሆን	-3825
▁ስው	-3826
▁በዘ	-3827
▁ጥሪ	-3828
ፈጠረው	-3829
▁100	-3830
▁ተሰር	-3831
▁አላማ	-3832
▁አሏት	-3833
▁አወጣ	-3834
▁አይፈ	-3835
▁ከንቱ	-3836
▁ካርታ	-3837
▁ካርድ	-3838
▁ዛፎች	-3839
▁ያለፈ	-3840
▁ይይዛ	-3841
▁ጠብቅ	-3842
▁ጥረት	-3843
ብስክሌት	-3844
▁ሃይለኛ	-3845
▁ለእግር	-3846
▁መልሱን	-3847
▁መመሪያ	-3848
▁መፈለግ	-3849
▁ቤዝቦል	-3850
▁ብቸኛው	-3851
▁ናፈቀኝ	-3852
▁አለባት	-3853
▁አሉዎት	-3854
▁አቀረበ	-3855
▁አባትህ	-3856
▁አንድም	-3857
▁የእኔን	-3858
▁ያደረገ	-3859
▁መፅሀፍት	-3860
▁ሰርተሃል	-3861
▁ተሸፍኗል	-3862
▁እየተጫወ	-3863
▁እገባለሁ	-3864
▁በአጠቃላይ	-3865
▁አላደርግም	-3866
▁አልቻለችም	-3867
▁አልነበሩም	-3868
▁አስተማማኝ	-3869
▁እሰጥሃለሁ	-3870
ሊን	-3871
ኮራ	-3872
ዛወ	-3873
ጋባ	-3874
ግና	-3875
ጓዛ	-3876
ከፍት	-3877
ድኩት	-3878
▁መዘ	-3879
▁ረክ	-3880
▁ተይ	-3881
▁ገላ	-3882
ሮፕላን	-3883
ቄያለሁ	-3884
▁መፅሄ	-3885
▁ምሳሌ	-3886
▁ስኬት	-3887
▁በውሃ	-3888
▁ተሰጥ	-3889
▁እንዴ	-3890
▁ዘፋኝ	-3891
▁ይወድ	-3892
▁መምህር	-3893
▁መገመት	-3894
▁መጨነቅ	-3895
▁ማግባት	-3896
▁ስፖርት	-3897
▁በተለይ	-3898
▁በፍቅር	-3899
▁ተሰማው	-3900
▁ቸኮሌት	-3901
▁እቃዎች	-3902
▁ውሸታም	-3903
▁የሚሰራ	-3904
▁ፅጌረዳ	-3905
▁በርሳችን	-3906
▁የሚወዱት	-3907
▁የአሜሪካ	-3908
▁ደህንነት	-3909
▁ሁለታችሁም	-3910
▁መፅሀፍትን	-3911
▁እየፈለግኩ	-3912
▁ይመስልሃል	-3913
ሰም	-3914
ቀኛ	-3915
ውጣ	-3916
ዩት	-3917
ፍታ	-3918
ላትም	-3919
ማለች	-3920
ማርኩ	-3921
ሳሳተ	-3922
በሳጨ	-3923
ወያይ	-3924
ያለህ	-3925
▁መቅ	-3926
▁ማዶ	-3927
▁ሳህ	-3928
▁በሃ	-3929
▁በቴ	-3930
▁ከታ	-3931
▁የዛ	-3932
▁ጣል	-3933
ስታወስ	-3934
ገናኘን	-3935
▁ልጅቷ	-3936
▁ሰራሁ	-3937
▁አላወ	-3938
▁እርዳ	-3939
▁ውሃው	-3940
▁ጀመሩ	-3941
▁ጨረቃ	-3942
▁ለብሷል	-3943
▁መንገዱ	-3944
▁ቤታችን	-3945
▁አራዊት	-3946
▁ከሁለት	-3947
▁ከጓደኞ	-3948
▁ይሰራሉ	-3949
▁በማርያም	-3950
▁አልሰራም	-3951
▁አስቆራጭ	-3952
▁አብዛኞቹ	-3953
▁አናውቅም	-3954
▁እንዳለው	-3955
▁እየጠበቀ	-3956
▁ወስኛለሁ	-3957
▁ያስቀምጡ	-3958
▁መንቀጥቀጥ	-3959
▁ያስከፍላል	-3960
▁እንዲያደርግ	-3961
ሪት	-3962
ርቅ	-3963
ሁትም	-3964
ለቲካ	-3965
ላከል	-3966
ሰጠው	-3967
ቆይም	-3968
ውንም	-3969
▁ሰብ	-3970
▁ቁም	-3971
▁ቅፅ	-3972
▁ቡድ	-3973
▁ቢያ	-3974
▁ከቻ	-3975
▁ከጠ	-3976
▁የኪ	-3977
▁ጎን	-3978
▁ጠቅ	-3979
▁ጮክ	-3980
ላቸውም	-3981
▁ሜትር	-3982
▁ሰነፍ	-3983
▁ሽጉጥ	-3984
▁ቀጭን	-3985
▁ቁራጭ	-3986
▁ቤተመ	-3987
▁ተቃር	-3988
▁ተጠቅ	-3989
▁አስገ	-3990
▁እሳቱ	-3991
▁እንይ	-3992
▁ካናዳ	-3993
▁ይኖር	-3994
▁ደነገ	-3995
▁ጉድጓ	-3996
▁ግዴታ	-3997
▁መለወጥ	-3998
▁ሞኝነት	-3999
▁በአስራ	-4000
▁በወንዙ	-4001
▁አልሰጠ	-4002
▁አሏቸው	-4003
▁አየሁት	-4004
▁ከሁሉም	-4005
▁የፀሀይ	-4006
▁ይሄዳሉ	-4007
▁ይበላሉ	-4008
▁ያደረኩት	-4009
▁ያደርጋሉ	-4010
▁ጠየቅኩት	-4011
ሙት	-4012
ሻል	-4013
አብ	-4014
ዲሱ	-4015
ድሜ	-4016
ድሩ	-4017
ርሃት	-4018
ቀላቀ	-4019
ቧንቧ	-4020
ችውን	-4021
ዝናብ	-4022
ጋገብ	-4023
▁ሽል	-4024
▁ቁር	-4025
▁በሆ	-4026
▁ታጋ	-4027
▁ከሱ	-4028
መለከቱ	-4029
ደረገው	-4030
▁230	-4031
▁ሄደች	-4032
▁ሰበረ	-4033
▁ቀጥሎ	-4034
▁ተሰብ	-4035
▁ተብሎ	-4036
▁ታናሽ	-4037
▁ከመስ	-4038
▁ወራት	-4039
▁የምና	-4040
▁ያለን	-4041
▁ፀሀፊ	-4042
▁ፍቃድ	-4043
▁መፍታት	-4044
▁ስምንት	-4045
▁በመጥፎ	-4046
▁በአለም	-4047
▁ትላለህ	-4048
▁አፍንጫ	-4049
▁ዝቅተኛ	-4050
▁የአንድ	-4051
▁ጠርሙስ	-4052
▁ለመፍታት	-4053
▁ለተወሰነ	-4054
▁መከላከያ	-4055
▁ማስተማር	-4056
▁ቦርሳዬን	-4057
▁ትችላለች	-4058
▁አላደረግ	-4059
▁አሳለፍኩ	-4060
▁አስበዋል	-4061
▁አይቀርም	-4062
▁እሰማለሁ	-4063
▁እያደረገ	-4064
▁የተለያዩ	-4065
▁ደንቦቹን	-4066
▁ምክንያቱም	-4067
▁ተረድቻለሁ	-4068
▁አንፈልግም	-4069
መነ	-4070
ረቅ	-4071
ረጀ	-4072
ቀሳ	-4073
ናይ	-4074
ናፈ	-4075
ካው	-4076
ኮል	-4077
ኳኳ	-4078
ዴን	-4079
ድጃ	-4080
ግኘ	-4081
ጎም	-4082
ስተር	-4083
ነጋግ	-4084
ንድዊ	-4085
ንገዱ	-4086
ውቀኝ	-4087
ዚአብ	-4088
ዝቃዜ	-4089
▁ለቀ	-4090
▁ርቦ	-4091
▁ሰሌ	-4092
▁ሰነ	-4093
▁ስሙ	-4094
▁ቆዳ	-4095
▁በዋ	-4096
▁በጫ	-4097
▁ተኩ	-4098
▁ተፅ	-4099
▁ከግ	-4100
ውቀውም	-4101
ፈቅድም	-4102
ፐርማር	-4103
▁ማለፍ	-4104
▁በረራ	-4105
▁ባውቅ	-4106
▁ተለው	-4107
▁አለች	-4108
▁ውድቅ	-4109
▁ይንገ	-4110
▁ጎልፍ	-4111
ደርገውን	-4112
▁ልሰጥህ	-4113
▁መልእክ	-4114
▁መኪናዬ	-4115
▁መዘመር	-4116
▁መፍቀድ	-4117
▁ማልቀስ	-4118
▁በወጣት	-4119
▁ቢሆንም	-4120
▁ተቀባይ	-4121
▁አለቦት	-4122
▁አሳዛኝ	-4123
▁እንሆና	-4124
▁ይጠብቁ	-4125
▁ግድግዳ	-4126
▁ጠየቃት	-4127
▁ለብሳለች	-4128
▁መገናኘት	-4129
▁አድርገው	-4130
▁እውነትን	-4131
▁የሁለተኛ	-4132
▁የህይወት	-4133
▁ይንከባከ	-4134
▁ትፈልጋለች	-4135
▁አስቀድመው	-4136
▁አድርግልኝ	-4137
ሄር	-4138
ሆኔ	-4139
ማግ	-4140
ሽና	-4141
ቦቹ	-4142
ዚቃ	-4143
ዝን	-4144
ዩን	-4145
ያሉ	-4146
ማግሌ	-4147
ቻችሁ	-4148
ናይት	-4149
ናደደ	-4150
ናገሩ	-4151
ኖሩት	-4152
ካሄደ	-4153
ዝናል	-4154
▁ሰል	-4155
▁በቅ	-4156
▁ነክ	-4157
▁አዛ	-4158
▁አፈ	-4159
▁ከለ	-4160
▁የኤ	-4161
▁ያላ	-4162
▁ገመ	-4163
▁መቆም	-4164
▁መካነ	-4165
▁ርቀት	-4166
▁ሾርባ	-4167
▁በምን	-4168
▁በግራ	-4169
▁ብቸኛ	-4170
▁ተወው	-4171
▁ንግግ	-4172
▁እደው	-4173
▁ወፎች	-4174
▁የጎደ	-4175
▁ይሀው	-4176
▁ይመር	-4177
▁ይበሉ	-4178
▁ጠበቀ	-4179
▁ለመኖር	-4180
▁ማጨስን	-4181
▁ሳንድዊ	-4182
▁በሁለት	-4183
▁አልጋው	-4184
▁አመለካ	-4185
▁አስተም	-4186
▁አውሮፓ	-4187
▁እርጥብ	-4188
▁እንዳያ	-4189
▁እያወራ	-4190
▁የተነሳ	-4191
▁ያሉትን	-4192
▁ያረጋግ	-4193
▁ደብተር	-4194
▁ደክሞኝ	-4195
▁ዶክተሩ	-4196
ፐርማርኬት	-4197
▁አላደረገ	-4198
▁አልደረሰ	-4199
▁ኮንሰርቱ	-4200
▁የሚቆጠሩ	-4201
▁የተናገር	-4202
▁ያገኘሁት	-4203
▁ይጀምራል	-4204
▁ቀድሞውንም	-4205
▁በብስክሌት	-4206
▁አልቻልንም	-4207
▁እንሆናለን	-4208
▁እንደሚመጣ	-4209
▁በእንግሊዝኛ	-4210
▁እንደምንችል	-4211
ለለ	-4212
ለቱ	-4213
ስበ	-4214
ቶቼ	-4215
ናድ	-4216
ዩኝ	-4217
ጉር	-4218
ጥፍ	-4219
ፈቱ	-4220
ማማት	-4221
ሰናል	-4222
ሳሳት	-4223
ብረት	-4224
▁ልደ	-4225
▁ነቀ	-4226
▁እፅ	-4227
▁የሀ	-4228
▁የሱ	-4229
▁ይሞ	-4230
ችሁንም	-4231
የትኛው	-4232
▁ለብዙ	-4233
▁ላንተ	-4234
▁ልማድ	-4235
▁ምታት	-4236
▁ሬስቶ	-4237
▁ስለሌ	-4238
▁ሹፌር	-4239
▁በቤት	-4240
▁ብሄድ	-4241
▁ትኬት	-4242
▁አንዴ	-4243
▁አይጠ	-4244
▁እጁን	-4245
▁ወረቀ	-4246
▁የሰራ	-4247
▁ያውቁ	-4248
▁ይቆዩ	-4249
▁ጥብቅ	-4250
▁መፅሃፍ	-4251
▁ስርኣት	-4252
▁አዳዲስ	-4253
▁እናትህ	-4254
▁እድገት	-4255
▁ከአስር	-4256
▁የጠየቅ	-4257
▁ይወጣል	-4258
▁ልትሰጠኝ	-4259
▁ማረፊያው	-4260
▁ተነጋገር	-4261
▁አስተካክ	-4262
▁አይገባም	-4263
▁እየሞከረ	-4264
▁ጠየቀችው	-4265
▁እመክራለሁ	-4266
▁እንደነበር	-4267
▁የተናገረው	-4268
▁ያስፈልጋል	-4269
▁አድርጌዋለሁ	-4270
ሜን	-4271
ሪቱ	-4272
ቀያ	-4273
ተኩ	-4274
ትስ	-4275
ክን	-4276
ወሩ	-4277
ዝብ	-4278
የች	-4279
ገሩ	-4280
ፈታ	-4281
ፋሉ	-4282
ማለህ	-4283
ስቲክ	-4284
ሸከም	-4285
ሽከር	-4286
ኋቸው	-4287
ነበበ	-4288
ኣመቱ	-4289
ካባቢ	-4290
ገናኛ	-4291
▁ሞል	-4292
▁ሩቅ	-4293
▁ቀኝ	-4294
▁ንጉ	-4295
▁ከደ	-4296
▁ክፉ	-4297
▁ዘጋ	-4298
▁ያጥ	-4299
▁ዶሮ	-4300
▁ጨው	-4301
ገኛለች	-4302
ፅሀፍት	-4303
▁ለሰኣ	-4304
▁ስምህ	-4305
▁በአቅ	-4306
▁ትበል	-4307
▁አለም	-4308
▁አለቀ	-4309
▁አብሬ	-4310
▁አንቺ	-4311
▁እርሳ	-4312
▁እጅግ	-4313
▁እጆች	-4314
▁ውሻዬ	-4315
▁ዘንድ	-4316
▁የለሽ	-4317
▁የውሻ	-4318
▁ጎዳና	-4319
▁መመገብ	-4320
▁ሰራተኛ	-4321
▁ቆይቷል	-4322
▁በስልክ	-4323
▁ብቻዋን	-4324
▁ትምህር	-4325
▁አልወደ	-4326
▁እደውል	-4327
▁የታመመ	-4328
▁የአበባ	-4329
▁ይሆናሉ	-4330
▁ደረሰኝ	-4331
▁ለመዋኘት	-4332
▁ለመጨረስ	-4333
▁በየኣመቱ	-4334
▁ተቀምጧል	-4335
▁ያስደስተ	-4336
▁ይደርሳል	-4337
▁ይመለከታል	-4338
መኑ	-4339
ራሚ	-4340
ቀደ	-4341
ናቴ	-4342
ንህ	-4343
ንቺ	-4344
ንደ	-4345
ዞች	-4346
ድመ	-4347
ጋና	-4348
ጠባ	-4349
ጣሬ	-4350
ፋፋ	-4351
ፍቱ	-4352
▁3	-4353
መኝም	-4354
ቀጥል	-4355
ቅምት	-4356
ተወው	-4357
ከታተ	-4358
▁ህገ	-4359
▁ለጥ	-4360
▁ልና	-4361
▁ሲል	-4362
▁ብቁ	-4363
▁ተፀ	-4364
▁ታጥ	-4365
▁ዋሽ	-4366
▁የነ	-4367
▁የዘ	-4368
▁ድሃ	-4369
▁ግር	-4370
▁ሂሳብ	-4371
▁መጣህ	-4372
▁ሲጋራ	-4373
▁ስለም	-4374
▁በጊዜ	-4375
▁ብርድ	-4376
▁ተጣብ	-4377
▁አሰቃ	-4378
▁እከፍ	-4379
▁እያለ	-4380
▁ወረደ	-4381
▁ዋጋው	-4382
▁የልጅ	-4383
▁የማት	-4384
▁ይችል	-4385
▁ይከብ	-4386
▁ይያዙ	-4387
▁ደፋር	-4388
▁ሂሳቡን	-4389
▁ለስላሳ	-4390
▁ላይሆን	-4391
▁ልጆችን	-4392
▁ሚሊዮን	-4393
▁ስኬታማ	-4394
▁ሽማግሌ	-4395
▁በአስር	-4396
▁ተመለስ	-4397
▁አገሮች	-4398
▁እህቶች	-4399
▁ካናዳዊ	-4400
▁ውሻዬን	-4401
▁ዘግይቼ	-4402
▁የልብስ	-4403
▁የሚበላ	-4404
▁የሚወስ	-4405
▁የኣለም	-4406
▁የፍቅር	-4407
▁ይስማማ	-4408
▁ህይወቴን	-4409
▁ለሰኣታት	-4410
▁ሰምተሃል	-4411
▁በተሳሳተ	-4412
▁የሚገርም	-4413
▁ጥያቄውን	-4414
▁ለትምህርት	-4415
▁አግኝቼዋለሁ	-4416
ራፍ	-4417
ቀቀ	-4418
ዳዳ	-4419
ፌን	-4420
ላለም	-4421
መጣው	-4422
ረዳን	-4423
ቀያሚ	-4424
ባባይ	-4425
ችሉት	-4426
ነዋል	-4427
ንጨት	-4428
ዘፍን	-4429
ዳለህ	-4430
ጣለህ	-4431
▁ለህ	-4432
▁ማም	-4433
▁በን	-4434
▁ነር	-4435
▁ነቅ	-4436
▁ከሩ	-4437
▁ይጣ	-4438
▁ፍት	-4439
ላችሁም	-4440
ናይትድ	-4441
ናግረኝ	-4442
▁ልጆቼ	-4443
▁ሚስቱ	-4444
▁ሰማይ	-4445
▁ተፀፅ	-4446
▁ኣይኖ	-4447
▁እየጠ	-4448
▁ዋናው	-4449
▁የሆኑ	-4450
▁የቤተ	-4451
▁ይቀጥ	-4452
ዚአብሄር	-4453
▁ለመጓዝ	-4454
▁ለፖሊስ	-4455
▁መደበኛ	-4456
▁ሰጠችኝ	-4457
▁በርካታ	-4458
▁በእሳት	-4459
▁አምልጦ	-4460
▁ወጥቷል	-4461
▁የመጣው	-4462
▁ለመጠበቅ	-4463
▁ለዘላለም	-4464
▁መተማመን	-4465
▁በመኪናው	-4466
▁አምጡልኝ	-4467
▁አስቀያሚ	-4468
▁አትፍቀድ	-4469
▁የምሰራው	-4470
▁የተወለድ	-4471
▁ጓደኛዬን	-4472
▁አመለካከት	-4473
▁እንደሆነች	-4474
▁እንደምፈልግ	-4475
በኘ	-4476
ንሽ	-4477
እኖ	-4478
ካይ	-4479
ዋወ	-4480
ጅሙ	-4481
ጣጫ	-4482
ሆንኩ	-4483
ሰጥም	-4484
ቃወም	-4485
ብሪካ	-4486
ነዚያ	-4487
ንቀቁ	-4488
ንቋል	-4489
ኖርም	-4490
ኛለች	-4491
ከኝም	-4492
ደስት	-4493
ደኛል	-4494
ግባር	-4495
▁20	-4496
▁ሙዝ	-4497
▁ቅጠ	-4498
▁በጋ	-4499
▁በጠ	-4500
▁እሰ	-4501
▁ኪሎ	-4502
▁ክን	-4503
መስለው	-4504
ጠናቀቅ	-4505
ጠይቀኝ	-4506
▁ለብሶ	-4507
▁ላሳይ	-4508
▁ረዘም	-4509
▁በረሃ	-4510
▁በአን	-4511
▁ብእር	-4512
▁ተቃው	-4513
▁ተነስ	-4514
▁ተጨና	-4515
▁ነግሮ	-4516
▁አታው	-4517
▁አይስ	-4518
▁አይወ	-4519
▁እንቆ	-4520
▁እድሉ	-4521
▁የራቀ	-4522
▁የደም	-4523
▁ይከሰ	-4524
▁ምርመራ	-4525
▁ሰውዬው	-4526
▁አስከፊ	-4527
▁አትሁን	-4528
▁አጋጣሚ	-4529
▁አጥቷል	-4530
▁እርሳስ	-4531
▁እርዳኝ	-4532
▁የሙቀት	-4533
▁ይጠላል	-4534
▁የሚሰራው	-4535
▁የምንችል	-4536
▁የገንዘብ	-4537
▁ብስክሌቴን	-4538
▁ነግሬሃለሁ	-4539
▁አንዳቸውም	-4540
▁አይናገርም	-4541
▁እንደነበረ	-4542
▁የሚናገረው	-4543
▁ያደርገዋል	-4544
▁ታስታውሳለህ	-4545
▁የምንፈልገው	-4546
▁እደውልልሃለሁ	-4547
▁የምትናገረውን	-4548
ምሳ	-4549
ምጣ	-4550
ሞተ	-4551
ሪብ	-4552
ራመ	-4553
ርጂ	-4554
ሰስ	-4555
ሽቱ	-4556
ካሚ	-4557
ዋኝ	-4558
ያዘ	-4559
ደዱ	-4560
ጅት	-4561
ጉዞ	-4562
ለቅስ	-4563
ለናል	-4564
ረኝም	-4565
ራጮች	-4566
ቶቼን	-4567
ነበሩ	-4568
ናንት	-4569
ክስቴ	-4570
ወራው	-4571
ዘምር	-4572
ጦችን	-4573
▁ላስ	-4574
▁ሩዝ	-4575
▁በጣ	-4576
▁ተሻ	-4577
▁የይ	-4578
▁የዶ	-4579
▁ጃፓ	-4580
▁ጨም	-4581
▁ፒዛ	-4582
ቄአለሁ	-4583
ጠብቀው	-4584
ጦርነቱ	-4585
▁ሆነው	-4586
▁ለሌላ	-4587
▁መሃል	-4588
▁ሰራተ	-4589
▁ሰበብ	-4590
▁እሳት	-4591
▁እጥፍ	-4592
▁ከጊዜ	-4593
▁የቀረ	-4594
▁ፈቃድ	-4595
▁መደረግ	-4596
▁ማጥመድ	-4597
▁ስቴትስ	-4598
▁በሌሊት	-4599
▁በመሆኔ	-4600
▁በመካከ	-4601
▁በዚያን	-4602
▁ተመለሰ	-4603
▁አሰቃቂ	-4604
▁አደርግ	-4605
▁የራሱን	-4606
▁ይበላል	-4607
▁ጨዋታው	-4608
▁ለመጠየቅ	-4609
▁ማስቀመጫ	-4610
▁ሰራተኞች	-4611
▁ተጠያቂው	-4612
▁እስክሪብ	-4613
▁እንዳልተ	-4614
▁እያንዳን	-4615
▁ውስብስብ	-4616
▁ይገባኛል	-4617
▁ግድግዳው	-4618
▁ለመነጋገር	-4619
▁ስህተቶችን	-4620
▁ተቀባይነት	-4621
▁አግኝተዋል	-4622
▁የማይታመን	-4623
ሉኝ	-4624
ላጅ	-4625
መጠ	-4626
ሮት	-4627
ሰሙ	-4628
ሰኝ	-4629
ከሻ	-4630
ዳይ	-4631
ጎች	-4632
ፈኝ	-4633
ሄድክ	-4634
መገብ	-4635
ሳችን	-4636
ቀጥታ	-4637
ዣለሁ	-4638
ደወል	-4639
ዳንቱ	-4640
ፋለች	-4641
▁19	-4642
▁መወ	-4643
▁ቀባ	-4644
▁ቅጂ	-4645
▁በቢ	-4646
▁ባን	-4647
▁ቼዝ	-4648
▁ካላ	-4649
ለብስም	-4650
ረሳውም	-4651
ድናችን	-4652
▁መላክ	-4653
▁መፍቻ	-4654
▁ሙከራ	-4655
▁ማስጠ	-4656
▁ማይል	-4657
▁ሮጥኩ	-4658
▁ሳለሁ	-4659
▁ስውር	-4660
▁በብዙ	-4661
▁ቤትህ	-4662
▁ተናድ	-4663
▁ተደብ	-4664
▁ተጎድ	-4665
▁ኮሌጅ	-4666
▁ወለሉ	-4667
▁የመን	-4668
▁የተከ	-4669
▁የደረ	-4670
▁ይታጠ	-4671
▁ፊልሙ	-4672
ላችኋለሁ	-4673
ስተካከል	-4674
▁ሊገባኝ	-4675
▁መወሰን	-4676
▁መጥቷል	-4677
▁ማክበር	-4678
▁ማዳመጥ	-4679
▁በምሽት	-4680
▁በአየር	-4681
▁ቢዘንብ	-4682
▁ተዘጋጅ	-4683
▁ተግባቢ	-4684
▁ነበራት	-4685
▁አላደረ	-4686
▁አቅጣጫ	-4687
▁እንቁላ	-4688
▁እንዲሁ	-4689
▁እየሰሩ	-4690
▁ወሰንኩ	-4691
▁ውይይት	-4692
▁ድልድይ	-4693
▁ሁኔታዎች	-4694
▁መሆንህን	-4695
▁በጥቅምት	-4696
▁በፓርቲው	-4697
▁አስቀመጠ	-4698
▁አታድርግ	-4699
▁እየዘነበ	-4700
▁ኩባንያው	-4701
▁ወላጆችህ	-4702
▁የሚኖሩት	-4703
▁የፈለኩት	-4704
▁ይሻለኛል	-4705
▁ተመለከትኩ	-4706
▁አልበላሁም	-4707
▁እየተካሄደ	-4708
▁የእርስዎን	-4709
▁አሳልፌያለሁ	-4710
▁አድርጌያለሁ	-4711
ሀብ	-4712
ልጋ	-4713
ቡብ	-4714
ኒክ	-4715
ዎቼ	-4716
ያጭ	-4717
ዮሀ	-4718
ጣጠ	-4719
ጥም	-4720
ጥን	-4721
ፁን	-4722
ልኝም	-4723
ማርክ	-4724
ቋርጥ	-4725
ቷታል	-4726
ገኝም	-4727
ጠናል	-4728
ጨርስ	-4729
ፈቀደ	-4730
▁ማር	-4731
▁እኮ	-4732
▁የሃ	-4733
▁የፊ	-4734
▁ደሞ	-4735
▁ገም	-4736
▁ገቢ	-4737
▁ጎማ	-4738
▁ፃፈ	-4739
ነበብኩ	-4740
ንደዚህ	-4741
ዮሀንስ	-4742
ጀምረው	-4743
▁ሀይቁ	-4744
▁ለምሳ	-4745
▁ማለቴ	-4746
▁ምርት	-4747
▁በተቻ	-4748
▁ተሳት	-4749
▁ተገድ	-4750
▁አርቲ	-4751
▁እረዳ	-4752
▁እስረ	-4753
▁ዘጋው	-4754
▁የመስ	-4755
▁የአፍ	-4756
▁ገባች	-4757
▁ገባኝ	-4758
▁ለስራው	-4759
▁መታጠብ	-4760
▁መዝነብ	-4761
▁መገኘት	-4762
▁ማውጣት	-4763
▁ስእሎች	-4764
▁በረዶው	-4765
▁በቀጥታ	-4766
▁በዝናብ	-4767
▁ተበሳጨ	-4768
▁ተፅእኖ	-4769
▁አዛውን	-4770
▁ካለፈው	-4771
▁ይልሃል	-4772
▁ጊዜዬን	-4773
▁ፎቶግራ	-4774
▁መታጠቢያ	-4775
▁ማቀዝቀዣ	-4776
▁ማነጋገር	-4777
▁ሳንድዊች	-4778
▁በቁጥጥር	-4779
▁ብርቱካን	-4780
▁አልፈራም	-4781
▁አሳልፏል	-4782
▁አሳውቀኝ	-4783
▁እንደማላ	-4784
▁አላውቀውም	-4785
▁አላደረገም	-4786
▁እንዳደረግ	-4787
▁እየጠበቅኩ	-4788
▁የተመሰረተ	-4789
▁አላደርገውም	-4790
▁የምትናገረው	-4791
ስኤ	-4792
ቃጨ	-4793
ብላ	-4794
ኑም	-4795
ኩባ	-4796
ክቶ	-4797
ዋሽ	-4798
ግን	-4799
ጣኝ	-4800
▁ቸ	-4801
ልኛል	-4802
መታት	-4803
ረሃል	-4804
ሰሃል	-4805
በቃል	-4806
ተኮር	-4807
ጠቀሙ	-4808
ጨማሪ	-4809
▁ሊታ	-4810
▁ላከ	-4811
▁ሱሪ	-4812
▁ቀዶ	-4813
▁ተክ	-4814
▁ታች	-4815
▁ከኔ	-4816
▁የቻ	-4817
▁ይጮ	-4818
▁ድፍ	-4819
▁ጭስ	-4820
ለመደው	-4821
ተማመን	-4822
ዘግየት	-4823
ፖርቱን	-4824
▁ለራሴ	-4825
▁ሙቀት	-4826
▁ማህተ	-4827
▁ማራኪ	-4828
▁ርእሰ	-4829
▁ሰማዩ	-4830
▁ቀበቶ	-4831
▁በእጅ	-4832
▁በግል	-4833
▁ተጠር	-4834
▁ትጫወ	-4835
▁አስታ	-4836
▁አይቶ	-4837
▁እየሮ	-4838
▁እያሳ	-4839
▁እጫወ	-4840
▁ከፈተ	-4841
▁ካልተ	-4842
▁የሚታ	-4843
▁የሚጠ	-4844
▁የሰማ	-4845
▁የተደ	-4846
▁የዚያ	-4847
▁ድካም	-4848
▁ጎበኘ	-4849
▁ጥርስ	-4850
▁መለየት	-4851
▁መዝጋት	-4852
▁መዝፈን	-4853
▁ማስረጃ	-4854
▁በቶኪዮ	-4855
▁በደስታ	-4856
▁ተዋናይ	-4857
▁አልጠበ	-4858
▁ከእርሱ	-4859
▁ካፖርት	-4860
▁ክፍሎች	-4861
▁የሚሆነ	-4862
▁ጠንክሬ	-4863
▁ልትረዳኝ	-4864
▁መጠንቀቅ	-4865
▁በልተሃል	-4866
▁በአእምሮ	-4867
▁በየትኛው	-4868
▁አሸንፏል	-4869
▁እንጀምር	-4870
▁እየሄድኩ	-4871
▁ከጓደኞቼ	-4872
▁ካርዶችን	-4873
▁የሚፈልግ	-4874
▁ያረጋግጡ	-4875
▁ጭንቅላት	-4876
▁በአደባባይ	-4877
▁ተፀፅቻለሁ	-4878
▁አልተናገረ	-4879
▁እጫወታለሁ	-4880
▁ከጠረጴዛው	-4881
▁የፈለከውን	-4882
▁ይገርመኛል	-4883
▁የሚያደርገው	-4884
▁የሚፈልገውን	-4885
en	-4886
ለጫ	-4887
ሙና	-4888
ሰረ	-4889
ሸነ	-4890
ብቻ	-4891
ንብ	-4892
ወረ	-4893
ጇን	-4894
ለወጥ	-4895
ራራው	-4896
ሴቶች	-4897
ቅረብ	-4898
ብሃል	-4899
ታወት	-4900
ናለህ	-4901
ዋወቅ	-4902
ያቸው	-4903
ገሪቱ	-4904
ገናኙ	-4905
▁30	-4906
▁ለኣ	-4907
▁ትው	-4908
▁እጣ	-4909
▁ካየ	-4910
▁የጭ	-4911
▁ደበ	-4912
▁ጋራ	-4913
▁ፕላ	-4914
ቀሳቀስ	-4915
ኖርበት	-4916
ጠብቅም	-4917
ጠይቀው	-4918
▁ሀብት	-4919
▁ሀኪሙ	-4920
▁ለብሰ	-4921
▁መፃህ	-4922
▁ሞቷል	-4923
▁ስልኬ	-4924
▁ሶፋው	-4925
▁በማይ	-4926
▁ቤትዎ	-4927
▁ትፈራ	-4928
▁ቶኪዮ	-4929
▁አለፈ	-4930
▁አሉህ	-4931
▁አብሮ	-4932
▁እተኛ	-4933
▁እነሆ	-4934
▁እንባ	-4935
▁እያየ	-4936
▁የልብ	-4937
▁የበጋ	-4938
▁ያሳል	-4939
ክክለኛው	-4940
ፈለጋችሁ	-4941
▁ሃሳቡን	-4942
▁ህገወጥ	-4943
▁ለማቆም	-4944
▁ላደርግ	-4945
▁መቁረጥ	-4946
▁መንስኤ	-4947
▁መፅሀፉ	-4948
▁ሳንቲም	-4949
▁ስለወደ	-4950
▁ቅዝቃዜ	-4951
▁በማየቴ	-4952
▁ተሰበረ	-4953
▁ነገራት	-4954
▁አልኩት	-4955
▁አንተም	-4956
▁ኣይኖች	-4957
▁እስከማ	-4958
▁እንሰራ	-4959
▁እድሜው	-4960
▁ከወንድ	-4961
▁ውድቀት	-4962
▁ውጤታማ	-4963
▁የሚቻል	-4964
▁የከተማ	-4965
▁ይይዛል	-4966
▁ፍትሃዊ	-4967
▁ለመልቀቅ	-4968
▁ለምንድን	-4969
▁መጎብኘት	-4970
▁ማሳለፊያ	-4971
▁በስድስት	-4972
▁ተቃርቧል	-4973
▁ትመጣለህ	-4974
▁አልጠጣም	-4975
▁እንደመጣ	-4976
▁እንዳለኝ	-4977
▁እንዳገኘ	-4978
▁እኮራለሁ	-4979
▁ወንድሞች	-4980
▁ያሳዝናል	-4981
▁ፕሮጀክት	-4982
▁እንነጋገር	-4983
▁ጨዋታዎችን	-4984
ሜል	-4985
ምብ	-4986
ቅል	-4987
ተሬ	-4988
ኗን	-4989
ዙት	-4990
ዝግ	-4991
ይዘ	-4992
ጣፍ	-4993
ጥኑ	-4994
ጫት	-4995
▁ሎ	-4996
ሎቹን	-4997
መናዊ	-4998
ርባው	-4999
በላም	-5000
ብዛም	-5001
ጣውን	-5002
▁ሄይ	-5003
▁ሌባ	-5004
▁ቅን	-5005
▁ቢጫ	-5006
▁ከረ	-5007
▁የሆ	-5008
▁የክ	-5009
▁ይዞ	-5010
▁ገለ	-5011
ሳምንቱ	-5012
ተርጎም	-5013
ፈልግህ	-5014
ፈቀደል	-5015
▁ህፃን	-5016
▁ሊሆኑ	-5017
▁መልሼ	-5018
▁መድረ	-5019
▁ሰልች	-5020
▁ስሄድ	-5021
▁ቀረሁ	-5022
▁ቆርጬ	-5023
▁በሞት	-5024
▁በቤቱ	-5025
▁በከን	-5026
▁ባለመ	-5027
▁ተቀብ	-5028
▁ተቸግ	-5029
▁ተደር	-5030
▁ታመመ	-5031
▁ታጋሽ	-5032
▁አውቶ	-5033
▁ውለታ	-5034
▁ደመና	-5035
▁ደንበ	-5036
▁ግብር	-5037
▁ጥሩው	-5038
▁ፈጅቶ	-5039
ኒውዮርክ	-5040
▁ላሳይህ	-5041
▁መምረጥ	-5042
▁መሰረት	-5043
▁መስኮት	-5044
▁ርቦኛል	-5045
▁ሰጠሁት	-5046
▁ሳጥኑን	-5047
▁በሌሎች	-5048
▁ባይሆን	-5049
▁አለመታ	-5050
▁አትርሳ	-5051
▁እያጠና	-5052
▁ወጣቶች	-5053
▁የንግድ	-5054
▁ይገኛል	-5055
▁ሁልጊዜም	-5056
▁ለመስጠት	-5057
▁ለመክፈል	-5058
▁በመስኮቱ	-5059
▁ተማሪዎቹ	-5060
▁ነገረችው	-5061
▁አለመግባ	-5062
▁አልነገረ	-5063
▁አይተናል	-5064
▁እተኛለሁ	-5065
▁ከትናንት	-5066
▁የላቸውም	-5067
▁ጓደኝነት	-5068
▁ጨዋታውን	-5069
▁ቋንቋዎችን	-5070
▁አድርገሃል	-5071
▁አግኝተሃል	-5072
▁እንሰራለን	-5073
▁ሱፐርማርኬት	-5074
▁አሜሪካውያን	-5075
▁እስከማውቀው	-5076
ሮቼ	-5077
ቆሙ	-5078
ናቱ	-5079
ናጋ	-5080
ድም	-5081
ጣፋ	-5082
ረቀት	-5083
ራጣሪ	-5084
ሻሻል	-5085
ቆርጥ	-5086
ዳደር	-5087
▁ሊኖ	-5088
▁ሳያ	-5089
▁ትዝ	-5090
▁አክ	-5091
▁እሳ	-5092
▁ከህ	-5093
▁ከኮ	-5094
▁የኛ	-5095
▁ገዝ	-5096
ሽርሽር	-5097
በዛበት	-5098
▁ሀይቅ	-5099
▁ላለማ	-5100
▁መንግ	-5101
▁ምግቡ	-5102
▁ሰሌዳ	-5103
▁ሲመጣ	-5104
▁በራስ	-5105
▁በእግ	-5106
▁ባለቤ	-5107
▁ተጋባ	-5108
▁ትርኢ	-5109
▁ትከሻ	-5110
▁አስጠ	-5111
▁አብራ	-5112
▁አወቅ	-5113
▁አያው	-5114
▁አይተ	-5115
▁አይን	-5116
▁እጠላ	-5117
▁ከለከ	-5118
▁ከወን	-5119
▁ካሉት	-5120
▁የሰጠ	-5121
▁የኪስ	-5122
▁ደራሲ	-5123
▁ጩሀት	-5124
ፈልጋቸው	-5125
▁ሊዘንብ	-5126
▁መከተል	-5127
▁ሙዚየም	-5128
▁ማረፊያ	-5129
▁ማሰሪያ	-5130
▁ሰጠችው	-5131
▁ሳይንቲ	-5132
▁በምድር	-5133
▁በትንሽ	-5134
▁በፖስታ	-5135
▁ተረጋጋ	-5136
▁ተነሳሁ	-5137
▁ትኩሳት	-5138
▁ንገረው	-5139
▁አምኗል	-5140
▁እስክት	-5141
▁ከማንም	-5142
▁የሌለው	-5143
▁የቀድሞ	-5144
▁ያምናል	-5145
▁ገንዘቡ	-5146
▁ለመጀመር	-5147
▁ለማሳመን	-5148
▁አልፈዋል	-5149
▁አስገራሚ	-5150
▁እንዲሰራ	-5151
▁እየሰራን	-5152
▁እየጠበቁ	-5153
▁ሁላችሁንም	-5154
▁አድርገናል	-5155
▁እስክሪብቶ	-5156
▁የምትኖረው	-5157
▁ዩኒቨርሲቲ	-5158
▁አልነገርከኝም	-5159
▁እንደማደርገው	-5160
▁የመጀመሪያውን	-5161
13	-5162
ማሙ	-5163
ሳቁ	-5164
ቧራ	-5165
ግቡ	-5166
ፈነ	-5167
ሰብክ	-5168
ሰኛል	-5169
ስትሪ	-5170
ቃታማ	-5171
ኖቹን	-5172
ወጣው	-5173
ዘዋል	-5174
ይዘው	-5175
ገበያ	-5176
ጉትን	-5177
ጎበኝ	-5178
▁ለፈ	-5179
▁ሞዴ	-5180
▁ቁስ	-5181
▁በሙ	-5182
▁በኪ	-5183
▁ትግ	-5184
▁ነዳ	-5185
▁ኑሮ	-5186
▁ከጥ	-5187
▁ካሉ	-5188
▁ይዝ	-5189
▁ጠጥ	-5190
▁ፈታ	-5191
ሆናችሁ	-5192
መሳሳይ	-5193
ንቅልፍ	-5194
▁ለራሱ	-5195
▁ስሜን	-5196
▁ቆረጠ	-5197
▁በቲቪ	-5198
▁በጫካ	-5199
▁ታዲያ	-5200
▁አቀላ	-5201
▁አይጥ	-5202
▁እየነ	-5203
▁የክፍ	-5204
▁ያጥፉ	-5205
▁ይሁኑ	-5206
▁ጠባብ	-5207
▁ጥናት	-5208
▁ጥንቸ	-5209
▁ህይወቱ	-5210
▁ሬዲዮን	-5211
▁ስሜታዊ	-5212
▁ቀርፋፋ	-5213
▁በሰላም	-5214
▁በግማሽ	-5215
▁ኢኮኖሚ	-5216
▁እያለሁ	-5217
▁ከረጅም	-5218
▁ከከተማ	-5219
▁ይምረጡ	-5220
▁ፍንዳታ	-5221
▁ለመተኛት	-5222
▁መቆጣጠር	-5223
▁በከተማው	-5224
▁ተከስቷል	-5225
▁ትገኛለች	-5226
▁እምብዛም	-5227
▁እንሞክር	-5228
▁እንዳለን	-5229
▁የሚናገር	-5230
▁ልትነግረኝ	-5231
▁ስጦታዎችን	-5232
▁ታምሜአለሁ	-5233
▁አድርገዋል	-5234
▁የምትሰራው	-5235
▁እንደሚመስል	-5236
ካካ	-5237
ዱኝ	-5238
ጊት	-5239
ለትም	-5240
ሞክሮ	-5241
ራንት	-5242
ቀይር	-5243
ባይል	-5244
ቸገር	-5245
ኖሪያ	-5246
ከኝን	-5247
ዘገይ	-5248
ያትር	-5249
ያችን	-5250
ደበቀ	-5251
ደናል	-5252
ዶቹን	-5253
ገነዘ	-5254
ገዛው	-5255
ፓርክ	-5256
▁ሜዳ	-5257
▁ሞቅ	-5258
▁ራቅ	-5259
▁ስሟ	-5260
▁በዩ	-5261
▁ቤቷ	-5262
▁ቲኬ	-5263
▁ነጥ	-5264
▁አቃ	-5265
▁ይር	-5266
▁ጥግ	-5267
▁ፍቅ	-5268
ሰብሰብ	-5269
ስተኞች	-5270
ስተካክ	-5271
ቀድሞው	-5272
ነጋገሩ	-5273
ነግራት	-5274
▁ልደት	-5275
▁መጮህ	-5276
▁ሙዚየ	-5277
▁ሞተር	-5278
▁በርስ	-5279
▁በወር	-5280
▁ተከተ	-5281
▁አረጋ	-5282
▁አይብ	-5283
▁ኣላማ	-5284
▁ኣመቱ	-5285
▁እየሰ	-5286
▁ከሩቅ	-5287
▁ከቤቴ	-5288
▁ካልሲ	-5289
▁ክሬም	-5290
▁ክስተ	-5291
▁የተጠ	-5292
▁ደጋግ	-5293
▁ጃክሰ	-5294
▁ፀደይ	-5295
▁ፍጠን	-5296
▁ፓርኩ	-5297
▁ለማመን	-5298
▁ለወላጆ	-5299
▁ማፅዳት	-5300
▁ሽልማት	-5301
▁በከንቱ	-5302
▁በክፍል	-5303
▁ብትሄድ	-5304
▁ተስማም	-5305
▁ነበረን	-5306
▁ንገሩኝ	-5307
▁አለርጂ	-5308
▁አላገባ	-5309
▁አልተኛ	-5310
▁እየሮጠ	-5311
▁እጥረት	-5312
▁ከእራት	-5313
▁የውሸት	-5314
▁የዝናብ	-5315
▁ያለበት	-5316
▁ያስተም	-5317
▁ይፈራል	-5318
▁ገመዱን	-5319
▁ጥርጣሬ	-5320
▁ሃሳብህን	-5321
▁ለመውሰድ	-5322
▁ልብሶችን	-5323
▁በትራፊክ	-5324
▁በእርስዎ	-5325
▁አነጋገር	-5326
▁አያመጣም	-5327
▁አያውቁም	-5328
▁እንጫወት	-5329
▁የምትችል	-5330
▁የጎደለው	-5331
▁ደስተኞች	-5332
▁ጠፍተዋል	-5333
▁ልትነግሩኝ	-5334
▁በማቀዝቀዣ	-5335
▁ትናገራለህ	-5336
▁ትናገራለች	-5337
▁አለመታደል	-5338
▁አልስማማም	-5339
▁አሻንጉሊት	-5340
▁አይገባኝም	-5341
▁አግኝተናል	-5342
▁እከፍላለሁ	-5343
▁ያስፈልገናል	-5344
▁አልነበረብህም	-5345
▁ያስፈልጋቸዋል	-5346
ህቴ	-5347
ማቂ	-5348
ሰቤ	-5349
ቆዩ	-5350
ቱት	-5351
ቶን	-5352
ናወ	-5353
ናዊ	-5354
ኔት	-5355
ኙት	-5356
ዋቱ	-5357
ምፒዩ	-5358
ራፍሬ	-5359
ሳልፍ	-5360
ሳሰብ	-5361
ነውን	-5362
ናለች	-5363
ንደን	-5364
ዎቼን	-5365
ደሰቱ	-5366
ጉዳት	-5367
ጭበር	-5368
▁10	-5369
▁መሞ	-5370
▁ሳላ	-5371
▁ባላ	-5372
▁ትቶ	-5373
▁እው	-5374
▁እዚ	-5375
▁እገ	-5376
▁የን	-5377
▁ይክ	-5378
▁ግማ	-5379
▁ጤን	-5380
ቀድልኝ	-5381
ነግሩኝ	-5382
ዎታለሁ	-5383
ጨነቅም	-5384
ፈልጉም	-5385
▁ህዝቡ	-5386
▁ለመቆ	-5387
▁ምኞቴ	-5388
▁ሞዴል	-5389
▁ረጅሙ	-5390
▁በመር	-5391
▁በእኛ	-5392
▁ትበላ	-5393
▁ትጠብ	-5394
▁አቆም	-5395
▁አገኛ	-5396
▁ኪራይ	-5397
▁የማያ	-5398
▁ያለች	-5399
▁ያረጀ	-5400
▁ያሸን	-5401
▁ይህች	-5402
▁ይለብ	-5403
▁ድንጋ	-5404
▁ድግሱ	-5405
▁ጣልቃ	-5406
▁ጭማቂ	-5407
▁ፈንታ	-5408
▁ፕሮፌ	-5409
▁ፖሊሱ	-5410
▁ህክምና	-5411
▁ለራስህ	-5412
▁ላመሰግ	-5413
▁ምስጢር	-5414
▁በአዲሱ	-5415
▁ቦታዎች	-5416
▁ተለወጠ	-5417
▁ተሳስተ	-5418
▁አልገዛ	-5419
▁አይቼው	-5420
▁ኣይነቱ	-5421
▁እንዳን	-5422
▁እንድረ	-5423
▁ወንዙን	-5424
▁የላትም	-5425
▁ጊዜህን	-5426
▁ሃላፊነት	-5427
▁ማስቀመጥ	-5428
▁ማስገባት	-5429
▁ማስጠንቀ	-5430
▁አልተቀበ	-5431
▁አርቲስት	-5432
▁አንዳንዴ	-5433
▁አደረግክ	-5434
▁ፈረንሳይ	-5435
▁ፊልሞችን	-5436
▁በተመሳሳይ	-5437
▁አልደረሰም	-5438
▁አያደርግም	-5439
▁እንደሚሄድ	-5440
▁እደውላለሁ	-5441
▁የሚጀምረው	-5442
20	-5443
ላክ	-5444
ሳራ	-5445
ቀል	-5446
በህ	-5447
ከመ	-5448
ኩስ	-5449
ደች	-5450
ድኩ	-5451
ጨና	-5452
ላቀል	-5453
ልቀት	-5454
ረኛል	-5455
ሽከረ	-5456
በላሸ	-5457
ነትህ	-5458
ዘቀዘ	-5459
ዘገየ	-5460
ደበቅ	-5461
ዳችሁ	-5462
▁ሃያ	-5463
▁መሪ	-5464
▁ሳቅ	-5465
▁ሻማ	-5466
▁በሞ	-5467
▁ታው	-5468
▁ንቁ	-5469
▁አረ	-5470
▁የቱ	-5471
▁ያየ	-5472
▁ገቡ	-5473
በለዚያ	-5474
▁መጣች	-5475
▁ሰረቀ	-5476
▁ስለሚ	-5477
▁ስጋት	-5478
▁ቁማር	-5479
▁በእሷ	-5480
▁በከፍ	-5481
▁ቢሮዬ	-5482
▁ብረት	-5483
▁ተቃጥ	-5484
▁ተጠና	-5485
▁ተፈጥ	-5486
▁ትንፋ	-5487
▁አልቀ	-5488
▁አረፈ	-5489
▁አቋር	-5490
▁አትን	-5491
▁አግብ	-5492
▁ክብር	-5493
▁ዘነበ	-5494
▁የለበ	-5495
▁የሞት	-5496
▁የብር	-5497
▁ደሴት	-5498
▁ዳግም	-5499
▁ጉልበ	-5500
▁ጠላት	-5501
▁ጠባቂ	-5502
▁ፈራሁ	-5503
▁ፕሬዚ	-5504
▁ለመፃፍ	-5505
▁ለንደን	-5506
▁መደብሩ	-5507
▁ማተኮር	-5508
▁ምስጋና	-5509
▁ምግቦች	-5510
▁ሞቃታማ	-5511
▁ሰውየው	-5512
▁ስልጣን	-5513
▁ቀለበት	-5514
▁በማግኘ	-5515
▁በሳጥኑ	-5516
▁በዙሪያ	-5517
▁በጭንቅ	-5518
▁ተቃውሞ	-5519
▁ተጀመረ	-5520
▁ተፈጠረ	-5521
▁ታሪኩን	-5522
▁ትእዛዝ	-5523
▁አዘጋጀ	-5524
▁እነግራ	-5525
▁እውነቱ	-5526
▁የሚያው	-5527
▁የተጨነ	-5528
▁የቴኒስ	-5529
▁የነበረ	-5530
▁የወይን	-5531
▁የዚህን	-5532
▁ይቆያል	-5533
▁ጃፓንኛ	-5534
▁ፈገግታ	-5535
▁ፖሊሶች	-5536
ነጋገራለን	-5537
▁ለመጠጣት	-5538
▁ለማጥፋት	-5539
▁ልታደርግ	-5540
▁ታውቃለች	-5541
▁አላወቀም	-5542
▁አንሄድም	-5543
▁አደጋውን	-5544
▁አጋጥሞኝ	-5545
▁እየፈለገ	-5546
▁ከቦስተን	-5547
▁ወታደሮቹ	-5548
▁የበዛበት	-5549
▁ገንዘቤን	-5550
▁ስብሰባውን	-5551
▁ተምሬያለሁ	-5552
▁አልናገርም	-5553
▁አታድርገኝ	-5554
▁አንብበዋል	-5555
▁እንደሌለው	-5556
▁የአውቶቡስ	-5557
▁ያደረግኩት	-5558
▁በትክክለኛው	-5559
▁አለመግባባት	-5560
▁እየተመለከተ	-5561
▁የምትችለውን	-5562
▁ይንከባከባል	-5563
▁እንነጋገራለን	-5564
▁እንደማትፈልግ	-5565
ለፈ	-5566
ሉእ	-5567
መወ	-5568
ምፕ	-5569
ሳቢ	-5570
ናፊ	-5571
ክር	-5572
ያፊ	-5573
ጆቹ	-5574
▁6	-5575
▁ዞ	-5576
ለምን	-5577
ላለን	-5578
ልኩም	-5579
መራው	-5580
ሳዝን	-5581
ሳየኝ	-5582
ስታው	-5583
ቀርብ	-5584
ንቀት	-5585
ካክል	-5586
ወሰደ	-5587
ፀያፊ	-5588
ፈለክ	-5589
▁መኪ	-5590
▁ሶፋ	-5591
▁ሸሸ	-5592
▁ቆሞ	-5593
▁በሱ	-5594
▁እፎ	-5595
▁ያነ	-5596
▁ገን	-5597
▁ጠበ	-5598
▁ጥላ	-5599
ማቋረጥ	-5600
ረጋጋት	-5601
ራቸውም	-5602
በላለን	-5603
በታለሁ	-5604
ነግረኝ	-5605
ካባቢው	-5606
▁መስመ	-5607
▁ሰክሮ	-5608
▁ሳጥኑ	-5609
▁ስራዬ	-5610
▁ቆሟል	-5611
▁በልቼ	-5612
▁ተሰማ	-5613
▁ተቆል	-5614
▁ተጋብ	-5615
▁ነጠላ	-5616
▁አልክ	-5617
▁አርብ	-5618
▁አፈር	-5619
▁እቅዳ	-5620
▁እግሬ	-5621
▁ከፊት	-5622
▁ካለው	-5623
▁ክርክ	-5624
▁ኳሱን	-5625
▁ዘጠኝ	-5626
▁የራስ	-5627
▁የገረ	-5628
▁ይህም	-5629
▁ይፃፉ	-5630
▁ደሞዝ	-5631
▁ግሩም	-5632
▁ፍላጎ	-5633
ነበብኩት	-5634
▁ለማሰብ	-5635
▁መቀባት	-5636
▁መደርደ	-5637
▁ማምጣት	-5638
▁ሰጥቷል	-5639
▁በእጥፍ	-5640
▁ኖረዋል	-5641
▁አልኩህ	-5642
▁አደረጉ	-5643
▁እንወዳ	-5644
▁እንደታ	-5645
▁ዋጋዎች	-5646
▁የማወቅ	-5647
▁ያገኛሉ	-5648
▁ይረዳል	-5649
▁ሁኔታውን	-5650
▁ህይወቱን	-5651
▁ለሽርሽር	-5652
▁ማስታወስ	-5653
▁ብታደርግ	-5654
▁ትላንትና	-5655
▁ትሰራለች	-5656
▁አትወድም	-5657
▁አያስብም	-5658
▁አደረግን	-5659
▁አጥተናል	-5660
▁እንደማያ	-5661
▁እንደምል	-5662
▁እየሄድን	-5663
▁ወታደሮች	-5664
▁ወደድኩት	-5665
▁ይገባዋል	-5666
▁ፕሮግራም	-5667
▁ሬስቶራንት	-5668
▁በየሳምንቱ	-5669
▁ተበላሽቷል	-5670
▁አልረሳውም	-5671
▁አልፈቅድም	-5672
▁እንዳለባት	-5673
▁እንድትመጣ	-5674
▁እወድሃለሁ	-5675
▁እየተሰማኝ	-5676
▁የምንችለው	-5677
▁የምንኖረው	-5678
▁ጠረጴዛውን	-5679
▁አላደረግኩም	-5680
▁እንዲያደርጉ	-5681
▁የተናገረውን	-5682
▁ያስደስተኛል	-5683
▁እንደሚያደርግ	-5684
ሱም	-5685
ሳሰ	-5686
ቀባ	-5687
ቅዱ	-5688
ኑር	-5689
ከሩ	-5690
ጉን	-5691
ጋል	-5692
ጌጥ	-5693
ጠሎ	-5694
ጠም	-5695
ጠቅ	-5696
ፈተ	-5697
ፍል	-5698
ሀይቁ	-5699
ለኞች	-5700
መንጃ	-5701
መጣሉ	-5702
ቀመጡ	-5703
ነትን	-5704
ናናት	-5705
ከባድ	-5706
ወደኝ	-5707
ደሰተ	-5708
ገኙም	-5709
ጎበኘ	-5710
▁ለባ	-5711
▁ለኔ	-5712
▁ለጋ	-5713
▁ማና	-5714
▁ራቁ	-5715
▁ሰአ	-5716
▁ሳቁ	-5717
▁ሳት	-5718
▁ሸረ	-5719
▁ቀኑ	-5720
▁ቫዮ	-5721
▁ተሞ	-5722
▁ታየ	-5723
▁ታግ	-5724
▁ከራ	-5725
▁ከኛ	-5726
▁ከጭ	-5727
▁የገ	-5728
▁ያግ	-5729
▁ይነ	-5730
▁ይካ	-5731
▁ደው	-5732
▁ዳይ	-5733
▁ጫካ	-5734
ንቀጠቀ	-5735
ወሰድኩ	-5736
ድግዳው	-5737
ገናኘው	-5738
▁ለመነ	-5739
▁መራቅ	-5740
▁መከራ	-5741
▁ማድረ	-5742
▁ምነው	-5743
▁ሰፈር	-5744
▁ስላለ	-5745
▁ቃሉን	-5746
▁በምት	-5747
▁በስህ	-5748
▁ተኝቶ	-5749
▁ተጨን	-5750
▁አዳም	-5751
▁አፍታ	-5752
▁እጨነ	-5753
▁ከፈት	-5754
▁ውሰድ	-5755
▁ያዘኝ	-5756
▁ይቆጠ	-5757
▁ይጠቅ	-5758
▁ጀግና	-5759
▁ገባህ	-5760
▁ግጥም	-5761
▁ፈለግ	-5762
ደውልልኝ	-5763
▁ህፃናት	-5764
▁ለጊዜው	-5765
▁ልደውል	-5766
▁መምሰል	-5767
▁መንደር	-5768
▁መጨመር	-5769
▁ሙሉውን	-5770
▁ማቆየት	-5771
▁በሰማይ	-5772
▁ተሞክሮ	-5773
▁አባላት	-5774
▁አግዳሚ	-5775
▁እንክብ	-5776
▁እንዳስ	-5777
▁እያሰቡ	-5778
▁እያጋጠ	-5779
▁ወድቋል	-5780
▁ውድድር	-5781
▁የምድር	-5782
▁ያልኩት	-5783
▁ያመጣል	-5784
▁ያገኛል	-5785
▁ደረስን	-5786
▁ገብቷል	-5787
▁ጉዳዮች	-5788
▁ፀጉሬን	-5789
▁ፋብሪካ	-5790
▁ሳህኖቹን	-5791
▁ስራዎችን	-5792
▁በመንገዱ	-5793
▁በተቻለኝ	-5794
▁ተናገረች	-5795
▁ተገኝቷል	-5796
▁ታምናለህ	-5797
▁አላልኩም	-5798
▁አልጨረስ	-5799
▁አትክልት	-5800
▁አይመጣም	-5801
▁እንቆቅል	-5802
▁እየቀለድ	-5803
▁ካሰብኩት	-5804
▁ያሸንፋል	-5805
▁ይገርማል	-5806
▁ይገባሃል	-5807
▁ተሳስቻለሁ	-5808
▁ተነጋገርን	-5809
▁እየተጫወተ	-5810
▁እጨነቃለሁ	-5811
▁ማስጠንቀቂያ	-5812
▁እንደማልችል	-5813
ለቁ	-5814
ሌን	-5815
ምድ	-5816
ሳፈ	-5817
ሶቹ	-5818
ቆች	-5819
ባባ	-5820
ባቱ	-5821
ባዊ	-5822
ቲን	-5823
ትህ	-5824
ችህ	-5825
ቾት	-5826
ነር	-5827
ዳሉ	-5828
ጓጓ	-5829
ጠነ	-5830
▁4	-5831
▁8	-5832
000	-5833
ለቤቴ	-5834
ለቲከ	-5835
ለታል	-5836
መለከ	-5837
መሳስ	-5838
ረዱት	-5839
ቀናል	-5840
ባችን	-5841
ብናል	-5842
ክቷል	-5843
ኮችን	-5844
ወዳት	-5845
የውም	-5846
ፅፈው	-5847
▁ለቁ	-5848
▁ሊሰ	-5849
▁ልቤ	-5850
▁ቆስ	-5851
▁በሀ	-5852
▁ተላ	-5853
▁አዘ	-5854
▁ከሃ	-5855
▁ከዋ	-5856
▁የቤ	-5857
▁የዩ	-5858
▁የጉ	-5859
▁የፅ	-5860
▁ዲግ	-5861
▁ፈጥ	-5862
ራቢያው	-5863
ሳቸውን	-5864
ስብበት	-5865
ወዳደር	-5866
ጋችሁት	-5867
▁ሃምሳ	-5868
▁ህመሙ	-5869
▁መለሰ	-5870
▁ማረፍ	-5871
▁ቅናሽ	-5872
▁በነፃ	-5873
▁ባለት	-5874
▁ባትሪ	-5875
▁ቧንቧ	-5876
▁ቪዲዮ	-5877
▁ተለዋ	-5878
▁ታገኛ	-5879
▁ትወደ	-5880
▁ትጨነ	-5881
▁አሰራ	-5882
▁አዘዘ	-5883
▁አጥን	-5884
▁እምቢ	-5885
▁እስቲ	-5886
▁እቅዱ	-5887
▁እወጣ	-5888
▁እየታ	-5889
▁ክለብ	-5890
▁ክላው	-5891
▁ኮከብ	-5892
▁የማላ	-5893
▁የራሱ	-5894
▁የተሰ	-5895
▁ያዳም	-5896
▁ይነሳ	-5897
▁ደወል	-5898
▁ድመቴ	-5899
▁ጥንካ	-5900
ገልግሎት	-5901
▁ለዚህም	-5902
▁ልነግር	-5903
▁መብራት	-5904
▁መታገስ	-5905
▁መዝለል	-5906
▁ቃላትን	-5907
▁በጥይት	-5908
▁አለቃው	-5909
▁አልሄድ	-5910
▁አልመለ	-5911
▁አባቴን	-5912
▁አይረዳ	-5913
▁አድርጋ	-5914
▁እራሷን	-5915
▁እነማን	-5916
▁እየወጣ	-5917
▁ከተማዋ	-5918
▁ከእስር	-5919
▁ክሬዲት	-5920
▁የሂሳብ	-5921
▁የተወሳ	-5922
▁የቶምን	-5923
▁የፀጉር	-5924
▁ይጠጣል	-5925
▁ይጮሃል	-5926
▁መጨረሻው	-5927
▁ሪፖርቱን	-5928
▁ቡድናችን	-5929
▁ብቸኝነት	-5930
▁አልተሳካ	-5931
▁አልተገኘ	-5932
▁አመጋገብ	-5933
▁አይሄድም	-5934
▁እንዳለች	-5935
▁ከተማዋን	-5936
▁ዙሪያውን	-5937
▁ይከሰታል	-5938
▁ይጠይቃል	-5939
▁ድመቶችን	-5940
▁ፍቀድልኝ	-5941
▁ፎቶግራፍ	-5942
▁ፓስፖርት	-5943
▁መምህራችን	-5944
▁እንወዳለን	-5945
▁የሚያመሳስ	-5946
▁የሚያውቀው	-5947
▁ያስቀምጡት	-5948
▁በአቅራቢያው	-5949
▁አልተናገረም	-5950
▁አልተፈቀደል	-5951
▁አንብቤዋለሁ	-5952
▁እንደሚያውቅ	-5953
▁እንዳታደርግ	-5954
▁የኤሌክትሪክ	-5955
ምኩ	-5956
ሞቅ	-5957
ሬም	-5958
ስቡ	-5959
ቀን	-5960
ቻሉ	-5961
ናደ	-5962
ኮላ	-5963
ኮፕ	-5964
ዝቡ	-5965
ጠኛ	-5966
ጫን	-5967
ፎቹ	-5968
▁ጅ	-5969
ሳቸው	-5970
ስታወ	-5971
ስትና	-5972
ስቶች	-5973
ቪዲዮ	-5974
ከናወ	-5975
ከፍል	-5976
ወዛወ	-5977
ዘጋው	-5978
የሁህ	-5979
ያለን	-5980
ድሚያ	-5981
ድሩን	-5982
ጀርባ	-5983
ጣቸው	-5984
ፀዳጃ	-5985
▁ህሊ	-5986
▁ቢስ	-5987
▁ነቃ	-5988
▁ከሳ	-5989
▁ከዘ	-5990
▁ከፊ	-5991
▁ዝጋ	-5992
▁የጋ	-5993
▁ያደ	-5994
▁ጎጆ	-5995
▁ጣት	-5996
▁ጥይ	-5997
▁ፈሪ	-5998
ሳችሁን	-5999
ስበውን	-6000
ታጠቢያ	-6001
ነግረው	-6002
ክሲዮን	-6003
ደብዳቤ	-6004
▁መሆና	-6005
▁መተን	-6006
▁መንጃ	-6007
▁ስለመ	-6008
▁ስለማ	-6009
▁ቁመት	-6010
▁ቁርጥ	-6011
▁በበኣ	-6012
▁በንግ	-6013
▁በአፍ	-6014
▁ተሞል	-6015
▁ተሸን	-6016
▁ትኩረ	-6017
▁ትወስ	-6018
▁አልደ	-6019
▁ኣመቴ	-6020
▁እናቱ	-6021
▁ከብዙ	-6022
▁ወንዙ	-6023
▁ዘይት	-6024
▁የሞተ	-6025
▁የቻል	-6026
▁የኔን	-6027
▁የዋህ	-6028
▁የውሃ	-6029
▁ያለእ	-6030
▁ያማል	-6031
▁ያንብ	-6032
▁ያደግ	-6033
▁ይከተ	-6034
▁ዲግሪ	-6035
▁ጉጉት	-6036
▁ጠጣሁ	-6037
▁ፈጠረ	-6038
▁መሳተፍ	-6039
▁መኪኖች	-6040
▁መፅሄት	-6041
▁ማንኪያ	-6042
▁ማእበል	-6043
▁ሞተዋል	-6044
▁ሰላምታ	-6045
▁ሽጉጡን	-6046
▁በማድረ	-6047
▁በኩሽና	-6048
▁ተግባር	-6049
▁ትናንሽ	-6050
▁ናፍቆት	-6051
▁ንግግሩ	-6052
▁አረጋግ	-6053
▁አስተው	-6054
▁እወስድ	-6055
▁እግሬን	-6056
▁የህዝብ	-6057
▁የመሆን	-6058
▁የሚወዱ	-6059
▁የምታው	-6060
▁የተኩስ	-6061
▁የተፃፈ	-6062
▁ይሸጣል	-6063
▁ይካሄዳ	-6064
▁ይፈልጉ	-6065
▁ድርድር	-6066
▁ፈለገች	-6067
▁ለመስማት	-6068
▁ለኣመታት	-6069
▁መፃህፍቱ	-6070
▁ስህተቶች	-6071
▁ቆንጆዎች	-6072
▁በማድረግ	-6073
▁በአምስት	-6074
▁በጦርነቱ	-6075
▁ተሳስቷል	-6076
▁ተጠንቀቅ	-6077
▁ታማኝነት	-6078
▁ነበራቸው	-6079
▁አላስብም	-6080
▁አላነበብ	-6081
▁አነባለሁ	-6082
▁እንደሚል	-6083
▁እንደደረ	-6084
▁ከማድረግ	-6085
▁ከጣቢያው	-6086
▁ዘፈኖችን	-6087
▁የሚችሉት	-6088
▁የምበላው	-6089
▁ይሰማዋል	-6090
▁ለእርዳታዎ	-6091
▁በመጨረሻም	-6092
▁አለበለዚያ	-6093
▁ያለማቋረጥ	-6094
▁ይከብደኛል	-6095
▁በአውሮፕላን	-6096
▁አትክልቶችን	-6097
▁የሚያስደስት	-6098
▁ያስታውሰኛል	-6099
▁የሚያስፈልገው	-6100
ልቁ	-6101
ረች	-6102
ራቅ	-6103
ሽኝ	-6104
ቀህ	-6105
ቆማ	-6106
በሩ	-6107
ውስ	-6108
ዜማ	-6109
ዥም	-6110
የሩ	-6111
ጅቱ	-6112
ጮሀ	-6113
ፈሩ	-6114
ፕሮ	-6115
▁ቂ	-6116
ሊያን	-6117
ላለፍ	-6118
ሚያስ	-6119
በስል	-6120
በናል	-6121
ባችሁ	-6122
ቴሪያ	-6123
ናገኝ	-6124
ኞቹን	-6125
ከፈለ	-6126
ከፈል	-6127
ወጣም	-6128
ዘጋጁ	-6129
ገኙት	-6130
▁ሀገ	-6131
▁መቁ	-6132
▁ምእ	-6133
▁ሞቱ	-6134
▁ሰፊ	-6135
▁ሲዲ	-6136
▁ስኪ	-6137
▁ስፓ	-6138
▁ክላ	-6139
▁የሩ	-6140
▁የዱ	-6141
▁ያቁ	-6142
▁ያቆ	-6143
▁ድህ	-6144
▁ድብ	-6145
▁ጆን	-6146
▁ገል	-6147
ሮፕላኑ	-6148
ንሰርት	-6149
ወስድም	-6150
ፋሪዎች	-6151
▁ለቤተ	-6152
▁መሳቅ	-6153
▁መሸጥ	-6154
▁ሳህን	-6155
▁ሳሙና	-6156
▁ስርኣ	-6157
▁ቃጠሎ	-6158
▁በቀስ	-6159
▁ባለጌ	-6160
▁ብርሃ	-6161
▁ተመር	-6162
▁ተሸክ	-6163
▁ተከፍ	-6164
▁ትንበ	-6165
▁ነዳጅ	-6166
▁አልባ	-6167
▁አያም	-6168
▁እያስ	-6169
▁ከንቲ	-6170
▁ከዛፉ	-6171
▁ወስዶ	-6172
▁የማው	-6173
▁የአል	-6174
▁ያገባ	-6175
▁ይዋል	-6176
▁ይዝጉ	-6177
▁ደህን	-6178
▁ደወለ	-6179
▁ጭጋግ	-6180
▁ፋይዳ	-6181
▁ፍንጭ	-6182
▁ሀሳቤን	-6183
▁ህፃኑን	-6184
▁ለአፍታ	-6185
▁ሌሎችን	-6186
▁ልቦለድ	-6187
▁ስላደረ	-6188
▁በቀስታ	-6189
▁በእድሜ	-6190
▁በጨለማ	-6191
▁ተስማማ	-6192
▁ተወላጅ	-6193
▁ቲያትር	-6194
▁አላመነ	-6195
▁አልኩኝ	-6196
▁አበድረ	-6197
▁አይስክ	-6198
▁እነሱን	-6199
▁እናቴን	-6200
▁እጠብቅ	-6201
▁ከምንም	-6202
▁ወስኗል	-6203
▁የልደት	-6204
▁የጀመር	-6205
▁ያልከው	-6206
▁ያበቃል	-6207
▁ያንብቡ	-6208
▁ዮሀንስ	-6209
▁ደረስኩ	-6210
▁ጉድጓድ	-6211
▁ፖለቲከ	-6212
▁ለመቀበል	-6213
▁ለመክፈት	-6214
▁ለመጫወት	-6215
▁ማናችንም	-6216
▁ምልክቶች	-6217
▁በከፍተኛ	-6218
▁ተሰብሯል	-6219
▁ተጫውቷል	-6220
▁ነገረችኝ	-6221
▁አስተማረ	-6222
▁አይፈቀድ	-6223
▁አጥተዋል	-6224
▁እንደሄደ	-6225
▁እወጣለሁ	-6226
▁የህክምና	-6227
▁የመውጣት	-6228
▁የሚያስጨ	-6229
▁የተናደደ	-6230
▁ይጫወታሉ	-6231
▁ጠንክረህ	-6232
▁ለማስደሰት	-6233
▁ላደርግልህ	-6234
▁በአእምሮዬ	-6235
▁ትበልጣለች	-6236
▁እርዳታህን	-6237
▁እየተማርኩ	-6238
▁የተቻለውን	-6239
▁ቤተመፅሀፍት	-6240
▁እንደማትችል	-6241
▁እንደማይችል	-6242
ለር	-6243
ለቃ	-6244
ሚቴ	-6245
ማኖ	-6246
ሞና	-6247
ረግ	-6248
ራሹ	-6249
ሳዊ	-6250
ነቷ	-6251
ነን	-6252
ዛዥ	-6253
ዥን	-6254
ጆሮ	-6255
ፊው	-6256
ፕሪ	-6257
ሃለን	-6258
መልከ	-6259
ማረው	-6260
ረምቱ	-6261
ረዳሁ	-6262
ቀዘቅ	-6263
በላሹ	-6264
ባለን	-6265
ቸኮል	-6266
ነሳም	-6267
ነቶች	-6268
ናችሁ	-6269
ናነቅ	-6270
ናገድ	-6271
ኛዎቹ	-6272
ኞችን	-6273
ደሃል	-6274
ደንቅ	-6275
ጉረም	-6276
ጫወቱ	-6277
▁ሄዶ	-6278
▁ለቅ	-6279
▁ለታ	-6280
▁በይ	-6281
▁ተዘ	-6282
▁ትኖ	-6283
▁አሞ	-6284
▁እጃ	-6285
▁ውጥ	-6286
▁ይቁ	-6287
▁ጌታ	-6288
▁ጠግ	-6289
መርመር	-6290
መስልም	-6291
መስገን	-6292
ቀመጠው	-6293
ንስሳት	-6294
▁ሀቀኛ	-6295
▁ሌሎቹ	-6296
▁ልጄን	-6297
▁መልኩ	-6298
▁መሞት	-6299
▁መጣል	-6300
▁ራሷን	-6301
▁ቀጥል	-6302
▁በተራ	-6303
▁በደረ	-6304
▁ባርኔ	-6305
▁ኖሯል	-6306
▁አሳማ	-6307
▁አንደ	-6308
▁አፅድ	-6309
▁እንተ	-6310
▁ክንድ	-6311
▁ወደሚ	-6312
▁ዋዜማ	-6313
▁ዜናው	-6314
▁የሄድ	-6315
▁የቡና	-6316
▁የኩባ	-6317
▁ይጠጡ	-6318
▁ግትር	-6319
▁ጥቃት	-6320
▁ፖሊሲ	-6321
▁ሃሳቦች	-6322
▁ህይወቴ	-6323
▁ለፈተና	-6324
▁ሊከሰት	-6325
▁መሳቢያ	-6326
▁መጋረጃ	-6327
▁ሙዚቃን	-6328
▁ማምለጥ	-6329
▁ሞልቷል	-6330
▁ቀንሷል	-6331
▁በራስህ	-6332
▁በአብዛ	-6333
▁በጉዳዩ	-6334
▁በጥሞና	-6335
▁ቫዮሊን	-6336
▁ተወለደ	-6337
▁ተደሰት	-6338
▁አለቃዬ	-6339
▁አስመስ	-6340
▁አስገረ	-6341
▁አንኳኳ	-6342
▁አድርጉ	-6343
▁እንውጣ	-6344
▁እያደገ	-6345
▁እድሜህ	-6346
▁እፎይታ	-6347
▁ካንሰር	-6348
▁ክላውስ	-6349
▁ዘመናዊ	-6350
▁ያምናሉ	-6351
▁ይቀጥሉ	-6352
▁ጀርመን	-6353
▁ጃክሰን	-6354
▁ጥንካሬ	-6355
▁ፊልሙን	-6356
▁ለማጥመድ	-6357
▁መመልከት	-6358
▁መከላከል	-6359
▁መጨናነቅ	-6360
▁ሚስጥራዊ	-6361
▁ምግቦችን	-6362
▁ቁልፎቼን	-6363
▁በሁለተኛ	-6364
▁በመስመር	-6365
▁በስህተት	-6366
▁በዝርዝሩ	-6367
▁ባለትዳር	-6368
▁ተለውጧል	-6369
▁ተገናኘን	-6370
▁ትሄዳለች	-6371
▁ንግግሩን	-6372
▁አስተያየ	-6373
▁አስፀያፊ	-6374
▁አታድርጉ	-6375
▁አይወዱም	-6376
▁እንቀመጥ	-6377
▁እንዲገባ	-6378
▁እየበላሁ	-6379
▁ከእናንተ	-6380
▁ወንድምህ	-6381
▁የማይችል	-6382
▁የገባውን	-6383
▁ይመርጣሉ	-6384
▁ይጠንቀቁ	-6385
▁ጠየቀቻት	-6386
▁ጠየቀችኝ	-6387
▁ጨርሰሃል	-6388
▁መንቀሳቀስ	-6389
▁መደርደሪያ	-6390
▁መፅሃፎችን	-6391
▁ማስታወቂያ	-6392
▁ተቀምጠዋል	-6393
▁ተገኝተዋል	-6394
▁አሳልፈናል	-6395
▁አስተሳሰብ	-6396
▁እንዳያመል	-6397
▁እንድታውቅ	-6398
▁እንድትቆይ	-6399
▁እያነበብኩ	-6400
▁የምሄድበት	-6401
▁የምትሄደው	-6402
▁አልነበረንም	-6403
▁እንደሚፈልጉ	-6404
▁የሚናገረውን	-6405
▁እነግራችኋለሁ	-6406
ለበ	-6407
ለፉ	-6408
ላቱ	-6409
ሌቭ	-6410
ልእ	-6411
ሎን	-6412
ሏን	-6413
ማሩ	-6414
ረቡ	-6415
ረካ	-6416
ሹራ	-6417
ሻይ	-6418
በራ	-6419
ቢው	-6420
ነኛ	-6421
ንዱ	-6422
ዋሚ	-6423
ዋሸ	-6424
ዛዛ	-6425
ጨበ	-6426
ስተው	-6427
ሻገር	-6428
ብራት	-6429
ነናል	-6430
ንጀሮ	-6431
ወድህ	-6432
ደምደ	-6433
ደርሱ	-6434
ጎተት	-6435
▁ሊቀ	-6436
▁ማደ	-6437
▁ማፍ	-6438
▁ምሽ	-6439
▁ቅቤ	-6440
▁በጓ	-6441
▁አቋ	-6442
▁እቀ	-6443
▁ውብ	-6444
▁የቼ	-6445
▁ያብ	-6446
▁ይኮ	-6447
▁ይጎ	-6448
▁ይፅ	-6449
▁ፅዋ	-6450
ሳችንን	-6451
ሹራንስ	-6452
ባቸውም	-6453
ከለከለ	-6454
▁ሄደህ	-6455
▁ህሊና	-6456
▁ለጉዞ	-6457
▁ልቦለ	-6458
▁ምንጭ	-6459
▁ረገድ	-6460
▁ሲገባ	-6461
▁ቅድመ	-6462
▁ቅጣት	-6463
▁በበጋ	-6464
▁በቡና	-6465
▁በውስ	-6466
▁በውጤ	-6467
▁በጉዞ	-6468
▁ብቆይ	-6469
▁ቦታው	-6470
▁ተመታ	-6471
▁ተቀበ	-6472
▁ተነግ	-6473
▁ተዘር	-6474
▁አሳየ	-6475
▁አንፃ	-6476
▁አጠና	-6477
▁አጠገ	-6478
▁አፋር	-6479
▁ከሌለ	-6480
▁ከምሳ	-6481
▁ከነገ	-6482
▁ኩራት	-6483
▁ኪሳራ	-6484
▁ክፍለ	-6485
▁ወዳድ	-6486
▁ዘራፊ	-6487
▁የሌላ	-6488
▁የሚቀ	-6489
▁የወጣ	-6490
▁የጋራ	-6491
▁ያሰብ	-6492
▁ይበቅ	-6493
▁ፈቀደ	-6494
▁ፍርድ	-6495
▁ፓሪስ	-6496
ባበቃለሁ	-6497
ጉረምረም	-6498
▁ለልጆች	-6499
▁ሊወስድ	-6500
▁ሊያየኝ	-6501
▁መግለጫ	-6502
▁መፀዳጃ	-6503
▁ሪፖርት	-6504
▁ሳጥኖች	-6505
▁ስራዋን	-6506
▁ቁልፎች	-6507
▁በሀይቁ	-6508
▁በእስር	-6509
▁ባደርግ	-6510
▁ተሳስታ	-6511
▁ተባረረ	-6512
▁ተጨነቀ	-6513
▁ችያለሁ	-6514
▁ነገረው	-6515
▁ነፃነት	-6516
▁አልራበ	-6517
▁አልሰራ	-6518
▁አሰራር	-6519
▁አቆምኩ	-6520
▁አያለሁ	-6521
▁አይተህ	-6522
▁አይኖች	-6523
▁እቅዱን	-6524
▁እንብላ	-6525
▁እየገዛ	-6526
▁ክርክር	-6527
▁ወስዷል	-6528
▁ውሾችን	-6529
▁የሚችሉ	-6530
▁የሶስት	-6531
▁የቀረው	-6532
▁የባቡር	-6533
▁የተረፈ	-6534
▁የተሰሩ	-6535
▁የይለፍ	-6536
▁ያዝኩት	-6537
▁ይሸታል	-6538
▁ጥርጥር	-6539
▁ጦርነቱ	-6540
▁ጨዋነት	-6541
▁ለመቀነስ	-6542
▁ለመንዳት	-6543
▁ለምጃለሁ	-6544
▁ልታሳየኝ	-6545
▁መሰብሰብ	-6546
▁መኪናህን	-6547
▁ማዘጋጀት	-6548
▁በመስራት	-6549
▁በእነዚያ	-6550
▁በዝርዝር	-6551
▁ተነስቷል	-6552
▁አብራችሁ	-6553
▁አትናገር	-6554
▁አገኘኋት	-6555
▁እቃዎችን	-6556
▁እነሳለሁ	-6557
▁እየቀነሰ	-6558
▁እጠጣለሁ	-6559
▁ከመሄድዎ	-6560
▁ይንገሩን	-6561
▁ይካሄዳል	-6562
▁ይጠቀማል	-6563
▁ተጨናንቋል	-6564
▁አልገባህም	-6565
▁አልጠበኩም	-6566
▁አይመስሉም	-6567
▁አድርጎኛል	-6568
▁እንበላለን	-6569
▁እወዳታለሁ	-6570
▁እጠላዋለሁ	-6571
▁የማውቀውን	-6572
▁የተወሳሰበ	-6573
▁አልነገረኝም	-6574
▁አስቀምጫለሁ	-6575
▁እንዳትናገር	-6576
▁እግዚአብሄር	-6577
▁እጠባበቃለሁ	-6578
▁የመጨረሻውን	-6579
▁የእንግሊዘኛ	-6580
▁የእንግሊዝኛ	-6581
▁አልነበረበትም	-6582
▁አይመስላችሁም	-6583
ለጋ	-6584
ማቴ	-6585
ሜላ	-6586
ሯዊ	-6587
ሰት	-6588
ሰና	-6589
ቅን	-6590
ቸኝ	-6591
ችት	-6592
ኖቹ	-6593
ካቤ	-6594
ደቅ	-6595
ዶሻ	-6596
ጀት	-6597
ጋጥ	-6598
ጨር	-6599
ጭት	-6600
ፃፀ	-6601
ፉጂ	-6602
ፋን	-6603
ፕሬ	-6604
ለውጥ	-6605
ላለህ	-6606
ላትን	-6607
መሰል	-6608
መጣህ	-6609
ስኩት	-6610
ቃጠለ	-6611
ቃጨቅ	-6612
ቅያኖ	-6613
ቆምም	-6614
በፊቱ	-6615
ወርድ	-6616
ዳቸው	-6617
ገባህ	-6618
ጎዳም	-6619
ፍርም	-6620
▁ለግ	-6621
▁መሬ	-6622
▁ማጠ	-6623
▁ሞላ	-6624
▁ሱሰ	-6625
▁ሳለ	-6626
▁ሳር	-6627
▁ቀጣ	-6628
▁በኢ	-6629
▁በፊ	-6630
▁ተጭ	-6631
▁ትቆ	-6632
▁ኖረ	-6633
▁አሊ	-6634
▁አጎ	-6635
▁ዘር	-6636
▁የፒ	-6637
▁ያጣ	-6638
▁ይላ	-6639
▁ይሮ	-6640
▁ገረ	-6641
▁ፈሰ	-6642
ሌቭዥን	-6643
ስተኛው	-6644
ቀበልም	-6645
ቤያለሁ	-6646
ቻችሁን	-6647
ናፍስት	-6648
ወስደው	-6649
ወትሮው	-6650
ገንባት	-6651
▁ለእሷ	-6652
▁ለዛሬ	-6653
▁መሀል	-6654
▁መግባ	-6655
▁ሰራዊ	-6656
▁ሰኣቱ	-6657
▁ሰጣት	-6658
▁ሲሄድ	-6659
▁ሶስቱ	-6660
▁በቢላ	-6661
▁በቢሮ	-6662
▁በትን	-6663
▁ትንሹ	-6664
▁አመስ	-6665
▁አቀፍ	-6666
▁አንገ	-6667
▁አየን	-6668
▁እለት	-6669
▁እግሩ	-6670
▁ከሞላ	-6671
▁ወርቅ	-6672
▁የሰር	-6673
▁የተኛ	-6674
▁ያቁሙ	-6675
▁ያግኙ	-6676
▁ይሙሉ	-6677
▁ይናፍ	-6678
▁ይዟል	-6679
▁ደረቅ	-6680
▁ጎደል	-6681
▁ፃፍኩ	-6682
ገናኛለን	-6683
ጠቀምበት	-6684
▁ሀሳቡን	-6685
▁ሀሳቦች	-6686
▁ለቁርስ	-6687
▁መልሰው	-6688
▁መደምደ	-6689
▁መጠገን	-6690
▁ማስያዝ	-6691
▁ስብስብ	-6692
▁ስደርስ	-6693
▁ቀድመህ	-6694
▁በሂሳብ	-6695
▁በበለጠ	-6696
▁በድጋሚ	-6697
▁ባለፉት	-6698
▁ተመልሼ	-6699
▁ተከሰተ	-6700
▁ተይዟል	-6701
▁ንብረት	-6702
▁አባቱን	-6703
▁አንፃር	-6704
▁አገኙት	-6705
▁እንጨት	-6706
▁እየጠጣ	-6707
▁እድሉን	-6708
▁ወሰደኝ	-6709
▁ወንድሙ	-6710
▁ወጥመድ	-6711
▁ውቅያኖ	-6712
▁የስልክ	-6713
▁የጥበብ	-6714
▁ያለኝን	-6715
▁ይመጣሉ	-6716
▁ይክፈቱ	-6717
▁ይገኛሉ	-6718
▁ገንዳው	-6719
▁ጊዜያት	-6720
▁ጠፍጣፋ	-6721
▁ጣሪያው	-6722
▁ጫማዬን	-6723
▁ፍርሃት	-6724
▁ለእረፍት	-6725
▁መብራቶች	-6726
▁መንገዶች	-6727
▁ቋንቋዎች	-6728
▁በአሜሪካ	-6729
▁ታሪኮችን	-6730
▁ትመጣለች	-6731
▁ትፈራለህ	-6732
▁አቅርቦት	-6733
▁እናትህን	-6734
▁እንደማታ	-6735
▁እያደረጉ	-6736
▁ከእንጨት	-6737
▁ከወትሮው	-6738
▁ወስደዋል	-6739
▁የሚዘንብ	-6740
▁የተሰበረ	-6741
▁ያውቁታል	-6742
▁ይሀውልህ	-6743
▁ይናገራሉ	-6744
▁ጓደኞቼን	-6745
▁ለማስታወስ	-6746
▁በአካባቢው	-6747
▁አልሄድኩም	-6748
▁አይስክሬም	-6749
▁አይፈልጉም	-6750
▁አገልግሎት	-6751
▁እንደበፊቱ	-6752
▁እንዲኖረኝ	-6753
▁የሚቀጥለው	-6754
▁የሚወዱትን	-6755
▁የምትፈልግ	-6756
▁ጀምሬያለሁ	-6757
▁ስለተፈጠረው	-6758
▁በመካከላችን	-6759
▁በእያንዳንዱ	-6760
▁እንደምትመጣ	-6761
▁የምንችለውን	-6762
▁እንደማላደርግ	-6763
ለያ	-6764
መሩ	-6765
መክ	-6766
ረር	-6767
ረገ	-6768
ሮሮ	-6769
ነካ	-6770
ኑኝ	-6771
ኣዛ	-6772
ድያ	-6773
ጊያ	-6774
ጥፋ	-6775
ጦት	-6776
▁7	-6777
▁ቺ	-6778
ለቱም	-6779
ለዳው	-6780
ሉትን	-6781
ልጋው	-6782
ምሽቱ	-6783
ሞክሩ	-6784
ሮቹን	-6785
ቂያው	-6786
በራዊ	-6787
ባለች	-6788
ባረር	-6789
ብራራ	-6790
ነውም	-6791
አምር	-6792
ከራው	-6793
ወረው	-6794
ወሰኑ	-6795
ዝርዝ	-6796
የውን	-6797
ደኞች	-6798
ደውን	-6799
ገልፅ	-6800
ገረም	-6801
ገርም	-6802
ጎዳህ	-6803
ፀፀት	-6804
▁ማሞ	-6805
▁ስማ	-6806
▁ቲሸ	-6807
▁ትራ	-6808
▁ኖት	-6809
▁ከኣ	-6810
▁ወጡ	-6811
▁የቢ	-6812
▁የጫ	-6813
▁ጥቃ	-6814
▁ጨፍ	-6815
▁ፎጣ	-6816
ህንፃው	-6817
ለማመድ	-6818
ማሪዎች	-6819
ንግስት	-6820
ጠብቀኝ	-6821
▁ለጤና	-6822
▁ሊፍት	-6823
▁ላንቺ	-6824
▁ሌባው	-6825
▁ልታስ	-6826
▁መልክ	-6827
▁መንታ	-6828
▁መኣዛ	-6829
▁መዝሙ	-6830
▁መጣሁ	-6831
▁ረሳው	-6832
▁በማጥ	-6833
▁በዝግ	-6834
▁ተወስ	-6835
▁ትረዳ	-6836
▁ትሰጠ	-6837
▁አልበ	-6838
▁አትስ	-6839
▁እየባ	-6840
▁ከምን	-6841
▁ከቅር	-6842
▁ከበላ	-6843
▁ከውጭ	-6844
▁ካገኘ	-6845
▁የሆን	-6846
▁የተረ	-6847
▁የፃፍ	-6848
▁ያገለ	-6849
▁ይቀን	-6850
▁ይታወ	-6851
▁ይደግ	-6852
▁ገጣሚ	-6853
▁ግድያ	-6854
▁ግፊት	-6855
▁ጥቅል	-6856
▁ፅንሰ	-6857
▁ፕሬዝ	-6858
ቀርባለሁ	-6859
▁ለጥያቄ	-6860
▁ሊፈጠር	-6861
▁ልጆቼን	-6862
▁መግለፅ	-6863
▁መጥተህ	-6864
▁መፅሀፎ	-6865
▁ሚስቱን	-6866
▁ሰአታት	-6867
▁ሳይንስ	-6868
▁ቀርቷል	-6869
▁በአስቸ	-6870
▁በውጤቱ	-6871
▁ብርሃኑ	-6872
▁ቦርሳዬ	-6873
▁ተቸግሬ	-6874
▁ተናግሬ	-6875
▁ተወያይ	-6876
▁ተደረገ	-6877
▁ታደርግ	-6878
▁ትውስታ	-6879
▁ነበሩት	-6880
▁አልመጣ	-6881
▁አመጣህ	-6882
▁አነጋግ	-6883
▁አንቺን	-6884
▁እሳቱን	-6885
▁እንሞክ	-6886
▁እጫወት	-6887
▁ከሌሎች	-6888
▁ከረሜላ	-6889
▁ከክፍሉ	-6890
▁ከጠበቅ	-6891
▁ኩኪዎች	-6892
▁ክፍሌን	-6893
▁የሀገር	-6894
▁የተወለ	-6895
▁ይርቃል	-6896
▁ይተኛል	-6897
▁ይጠይቁ	-6898
▁ደስታን	-6899
▁ድመቷን	-6900
▁ጥንታዊ	-6901
▁ጨምሯል	-6902
ደርደሪያው	-6903
▁ለመግባት	-6904
▁ለመጠቀም	-6905
▁መስማማት	-6906
▁መቀላቀል	-6907
▁መተርጎም	-6908
▁መወያየት	-6909
▁ምስጢሩን	-6910
▁ሰራተኞቹ	-6911
▁ስጦታዎች	-6912
▁ሻንጣዬን	-6913
▁በየምሽቱ	-6914
▁በየቦታው	-6915
▁ቤተሰቡን	-6916
▁ቦርሳውን	-6917
▁ታገኛለህ	-6918
▁ትሰራለህ	-6919
▁ትበላለህ	-6920
▁ነበራችሁ	-6921
▁ነበርኩኝ	-6922
▁አላየውም	-6923
▁አላገኘም	-6924
▁አልወሰን	-6925
▁አማራጮች	-6926
▁አይሰጥም	-6927
▁እያደረክ	-6928
▁እገዛለሁ	-6929
▁ውድድሩን	-6930
▁የሚያስቅ	-6931
▁የተሻለው	-6932
▁ደህንነቱ	-6933
▁ሰልችቶኛል	-6934
▁በሆስፒታል	-6935
▁በመጨረሻው	-6936
▁ተናድጃለሁ	-6937
▁አልራበኝም	-6938
▁አልጨነቅም	-6939
▁አስቀድመን	-6940
▁አደረግኩት	-6941
▁አድርጎታል	-6942
▁እንክብካቤ	-6943
▁እየሞከርክ	-6944
▁እየተፈጠረ	-6945
▁በማቀዝቀዣው	-6946
▁በእንግሊዘኛ	-6947
▁እንደሚያስቡ	-6948
▁እንድናደርግ	-6949
▁ከአገልግሎት	-6950
▁የተወለድኩት	-6951
ማሲ	-6952
ሞቱ	-6953
ቀዱ	-6954
በዙ	-6955
በድ	-6956
ቡም	-6957
ቴሉ	-6958
ነህ	-6959
ከስ	-6960
ከበ	-6961
ኮት	-6962
ወቁ	-6963
ዛል	-6964
ዝገ	-6965
ደለ	-6966
ዳህ	-6967
ድኑ	-6968
ገመ	-6969
ጋኝ	-6970
ጋፍ	-6971
▁ጢ	-6972
230	-6973
ሀውን	-6974
መለሱ	-6975
ማሪያ	-6976
ምንህ	-6977
ረብሽ	-6978
ረዳዎ	-6979
ቦርሳ	-6980
ናቸው	-6981
ንበት	-6982
ንገት	-6983
ክልኝ	-6984
ክተር	-6985
ወለድ	-6986
ዋታው	-6987
ውንድ	-6988
ገለፅ	-6989
ጫወቻ	-6990
ፈረም	-6991
ፈፀም	-6992
▁መሄ	-6993
▁ረዳ	-6994
▁ቢኖ	-6995
▁ቴክ	-6996
▁እማ	-6997
▁ከፋ	-6998
▁ኮር	-6999
▁ዘገ	-7000
▁ዜማ	-7001
▁ፈት	-7002
መለስም	-7003
ሜያለሁ	-7004
ሪስቶች	-7005
ሪያውን	-7006
ራቸውን	-7007
በዛብህ	-7008
ከሰትም	-7009
ገድለኝ	-7010
ጠበኩት	-7011
ጠብቅህ	-7012
ጫወትም	-7013
▁ሆቴሉ	-7014
▁ለጋስ	-7015
▁ሊመጣ	-7016
▁ሌላው	-7017
▁ልሆን	-7018
▁ልጇን	-7019
▁መታው	-7020
▁በእጄ	-7021
▁በየማ	-7022
▁በድር	-7023
▁ቡናማ	-7024
▁ብልጭ	-7025
▁ነቃሁ	-7026
▁ነግረ	-7027
▁አምጣ	-7028
▁አባቷ	-7029
▁ኢንዱ	-7030
▁ኣሶች	-7031
▁እሄድ	-7032
▁እናም	-7033
▁ከመን	-7034
▁ከብዶ	-7035
▁ካምፕ	-7036
▁ወሬው	-7037
▁ወዲያ	-7038
▁ውጤቱ	-7039
▁የሚሰ	-7040
▁ያናድ	-7041
▁ይሰጠ	-7042
▁ይዘው	-7043
▁ደረሱ	-7044
▁ጃኬት	-7045
▁ገመድ	-7046
▁ግላዊ	-7047
▁ጠበኛ	-7048
▁ጥበቃ	-7049
▁ጭማሪ	-7050
▁ፈልገ	-7051
መለከትም	-7052
ምፒዩተር	-7053
▁ሊኖረኝ	-7054
▁ልብሶች	-7055
▁ልወስድ	-7056
▁መሰረዝ	-7057
▁መቸኮል	-7058
▁መንፈስ	-7059
▁ሰኣቴን	-7060
▁ተንከባ	-7061
▁ታያለህ	-7062
▁ትራፊክ	-7063
▁አስፈራ	-7064
▁አትሁኑ	-7065
▁እራሴን	-7066
▁እስከሚ	-7067
▁እየሰማ	-7068
▁ከመኪና	-7069
▁ከአባቴ	-7070
▁ካደረግ	-7071
▁ክፍልህ	-7072
▁ዋስትና	-7073
▁የቪዲዮ	-7074
▁የክፍል	-7075
▁የወርቅ	-7076
▁ያደርጉ	-7077
▁ያጠናል	-7078
▁ይሰጣል	-7079
▁ይፅፋል	-7080
▁ደንቦች	-7081
▁ድልድዩ	-7082
▁ጎረቤት	-7083
▁ጠመንጃ	-7084
▁ጠየኩት	-7085
▁ጭንቀት	-7086
▁ፈጅቷል	-7087
▁ፍራፍሬ	-7088
▁ለማጥናት	-7089
▁ላለመሄድ	-7090
▁መመርመር	-7091
▁መግባባት	-7092
▁ሞክረዋል	-7093
▁ቆይቻለሁ	-7094
▁በመስማቴ	-7095
▁በአደጋው	-7096
▁በገንዘብ	-7097
▁ብቻችንን	-7098
▁ተግባራዊ	-7099
▁ተጠናቀቀ	-7100
▁ተፈጥሯዊ	-7101
▁አሜሪካዊ	-7102
▁አስተናጋ	-7103
▁አቀላጥፎ	-7104
▁አየዋለሁ	-7105
▁አይቆይም	-7106
▁አይበላም	-7107
▁አደረገው	-7108
▁እንደማን	-7109
▁እየፈለጉ	-7110
▁ኩኪዎችን	-7111
▁ኮንሰርት	-7112
▁የተጨነቀ	-7113
▁የተፃፈው	-7114
▁የወደፊት	-7115
▁ያደግኩት	-7116
▁ተሳስተሃል	-7117
▁ተሳፋሪዎች	-7118
▁አላደረኩም	-7119
▁አልተናገር	-7120
▁አልተገኘም	-7121
▁አስቀምጠው	-7122
▁አቀርባለሁ	-7123
▁አይከሰትም	-7124
▁እውነታውን	-7125
▁ከመጀመሪያ	-7126
▁የማይመስል	-7127
▁የምትችለው	-7128
▁ይደውሉልኝ	-7129
▁እንደማደርግ	-7130
▁እንገናኛለን	-7131
▁እያንዳንዱን	-7132
▁የሚወስደውን	-7133
▁የማደርገውን	-7134
ልስ	-7135
ማቲ	-7136
ምታ	-7137
ሳቅ	-7138
ሸሸ	-7139
ሾች	-7140
ቀፍ	-7141
ቆለ	-7142
በዘ	-7143
ባር	-7144
ቦን	-7145
ተቱ	-7146
ነች	-7147
ካሪ	-7148
ክቱ	-7149
ወለ	-7150
ዋኛ	-7151
ደነ	-7152
ጋዊ	-7153
ጫል	-7154
ፈረ	-7155
▁9	-7156
ለኝን	-7157
ላንት	-7158
መናል	-7159
ሙላት	-7160
ረሳው	-7161
ራመዱ	-7162
ሸነፈ	-7163
ባትህ	-7164
ነቴን	-7165
ነፍስ	-7166
ይንኛ	-7167
ደነቅ	-7168
ዳለን	-7169
ዳንት	-7170
ገርሞ	-7171
ገባሁ	-7172
ጠናቀ	-7173
ጣለን	-7174
▁ሊቅ	-7175
▁ሊተ	-7176
▁ማይ	-7177
▁ምና	-7178
▁ራሱ	-7179
▁ሰሞ	-7180
▁በገ	-7181
▁በፋ	-7182
▁ተፈ	-7183
▁ታን	-7184
▁ታይ	-7185
▁ትቀ	-7186
▁ንክ	-7187
▁ንድ	-7188
▁አህ	-7189
▁የሽ	-7190
▁የብ	-7191
▁ይሉ	-7192
▁ይማ	-7193
▁ይጋ	-7194
▁ይግ	-7195
▁ድሆ	-7196
▁ጃኬ	-7197
▁ግዛ	-7198
▁ጥሎ	-7199
▁ጥቂ	-7200
ለሽነት	-7201
ርፖርት	-7202
ሰበረው	-7203
ቄሃለሁ	-7204
ተኝነት	-7205
ቻላችሁ	-7206
ነትህን	-7207
ከላከል	-7208
ጠረጴዛ	-7209
▁ለመም	-7210
▁ለሴት	-7211
▁ለብሳ	-7212
▁ልስጥ	-7213
▁ልንገ	-7214
▁ልገዛ	-7215
▁መሳም	-7216
▁መቻል	-7217
▁መናፈ	-7218
▁ምርጡ	-7219
▁ምድጃ	-7220
▁ሞተች	-7221
▁ስሰማ	-7222
▁ቀረበ	-7223
▁ቁሳቁ	-7224
▁በሮች	-7225
▁በቀኝ	-7226
▁በእጁ	-7227
▁ባንድ	-7228
▁ቤቴን	-7229
▁ተከራ	-7230
▁ትዝታ	-7231
▁ትጠላ	-7232
▁ነርስ	-7233
▁አቁማ	-7234
▁አወቀ	-7235
▁እናው	-7236
▁ከልጅ	-7237
▁ከሰማ	-7238
▁ከፍታ	-7239
▁ኮረብ	-7240
▁የሚተ	-7241
▁የነገ	-7242
▁የአባ	-7243
▁የእሷ	-7244
▁ያመለ	-7245
▁ያሳው	-7246
▁ይቀር	-7247
▁ይኑር	-7248
▁ይጓዛ	-7249
▁ይጨም	-7250
▁ደንብ	-7251
▁ድንኳ	-7252
▁ገደብ	-7253
▁ግድየ	-7254
▁ጥይት	-7255
▁ጥፋቱ	-7256
ምፒውተር	-7257
ወያይበት	-7258
ደርጉትን	-7259
ፈልገውም	-7260
▁ለማዳን	-7261
▁ለወንድ	-7262
▁ሊረዳኝ	-7263
▁ልብሴን	-7264
▁መሆኗን	-7265
▁መልሶች	-7266
▁መርከቧ	-7267
▁መታየት	-7268
▁መዋሸት	-7269
▁መጥራት	-7270
▁ማሳመን	-7271
▁ምስሎች	-7272
▁ሰምቼው	-7273
▁ሰኣቱን	-7274
▁ስሜቱን	-7275
▁ስራዎች	-7276
▁ስራዎን	-7277
▁ቀልዶች	-7278
▁ቅጠሎች	-7279
▁በረሃብ	-7280
▁በባንክ	-7281
▁በአልጋ	-7282
▁በፀሀይ	-7283
▁ብንሆን	-7284
▁ተገደለ	-7285
▁ትኬቶች	-7286
▁አልበዛ	-7287
▁አስከፍ	-7288
▁አትበል	-7289
▁እላለሁ	-7290
▁እራስዎ	-7291
▁እግሮች	-7292
▁ከሁለቱ	-7293
▁ከልጆች	-7294
▁ከመካከ	-7295
▁ከቁርስ	-7296
▁ከእነሱ	-7297
▁ከዚያን	-7298
▁ዝንጀሮ	-7299
▁የሚመስ	-7300
▁የሚበል	-7301
▁የሚባል	-7302
▁የተሳካ	-7303
▁የተገነ	-7304
▁የቻይና	-7305
▁የጭነት	-7306
▁ያደርግ	-7307
▁ይሰጣሉ	-7308
▁ጀምሯል	-7309
▁ጉልበት	-7310
▁ጊዜውን	-7311
▁ፓስፖር	-7312
ፈልግዎትም	-7313
▁መስኮቶች	-7314
▁መንቀጥቀ	-7315
▁ማመስገን	-7316
▁ማስረዳት	-7317
▁በመጫወት	-7318
▁በማድረጌ	-7319
▁በፍርሃት	-7320
▁ባለቤቴን	-7321
▁አልተሰማ	-7322
▁አልቻሉም	-7323
▁አመስጋኝ	-7324
▁አይለኝም	-7325
▁ከቁጥጥር	-7326
▁ካየኋቸው	-7327
▁የማይቀር	-7328
▁የቅርጫት	-7329
▁የተጠበቀ	-7330
▁የአንተን	-7331
▁ይመለሳል	-7332
▁ይታወቃል	-7333
▁ጠየቅሁት	-7334
▁በየማለዳው	-7335
▁ተመለከተች	-7336
▁ትጫወታለህ	-7337
▁አሳይሃለሁ	-7338
▁አስፈላጊው	-7339
▁አንዳንዶቹ	-7340
▁እረዳሃለሁ	-7341
▁እንቁላሎች	-7342
▁እንደነበሩ	-7343
▁እንዳደረገ	-7344
▁እንድታገኝ	-7345
▁እንድትሆን	-7346
▁ከፈለጋችሁ	-7347
▁ካልፈለግክ	-7348
▁የሚሆነውን	-7349
▁የምናገረው	-7350
▁የተከለከለ	-7351
▁ፕሬዚዳንቱ	-7352
▁ለማስተካከል	-7353
▁አስተማሪዎች	-7354
▁እንሞክራለን	-7355
▁ከአውስትራሊያ	-7356
▁አያስፈልግዎትም	-7357
ልፉ	-7358
ራሁ	-7359
ሯት	-7360
ሰን	-7361
ስቼ	-7362
ሸዋ	-7363
ተኝ	-7364
ታች	-7365
ዋጋ	-7366
ዜጣ	-7367
የረ	-7368
ዲራ	-7369
ጠቁ	-7370
ፈቻ	-7371
ፕሎ	-7372
▁ዚ	-7373
ሀኛል	-7374
ለሃል	-7375
ለችው	-7376
ለወጠ	-7377
ልጣን	-7378
ሚያው	-7379
ራቱን	-7380
በረታ	-7381
ብኝም	-7382
ተወኝ	-7383
ችሁት	-7384
ነቀኝ	-7385
ኒስት	-7386
ከፈት	-7387
ገኛት	-7388
ጓዝን	-7389
ጠራው	-7390
ጠፋው	-7391
ጣጠረ	-7392
ፈሃል	-7393
▁ለኮ	-7394
▁ስቶ	-7395
▁በዜ	-7396
▁ብም	-7397
▁ታላ	-7398
▁ነካ	-7399
▁ነጋ	-7400
▁አራ	-7401
▁ከሆ	-7402
▁ከሶ	-7403
▁ከቆ	-7404
▁ካፒ	-7405
▁ክስ	-7406
▁ዘይ	-7407
▁የኦ	-7408
▁የፋ	-7409
▁ያበ	-7410
▁ይዛ	-7411
▁ግል	-7412
▁ጥሬ	-7413
መልከቻ	-7414
ስቸገር	-7415
ሻለናል	-7416
ቀዘቅዝ	-7417
ባቸውን	-7418
ናገሩት	-7419
ንቀሳቀ	-7420
ወደውን	-7421
ጓዛለሁ	-7422
ጦርነት	-7423
ጨናነቀ	-7424
▁ህልሜ	-7425
▁ለበጎ	-7426
▁ልሂድ	-7427
▁ልጠጣ	-7428
▁መለያ	-7429
▁መዶሻ	-7430
▁መጫን	-7431
▁ምስክ	-7432
▁ምቾት	-7433
▁ሞትን	-7434
▁ሞክር	-7435
▁ሰጠው	-7436
▁ስለታ	-7437
▁ስራህ	-7438
▁ሽንት	-7439
▁ሽንኩ	-7440
▁ቅርፅ	-7441
▁በምር	-7442
▁በባዶ	-7443
▁ቡችላ	-7444
▁ባህል	-7445
▁ተሰም	-7446
▁ታዳሚ	-7447
▁ትለብ	-7448
▁ቻልኩ	-7449
▁አሁኑ	-7450
▁አባዬ	-7451
▁አውጣ	-7452
▁አይው	-7453
▁አጥር	-7454
▁እተወ	-7455
▁እየገ	-7456
▁ከልክ	-7457
▁ከሴት	-7458
▁ከውሃ	-7459
▁ወጣን	-7460
▁የበሬ	-7461
▁የተሸ	-7462
▁የዱር	-7463
▁ያብሩ	-7464
▁ይከፈ	-7465
▁ደውል	-7466
▁ዳንስ	-7467
▁ድንች	-7468
▁ገዳይ	-7469
▁ጋብቻ	-7470
▁ጥዋት	-7471
▁ፈሰሰ	-7472
▁ፋሽን	-7473
ስተምረኝ	-7474
ሽከርከር	-7475
▁ለአስር	-7476
▁ሊኖረን	-7477
▁ላስተዋ	-7478
▁ልምምድ	-7479
▁ሚስትህ	-7480
▁ምርጡን	-7481
▁ምክሬን	-7482
▁ሲደወል	-7483
▁በስንት	-7484
▁በትርፍ	-7485
▁በትንሹ	-7486
▁በችኮላ	-7487
▁በኣመት	-7488
▁በከባድ	-7489
▁በጀልባ	-7490
▁ባንዲራ	-7491
▁ተዝናና	-7492
▁ተገናኘ	-7493
▁ተጠቀም	-7494
▁አመጣሁ	-7495
▁አርፍጄ	-7496
▁አስወግ	-7497
▁አቁማዳ	-7498
▁አብራው	-7499
▁አዳራሽ	-7500
▁እቅድህ	-7501
▁እጅህን	-7502
▁ከተሞች	-7503
▁ካልሆነ	-7504
▁ክስተት	-7505
▁የሙዚቃ	-7506
▁የሚኖሩ	-7507
▁የራሴን	-7508
▁የተማር	-7509
▁የተገረ	-7510
▁የታወቀ	-7511
▁የጠየቀ	-7512
▁ይመስል	-7513
▁ይሸጣሉ	-7514
▁ይነሳል	-7515
▁ይናገሩ	-7516
▁ጀመረች	-7517
▁ግማሹን	-7518
▁ግብይት	-7519
▁ግጥሚያ	-7520
▁ጥልቀት	-7521
▁ፀጉሯን	-7522
▁ፓውንድ	-7523
▁ለመቆጠብ	-7524
▁ለመጠገን	-7525
▁ረክቻለሁ	-7526
▁ሰርተናል	-7527
▁በመስኮት	-7528
▁በማንበብ	-7529
▁በማግኘቴ	-7530
▁በበረዶው	-7531
▁ትሆናለች	-7532
▁አሻንጉሊ	-7533
▁አበቦችን	-7534
▁አውቶብስ	-7535
▁አዛውንቱ	-7536
▁አይኖርም	-7537
▁አደጋዎች	-7538
▁አገኘችው	-7539
▁እያነበበ	-7540
▁እገኛለሁ	-7541
▁እጓዛለሁ	-7542
▁ከአደጋው	-7543
▁ከወላጆቼ	-7544
▁የሚሄደው	-7545
▁የቀረውን	-7546
▁የተወለደ	-7547
▁ይሻለናል	-7548
▁ደንበኞች	-7549
▁ምክንያቱን	-7550
▁ምክንያቶች	-7551
▁በዝቶብሃል	-7552
▁በዩናይትድ	-7553
▁ተናግራለች	-7554
▁ተደስቻለሁ	-7555
▁አልጠብቅም	-7556
▁አትመስልም	-7557
▁አውቶቡሱን	-7558
▁ኤሌክትሪክ	-7559
▁እተወዋለሁ	-7560
▁እንስሳትን	-7561
▁እንዲያቆም	-7562
▁እንዲደረግ	-7563
▁እየሞከርን	-7564
▁የደህንነት	-7565
▁ፈጅቶብኛል	-7566
▁ለእያንዳንዱ	-7567
▁አልወሰንኩም	-7568
▁እየተመለከት	-7569
▁ከመጀመሪያው	-7570
10	-7571
18	-7572
ሁፍ	-7573
ልቆ	-7574
ማው	-7575
ምፓ	-7576
ሻሽ	-7577
ቀለ	-7578
ቀች	-7579
ቃቃ	-7580
ቡላ	-7581
ቡሩ	-7582
ታሪ	-7583
ቻሌ	-7584
ኙን	-7585
ኩር	-7586
ዊን	-7587
ዘዙ	-7588
ዣው	-7589
ግም	-7590
ጓሚ	-7591
ጠፍ	-7592
ጡም	-7593
ፅሃ	-7594
ፕል	-7595
ሄድኩ	-7596
ለልኩ	-7597
ለማመ	-7598
ሉትም	-7599
ሚቴው	-7600
ምበር	-7601
ራደር	-7602
ሬዲዮ	-7603
ርሽር	-7604
ሰችው	-7605
ስጥር	-7606
በሃል	-7607
በርክ	-7608
ታታይ	-7609
ቸኝም	-7610
ቻለው	-7611
ችግሩ	-7612
ከመህ	-7613
ካቸው	-7614
ክብት	-7615
ወራም	-7616
ወሰዱ	-7617
ዞችን	-7618
ግብር	-7619
ጠርኩ	-7620
ጠጣው	-7621
ፅህና	-7622
ፋለህ	-7623
▁ለሙ	-7624
▁ላብ	-7625
▁መረ	-7626
▁ረስ	-7627
▁ሹካ	-7628
▁በኔ	-7629
▁ባሉ	-7630
▁ባታ	-7631
▁ተዛ	-7632
▁እጨ	-7633
▁ከጉ	-7634
▁ከጨ	-7635
▁ኮን	-7636
▁ዋሸ	-7637
▁የኑ	-7638
▁የጨ	-7639
▁ይዘ	-7640
▁ጅም	-7641
▁ገፋ	-7642
▁ጎህ	-7643
▁ጠጅ	-7644
▁ጥራ	-7645
መጋገብ	-7646
ምፒተር	-7647
ረውታል	-7648
ረጋግጥ	-7649
ሳካለት	-7650
ሳይንስ	-7651
ቡላንስ	-7652
ባቸዋል	-7653
ተውታል	-7654
ነጋግር	-7655
ንዳንድ	-7656
ዝናናት	-7657
ፍትሃዊ	-7658
▁ህጋዊ	-7659
▁ሆነች	-7660
▁ለመገ	-7661
▁መሆኑ	-7662
▁መራራ	-7663
▁መርሃ	-7664
▁መሰረ	-7665
▁መውጫ	-7666
▁ሪከር	-7667
▁ሰጥቻ	-7668
▁ሲሆን	-7669
▁ስለራ	-7670
▁ስለኔ	-7671
▁ስሟን	-7672
▁ሸረሪ	-7673
▁ቀዳዳ	-7674
▁በመጠ	-7675
▁በጋራ	-7676
▁በፈቃ	-7677
▁ቡድኑ	-7678
▁ተለያ	-7679
▁ተልእ	-7680
▁ተመት	-7681
▁ተገኘ	-7682
▁ነጋዴ	-7683
▁ንጉሱ	-7684
▁አመል	-7685
▁አዎን	-7686
▁አፀዳ	-7687
▁እርሻ	-7688
▁እንጨ	-7689
▁ከታች	-7690
▁ከነሱ	-7691
▁ወለል	-7692
▁ወዲህ	-7693
▁ዘረጋ	-7694
▁ዜጎች	-7695
▁የመግ	-7696
▁የሚበ	-7697
▁የስነ	-7698
▁የዋጋ	-7699
▁የድን	-7700
▁የጊዜ	-7701
▁የፖም	-7702
▁ይቆጥ	-7703
▁ይዘን	-7704
▁ድጋፍ	-7705
▁ገበሬ	-7706
▁ገዛች	-7707
▁ገጥሞ	-7708
▁ጉዞው	-7709
▁ጊዜዬ	-7710
▁ጠንቅ	-7711
▁ፀጥታ	-7712
ራችኋለሁ	-7713
ገርሞኛል	-7714
ጭበርበር	-7715
▁ሁላችን	-7716
▁ሃይማኖ	-7717
▁ሆነዋል	-7718
▁ሙዚቀኛ	-7719
▁ሙዚየሙ	-7720
▁ሲደርስ	-7721
▁በሚገኝ	-7722
▁በምግብ	-7723
▁በሰባት	-7724
▁በስራው	-7725
▁በቤተመ	-7726
▁በደህና	-7727
▁በፈተና	-7728
▁ተቃዋሚ	-7729
▁ተከራይ	-7730
▁ተክሎች	-7731
▁ትርኢት	-7732
▁ነገሩን	-7733
▁አሁኑኑ	-7734
▁አልተሳ	-7735
▁አልኮል	-7736
▁አስበህ	-7737
▁አስኪያ	-7738
▁አብሬህ	-7739
▁አብዷል	-7740
▁አትነግ	-7741
▁አነበበ	-7742
▁አጥንት	-7743
▁እርግጥ	-7744
▁እስካል	-7745
▁እናቷን	-7746
▁እንበል	-7747
▁እውቀት	-7748
▁እየጮሀ	-7749
▁ከሆንክ	-7750
▁ከመሆኑ	-7751
▁ከመድረ	-7752
▁ከሚያስ	-7753
▁ከሰላሳ	-7754
▁ከክፍል	-7755
▁ከውስጥ	-7756
▁ከጃፓን	-7757
▁ውሃውን	-7758
▁ውጤቱን	-7759
▁የሉትም	-7760
▁የተሻሉ	-7761
▁የአለም	-7762
▁የአስራ	-7763
▁የእኛን	-7764
▁የኮሌጅ	-7765
▁የገናን	-7766
▁ያየሁት	-7767
▁ይመገባ	-7768
▁ይቀራል	-7769
▁ይናፍቀ	-7770
▁ዳርቻው	-7771
▁ድምፁን	-7772
▁ጃፓናዊ	-7773
▁ጊዜዎን	-7774
▁ግጥሙን	-7775
▁ለመሞከር	-7776
▁ለመራመድ	-7777
▁ለመወሰን	-7778
▁ለመደበቅ	-7779
▁ለማሸነፍ	-7780
▁ልጆቻችሁ	-7781
▁መልሱልኝ	-7782
▁መተንፈስ	-7783
▁መዝናናት	-7784
▁መጨቃጨቅ	-7785
▁ሰርተዋል	-7786
▁በሚስጥር	-7787
▁በማስታወ	-7788
▁በተጨማሪ	-7789
▁በክረምት	-7790
▁በየጊዜው	-7791
▁ተቃጥሏል	-7792
▁ተጠምዷል	-7793
▁ነገርግን	-7794
▁አለርጂክ	-7795
▁አስታውስ	-7796
▁አበቦቹን	-7797
▁አትሄድም	-7798
▁አትሞክር	-7799
▁አትቁረጥ	-7800
▁አትጨነቅ	-7801
▁አጥቻለሁ	-7802
▁እስረኞች	-7803
▁እንውሰድ	-7804
▁እንደምና	-7805
▁እንዲቆይ	-7806
▁እንዳደረ	-7807
▁እንድቆይ	-7808
▁እድለኞች	-7809
▁ከወንዶች	-7810
▁የሚመጣው	-7811
▁የሚሰማኝ	-7812
▁የሚስማማ	-7813
▁የማሸነፍ	-7814
▁የተሰራው	-7815
▁የተሳሳቱ	-7816
▁ያሳልፋሉ	-7817
▁ዶክተሮች	-7818
▁ገምቻለሁ	-7819
▁ገዝተሃል	-7820
▁ጎረቤቶች	-7821
▁ጠንክረው	-7822
▁ጨርሰዋል	-7823
▁ለመጎብኘት	-7824
▁ማስተላለፍ	-7825
▁በመስታወት	-7826
▁በአስራዎቹ	-7827
▁በእንደዚህ	-7828
▁በዝቶበታል	-7829
▁ተናግረሃል	-7830
▁አልተናደድ	-7831
▁እየተዝናና	-7832
▁እየጠበቅን	-7833
▁የመፃህፍት	-7834
▁የሚፈልገው	-7835
▁የምንበላው	-7836
▁የነገርኩህ	-7837
▁ያለእርስዎ	-7838
▁ያልተጠበቀ	-7839
▁ያስተምራል	-7840
▁ያደረጉትን	-7841
▁ያደርገኛል	-7842
▁ተሳስታችኋል	-7843
▁እንደማይሆን	-7844
▁እንደፈለግክ	-7845
▁እንዳለብዎት	-7846
▁እንዳደረግሁ	-7847
▁እየተመለከቱ	-7848
▁እጠብቅሃለሁ	-7849
▁የምፈልጋቸው	-7850
50	-7851
ህት	-7852
ሜት	-7853
ረሱ	-7854
ርቫ	-7855
ሮጌ	-7856
ሲያ	-7857
ባኤ	-7858
ተተ	-7859
ቲቱ	-7860
ንቁ	-7861
ኩን	-7862
ካፍ	-7863
ክሮ	-7864
ወዱ	-7865
ያማ	-7866
ጥል	-7867
ፔን	-7868
▁ጄ	-7869
መርጥ	-7870
ሮታል	-7871
ስማሙ	-7872
ቃጠል	-7873
በሳጭ	-7874
ባታል	-7875
ተውት	-7876
ችልኝ	-7877
ነትዎ	-7878
ናገጠ	-7879
ከሰቱ	-7880
ክሲኮ	-7881
ውልድ	-7882
ዘግየ	-7883
ዝናኑ	-7884
ጋለሁ	-7885
ጠራህ	-7886
ጠፋም	-7887
ፈራው	-7888
▁ሙቅ	-7889
▁ሰበ	-7890
▁ቃለ	-7891
▁ቅዱ	-7892
▁ተጉ	-7893
▁ተጓ	-7894
▁ተፋ	-7895
▁ክት	-7896
▁ውር	-7897
▁የቫ	-7898
▁ያወ	-7899
▁ያድ	-7900
▁ደጋ	-7901
▁ጎል	-7902
ሆንበት	-7903
ላችንም	-7904
ርቫርድ	-7905
ቋርጧል	-7906
በረሰብ	-7907
ንዳታው	-7908
ኖራለሁ	-7909
ከርከር	-7910
ከፍለው	-7911
ደጋጋሚ	-7912
ገኛለን	-7913
ጠበቀው	-7914
ጠይቁኝ	-7915
ጨረስኩ	-7916
ጫወትኩ	-7917
▁ለሊት	-7918
▁ለልጆ	-7919
▁ለመወ	-7920
▁ለመዝ	-7921
▁ለውዝ	-7922
▁ልደቴ	-7923
▁መሳል	-7924
▁ምንጣ	-7925
▁ምኞት	-7926
▁ረዳት	-7927
▁ቀለበ	-7928
▁በብር	-7929
▁ባንኩ	-7930
▁ተኩላ	-7931
▁ታጠፋ	-7932
▁ትችል	-7933
▁ትጠይ	-7934
▁አስመ	-7935
▁አናት	-7936
▁አዋቂ	-7937
▁አዘን	-7938
▁አያት	-7939
▁አጠቃ	-7940
▁አጣች	-7941
▁ኣይና	-7942
▁ካጋጠ	-7943
▁ወዳጃ	-7944
▁ወድቆ	-7945
▁ውበት	-7946
▁የመር	-7947
▁የጥፋ	-7948
▁ይስጡ	-7949
▁ይጨነ	-7950
▁ዮርክ	-7951
▁ደመወ	-7952
▁ደቡብ	-7953
▁ገምት	-7954
▁ጠብቄ	-7955
▁ጥገኛ	-7956
▁ፍለጋ	-7957
ላንትናው	-7958
መለከተው	-7959
ጠብቃለን	-7960
▁ሊረዳን	-7961
▁ሊረዳው	-7962
▁ልትሄድ	-7963
▁መሙላት	-7964
▁መቆጠብ	-7965
▁መንኮራ	-7966
▁መጥፎው	-7967
▁ማህተም	-7968
▁ሰሞኑን	-7969
▁ስለታም	-7970
▁ስትወጣ	-7971
▁ቀናተኛ	-7972
▁ቁልፌን	-7973
▁ቁጥሮች	-7974
▁ቋንቋን	-7975
▁በህዝቡ	-7976
▁በመላው	-7977
▁በምንም	-7978
▁በሰዎች	-7979
▁በበጋው	-7980
▁በተለየ	-7981
▁ባህሪው	-7982
▁ባርኔጣ	-7983
▁ቤተመን	-7984
▁ቤተሰቡ	-7985
▁ቤተሰቤ	-7986
▁ብምሉእ	-7987
▁ተልእኮ	-7988
▁ተረጋግ	-7989
▁ተሳክቶ	-7990
▁ተናገሩ	-7991
▁ተንሸራ	-7992
▁ቲሸርት	-7993
▁ትንበያ	-7994
▁አለቀሰ	-7995
▁አላውቃ	-7996
▁አልረፈ	-7997
▁አሳሳቢ	-7998
▁አብሬው	-7999
▁አብሳይ	-8000
▁አወቅክ	-8001
▁አይከፋ	-8002
▁አይገር	-8003
▁አዳመጥ	-8004
▁አገልግ	-8005
▁እስኪያ	-8006
▁እንዳየ	-8007
▁እንጠጣ	-8008
▁እየባሰ	-8009
▁እያየሁ	-8010
▁እያገኘ	-8011
▁እድሜዋ	-8012
▁እግሩን	-8013
▁ከቅርብ	-8014
▁ከብዶኝ	-8015
▁ከአስራ	-8016
▁ከዚያም	-8017
▁ከዝርዝ	-8018
▁ወላጆቹ	-8019
▁የመሄድ	-8020
▁የሚስብ	-8021
▁የሚሻል	-8022
▁የተጋባ	-8023
▁ይታያል	-8024
▁ይደሰቱ	-8025
▁ይጎዳል	-8026
▁ደንበኛ	-8027
▁ፀጉሩን	-8028
▁ፈለግሁ	-8029
▁ለመነሳት	-8030
▁ሊነግሩን	-8031
▁ሊነግሩኝ	-8032
▁መቆለፊያ	-8033
▁መንሸራተ	-8034
▁ማብራራት	-8035
▁በልጅነቱ	-8036
▁በመቶዎች	-8037
▁በመኪናዬ	-8038
▁በማብሰል	-8039
▁ቤተሰቤን	-8040
▁ተቀመጥኩ	-8041
▁ተቋርጧል	-8042
▁ተኝተዋል	-8043
▁ተጎድቷል	-8044
▁አልጠየቅ	-8045
▁አሳይቷል	-8046
▁አታስቀም	-8047
▁አያምንም	-8048
▁አደረገች	-8049
▁አጠራጣሪ	-8050
▁አጠቃላይ	-8051
▁ኤርፖርት	-8052
▁እስኪመጣ	-8053
▁እንደወደ	-8054
▁እንዳሰበ	-8055
▁እየተሰቃ	-8056
▁እያለቀሰ	-8057
▁እያዘጋጀ	-8058
▁ካሜራዬን	-8059
▁ወላጆቼን	-8060
▁ወንድሜን	-8061
▁የልጅነት	-8062
▁የተበላሸ	-8063
▁የተፈጥሮ	-8064
▁የኢኮኖሚ	-8065
▁ያለምንም	-8066
▁ያሰብኩት	-8067
▁ይለብሳል	-8068
▁ይኖረዋል	-8069
▁ይጠቀማሉ	-8070
▁ደርሰዋል	-8071
▁ገብተሃል	-8072
▁ገብተዋል	-8073
▁ሁላችንንም	-8074
▁ለመከላከል	-8075
▁ለመዝናናት	-8076
▁ለማረጋገጥ	-8077
▁ለማስወገድ	-8078
▁ማሽከርከር	-8079
▁በተደጋጋሚ	-8080
▁አላስተዋል	-8081
▁አልሰማሁም	-8082
▁አምቡላንስ	-8083
▁አርጅቻለሁ	-8084
▁አድራሻውን	-8085
▁ኢንሹራንስ	-8086
▁እንደሌለኝ	-8087
▁እንደሚኖር	-8088
▁እንድትሰራ	-8089
▁እየቀዘቀዘ	-8090
▁ኮምፒውተሬ	-8091
▁ዣንጥላዬን	-8092
▁የሚያደርግ	-8093
▁የቻልኩትን	-8094
▁የአክሲዮን	-8095
▁ያደረገውን	-8096
▁ገንዘብህን	-8097
▁ጠብቄአለሁ	-8098
▁እንደምትሆን	-8099
▁እንጠብቃለን	-8100
▁የኮምፒውተር	-8101
▁አልነበራቸውም	-8102
▁አያስፈልገንም	-8103
▁አያስፈልገውም	-8104
▁የሚያደርገውን	-8105
ምባ	-8106
ረቤ	-8107
ሰቀ	-8108
ስያ	-8109
ትሮ	-8110
ነዱ	-8111
ናኝ	-8112
ኖረ	-8113
ኣል	-8114
ኪን	-8115
ክቴ	-8116
ኮር	-8117
ዋእ	-8118
ዘፍ	-8119
ይድ	-8120
ደቱ	-8121
ድል	-8122
ጁን	-8123
ገዝ	-8124
ጋጭ	-8125
ግዚ	-8126
ጠለ	-8127
ጥራ	-8128
ጥታ	-8129
ጧት	-8130
ጭሩ	-8131
▁ሼ	-8132
▁ዙ	-8133
ሄደም	-8134
ለቀም	-8135
ለበት	-8136
ልባው	-8137
ምዛዛ	-8138
ሮውን	-8139
ሳለን	-8140
ሽናል	-8141
ቃብር	-8142
ቃቸው	-8143
ቋቸው	-8144
ቨስት	-8145
ታችሁ	-8146
ካካስ	-8147
ክፈት	-8148
ወቂያ	-8149
ወዱት	-8150
ጠልቅ	-8151
ጠበቁ	-8152
ጨስም	-8153
ፅሀፉ	-8154
ፈትሽ	-8155
ፋለን	-8156
ፍራል	-8157
▁ለቆ	-8158
▁ልኬ	-8159
▁መሸ	-8160
▁መኮ	-8161
▁ሙቀ	-8162
▁ሽቦ	-8163
▁ቅና	-8164
▁ቆዩ	-8165
▁በሶ	-8166
▁በሺ	-8167
▁በቼ	-8168
▁በኤ	-8169
▁በኦ	-8170
▁ብራ	-8171
▁ብስ	-8172
▁ቦት	-8173
▁ቪዛ	-8174
▁ተረ	-8175
▁ትዋ	-8176
▁ኒው	-8177
▁ንቅ	-8178
▁እል	-8179
▁ወሳ	-8180
▁ውሰ	-8181
▁የሮ	-8182
▁የጀ	-8183
▁ይጥ	-8184
▁ይፋ	-8185
▁ጎጂ	-8186
▁ጥረ	-8187
▁ጨረ	-8188
2013	-8189
ሰራውን	-8190
ስተምር	-8191
ቸኮሌት	-8192
ነታቸው	-8193
ከሰተው	-8194
ወዳቸው	-8195
ዎቻችን	-8196
ያችንን	-8197
ደርገኝ	-8198
ድናቸው	-8199
ጀቴሪያ	-8200
▁ሀብል	-8201
▁ሄድክ	-8202
▁ለጓደ	-8203
▁ልወጣ	-8204
▁መርዝ	-8205
▁መዝገ	-8206
▁መጠኑ	-8207
▁ማሽኑ	-8208
▁ሞተሩ	-8209
▁ርእስ	-8210
▁ሰርግ	-8211
▁ሲጮህ	-8212
▁ሳሎን	-8213
▁ስቴክ	-8214
▁ቀስቅ	-8215
▁በነገ	-8216
▁በአስ	-8217
▁በውድ	-8218
▁በጓደ	-8219
▁ቢሮው	-8220
▁ባገኝ	-8221
▁ብድር	-8222
▁ተረት	-8223
▁ተርጉ	-8224
▁ተሰራ	-8225
▁ተሻሽ	-8226
▁ተከት	-8227
▁ተኩል	-8228
▁ቲኬት	-8229
▁ችሏል	-8230
▁ነፍስ	-8231
▁ንጉስ	-8232
▁አልሰ	-8233
▁አምን	-8234
▁አስጨ	-8235
▁አውራ	-8236
▁አፈሰ	-8237
▁እልክ	-8238
▁እናቷ	-8239
▁እየሳ	-8240
▁እጀም	-8241
▁ከሞተ	-8242
▁ከቀን	-8243
▁ክፉኛ	-8244
▁ወደው	-8245
▁ዘለለ	-8246
▁ያነሳ	-8247
▁ያከብ	-8248
▁ያጠፋ	-8249
▁ይበቃ	-8250
▁ይነገ	-8251
▁ዳንሰ	-8252
▁ድፍረ	-8253
▁ጅምር	-8254
▁ገዛህ	-8255
▁ጎብኝ	-8256
▁ጠረን	-8257
▁ጣቶች	-8258
▁ሁኔታን	-8259
▁ሃሳቤን	-8260
▁ሄዳለች	-8261
▁ልረዳው	-8262
▁ልስጥህ	-8263
▁ልትሆን	-8264
▁ልጠይቅ	-8265
▁መርሳት	-8266
▁መቆለፍ	-8267
▁መብረር	-8268
▁መኪናዎ	-8269
▁መደበቅ	-8270
▁ምስሉን	-8271
▁ምንጣፍ	-8272
▁ምግቡን	-8273
▁ሞባይል	-8274
▁ሞክሯል	-8275
▁ሶስተኛ	-8276
▁ቅፅበት	-8277
▁በህመም	-8278
▁በማይታ	-8279
▁በራስዎ	-8280
▁በአውሎ	-8281
▁በውስጡ	-8282
▁በየወሩ	-8283
▁ተሳስቼ	-8284
▁ተቀመጡ	-8285
▁ተአምር	-8286
▁ተከተል	-8287
▁ተገናኝ	-8288
▁ተጠየቅ	-8289
▁ትግሉን	-8290
▁ትፈልግ	-8291
▁ነበረህ	-8292
▁ነበሩኝ	-8293
▁ነገረህ	-8294
▁አለቀስ	-8295
▁አላመን	-8296
▁አልሆን	-8297
▁አልልም	-8298
▁አበላሽ	-8299
▁አወለቀ	-8300
▁አገኘው	-8301
▁እስከመ	-8302
▁እንረዳ	-8303
▁እየበረ	-8304
▁እየተሻ	-8305
▁እየደማ	-8306
▁እያስተ	-8307
▁እድሜዬ	-8308
▁እግሮቼ	-8309
▁ከጓደኛ	-8310
▁ወሰነች	-8311
▁ወዳጃዊ	-8312
▁ዘጋሁት	-8313
▁የሁለት	-8314
▁የህይወ	-8315
▁የማውቅ	-8316
▁የቀልድ	-8317
▁የቡድን	-8318
▁የአስተ	-8319
▁የአባቴ	-8320
▁የዛሬው	-8321
▁የገረጣ	-8322
▁የገበያ	-8323
▁ያስፈራ	-8324
▁ያነባል	-8325
▁ይመሳሰ	-8326
▁ድርጅት	-8327
▁ድንጋጤ	-8328
▁ድፍረት	-8329
▁ጀመርን	-8330
▁ጊዜያዊ	-8331
▁ጋዜጦች	-8332
▁ግልቢያ	-8333
▁ጎምዛዛ	-8334
▁ጓደኛው	-8335
▁ጠንቃቃ	-8336
▁ጥቅምት	-8337
▁ፍቅረኛ	-8338
▁ፖለቲካ	-8339
▁ለመጉዳት	-8340
▁ለማሳለፍ	-8341
▁ለተጨማሪ	-8342
▁ለአምስት	-8343
▁ለውጦችን	-8344
▁ልትረዱኝ	-8345
▁መናፍስት	-8346
▁መዘግየት	-8347
▁ሙዚቃውን	-8348
▁ስለነበረ	-8349
▁ቁልፎቹን	-8350
▁በሁለቱም	-8351
▁በመንደሩ	-8352
▁ቢዘንብም	-8353
▁ተመልሷል	-8354
▁ተቆልፏል	-8355
▁ተነገረኝ	-8356
▁ተገረምኩ	-8357
▁አልለመደ	-8358
▁አልወደድ	-8359
▁አስጠንቅ	-8360
▁አባትህን	-8361
▁አንደኛው	-8362
▁አይጠጣም	-8363
▁ኢፍትሃዊ	-8364
▁እሰጋለሁ	-8365
▁እንዲሆኑ	-8366
▁እንዲመጣ	-8367
▁እንዳለሁ	-8368
▁እንድሆን	-8369
▁እንድመጣ	-8370
▁እየሰራች	-8371
▁እየተማረ	-8372
▁ከመግባት	-8373
▁ከሳምንት	-8374
▁ከአልጋው	-8375
▁ከአምስት	-8376
▁ኮምፒውተ	-8377
▁የሰበረው	-8378
▁የወረቀት	-8379
▁የገዛሁት	-8380
▁ያስታውሱ	-8381
▁ያስወጣል	-8382
▁ያደረገህ	-8383
▁ይመርጣል	-8384
▁ይጠብቃል	-8385
▁ደብዳቤው	-8386
▁ደውልልኝ	-8387
▁ፎቶዎችን	-8388
▁ለማስረዳት	-8389
▁መብራቶቹን	-8390
▁ማጉረምረም	-8391
▁ሳይንቲስት	-8392
▁ቁርጥራጮች	-8393
▁በሚያሳዝን	-8394
▁በግድግዳው	-8395
▁ታደርጋለች	-8396
▁ትሰጠኛለህ	-8397
▁ትጠብቃለህ	-8398
▁አሳልፋለሁ	-8399
▁አይለብስም	-8400
▁እንድረዳህ	-8401
▁እጀምራለሁ	-8402
▁ወንድምህን	-8403
▁ዘግይተናል	-8404
▁የሚያስችል	-8405
▁የሚያስፈራ	-8406
▁የሚገርመኝ	-8407
▁የማላውቀው	-8408
▁ያደረግከው	-8409
▁ደቂቃዎችን	-8410
▁ፕሮፌሽናል	-8411
▁ላመሰግናችሁ	-8412
▁እወስድሃለሁ	-8413
▁ኮምፒውተሮች	-8414
▁የፈረንሳይኛ	-8415
▁አስተያየትህን	-8416
▁እንደተለመደው	-8417
ለቡ	-8418
ሊየ	-8419
ልኮ	-8420
መጃ	-8421
ራሪ	-8422
ቀጣ	-8423
ቄት	-8424
ቅደ	-8425
በበ	-8426
ባሳ	-8427
ተረ	-8428
ቶፕ	-8429
ናን	-8430
ንዴ	-8431
አክ	-8432
ይቱ	-8433
ዳጊ	-8434
ጋቢ	-8435
ጠህ	-8436
ጠጥ	-8437
ጫኑ	-8438
ሆኑም	-8439
ለምዶ	-8440
ሊኮፕ	-8441
መልጥ	-8442
መችው	-8443
ማምሩ	-8444
ሟላት	-8445
ሰዱት	-8446
ሳችሁ	-8447
ስራቅ	-8448
ስትሮ	-8449
ቃችሁ	-8450
ቆጠር	-8451
በበኛ	-8452
ባበር	-8453
ተኛም	-8454
ታትን	-8455
ታውን	-8456
ታዎች	-8457
ነሃል	-8458
ነብም	-8459
ነዳው	-8460
ከፈተ	-8461
ከፊል	-8462
ዝመት	-8463
ዮሎጂ	-8464
ገደል	-8465
ጋበዝ	-8466
ግስቱ	-8467
ጣሪው	-8468
ፈፀመ	-8469
▁ሆና	-8470
▁ማየ	-8471
▁ሮዝ	-8472
▁ስፌ	-8473
▁ስፍ	-8474
▁ቁጣ	-8475
▁ተባ	-8476
▁ትታ	-8477
▁ቻለ	-8478
▁አዞ	-8479
▁ኢሜ	-8480
▁ኦር	-8481
▁ካሬ	-8482
▁የሜ	-8483
▁ደሴ	-8484
▁ጉን	-8485
▁ፊቱ	-8486
▁ፊደ	-8487
0000	-8488
ሰበሰቡ	-8489
ቀማለሁ	-8490
ቂያውን	-8491
ንቀሳቅ	-8492
ከራከር	-8493
ከፍላሉ	-8494
ወደኝም	-8495
ይናንስ	-8496
ጠነቀቅ	-8497
ፕስቲክ	-8498
▁ለማም	-8499
▁ለነገ	-8500
▁ልጅህ	-8501
▁መረጠ	-8502
▁ራስን	-8503
▁ሰላጣ	-8504
▁ስልጣ	-8505
▁ቀለል	-8506
▁በምስ	-8507
▁በስር	-8508
▁በቤቴ	-8509
▁በዛፉ	-8510
▁ባህሩ	-8511
▁ተማር	-8512
▁ተቃራ	-8513
▁ተቆር	-8514
▁ተኛች	-8515
▁ተወኝ	-8516
▁ተገር	-8517
▁ቲማቲ	-8518
▁ትዘገ	-8519
▁ትጠቀ	-8520
▁ነክሶ	-8521
▁ነገሩ	-8522
▁ነጥቡ	-8523
▁ነፋስ	-8524
▁ንብረ	-8525
▁ንክሻ	-8526
▁አልረ	-8527
▁አቆይ	-8528
▁አንዷ	-8529
▁አጋጠ	-8530
▁እለብ	-8531
▁እንጆ	-8532
▁እወደ	-8533
▁እፅፍ	-8534
▁ከመሄ	-8535
▁ከመቼ	-8536
▁ከሞት	-8537
▁ከገና	-8538
▁ወደቅ	-8539
▁ውሰዱ	-8540
▁ውሻዎ	-8541
▁ዘገየ	-8542
▁የሳር	-8543
▁የበላ	-8544
▁የተቀ	-8545
▁የወን	-8546
▁የዶክ	-8547
▁የጦር	-8548
▁ያቀፈ	-8549
▁ያቺን	-8550
▁ይሄድ	-8551
▁ይሳሉ	-8552
▁ይነግ	-8553
▁ይኖሩ	-8554
▁ይፈራ	-8555
▁ደጋፊ	-8556
▁ዲፕሎ	-8557
▁ድርጅ	-8558
▁ጂንስ	-8559
▁ጉባኤ	-8560
▁ጊዜን	-8561
▁ጥራት	-8562
▁ጥቆማ	-8563
▁ፅፏል	-8564
▁ፈርቼ	-8565
▁ፊቱን	-8566
▁ፓርክ	-8567
ነገርኩህ	-8568
ደርስብህ	-8569
▁ሀኪሙን	-8570
▁ሀገራት	-8571
▁ህመሙን	-8572
▁ለመኪና	-8573
▁ለትንሽ	-8574
▁ለጤናዎ	-8575
▁ሌላኛው	-8576
▁መቃወም	-8577
▁መግቢያ	-8578
▁ሚኒስት	-8579
▁ማለትህ	-8580
▁ረስቼው	-8581
▁ርዝመት	-8582
▁ስርኣቱ	-8583
▁ቁጥሩን	-8584
▁ቁጥጥር	-8585
▁ቃልህን	-8586
▁ቅርንጫ	-8587
▁ቅድሚያ	-8588
▁በልተህ	-8589
▁በማሰብ	-8590
▁በቃላት	-8591
▁በአካል	-8592
▁በእርሳ	-8593
▁በከፊል	-8594
▁በወላጆ	-8595
▁በጥቂት	-8596
▁ቢራቢሮ	-8597
▁ቦርሳህ	-8598
▁ተመልካ	-8599
▁ተመዝግ	-8600
▁ተረዳሁ	-8601
▁ተራሮች	-8602
▁ተነፈሰ	-8603
▁ተናግሮ	-8604
▁ተከሷል	-8605
▁ተገረመ	-8606
▁ተፈጥሮ	-8607
▁ችለዋል	-8608
▁አላሰበ	-8609
▁አልደረ	-8610
▁አሳዩኝ	-8611
▁አቁሟል	-8612
▁አቅርቦ	-8613
▁አክስቴ	-8614
▁አውልቅ	-8615
▁አይኑን	-8616
▁አገኘህ	-8617
▁አጠገቤ	-8618
▁እነግር	-8619
▁እንደኔ	-8620
▁እንዲኖ	-8621
▁እዚያው	-8622
▁እየደበ	-8623
▁ከኋላዬ	-8624
▁ከእንቅ	-8625
▁ከጠዋቱ	-8626
▁ክፍልዎ	-8627
▁ኮትህን	-8628
▁ወረወረ	-8629
▁ወንበሩ	-8630
▁ወንዶቹ	-8631
▁ዝግጅት	-8632
▁የሚለው	-8633
▁የሚኖር	-8634
▁የአደጋ	-8635
▁የዚያን	-8636
▁የደከመ	-8637
▁የፈለገ	-8638
▁ያልሆኑ	-8639
▁ያስቸግ	-8640
▁ያስከት	-8641
▁ይሀውና	-8642
▁ይሮጣል	-8643
▁ይቁረጡ	-8644
▁ይኮራል	-8645
▁ይውላል	-8646
▁ይጠላሉ	-8647
▁ዳንሰኛ	-8648
▁ድርጊት	-8649
▁ድርግም	-8650
▁ጓደኛዋ	-8651
▁ጓጉቷል	-8652
▁ጥርሴን	-8653
▁ፃፍኩት	-8654
▁ፅንሰሀ	-8655
▁ፈልገህ	-8656
ክርስቲያን	-8657
▁ለማንሳት	-8658
▁ላደርገው	-8659
▁መሰረታዊ	-8660
▁መከራየት	-8661
▁መኪናዎን	-8662
▁መዘጋጀት	-8663
▁ማስደሰት	-8664
▁ማጠናቀቅ	-8665
▁ምክርህን	-8666
▁ምክንያቱ	-8667
▁ሰጥተዋል	-8668
▁ስላለብኝ	-8669
▁ሽንኩርት	-8670
▁ቁምነገር	-8671
▁በተለምዶ	-8672
▁በተወሰነ	-8673
▁ቤተሰብዎ	-8674
▁ተሰርዟል	-8675
▁ተደርጓል	-8676
▁ተጠራጣሪ	-8677
▁ተጣብቋል	-8678
▁ተጨንቋል	-8679
▁አላመነም	-8680
▁አልሰማም	-8681
▁አልሰጠም	-8682
▁አልወጣም	-8683
▁አሳልፈኝ	-8684
▁አይፈራም	-8685
▁እንመለስ	-8686
▁እንጠብቅ	-8687
▁እያሰብክ	-8688
▁እያሳለፍ	-8689
▁እያጠናሁ	-8690
▁ከመንገዱ	-8691
▁ከዝርዝሩ	-8692
▁ከጓደኞች	-8693
▁ከፍያለሁ	-8694
▁ዝርዝሮች	-8695
▁የመኖሪያ	-8696
▁የሚችለው	-8697
▁የምሄደው	-8698
▁የምለውን	-8699
▁የምትለው	-8700
▁የአንገት	-8701
▁የፖለቲካ	-8702
▁ያለበትን	-8703
▁ያለብኝን	-8704
▁ያሳልፋል	-8705
▁ይቆጠራል	-8706
▁ይበቅላሉ	-8707
▁ይነገራል	-8708
▁ይጨምራል	-8709
▁ጋዜጣውን	-8710
▁ጓጉቻለሁ	-8711
▁ልትጠይቀኝ	-8712
▁መደምደሚያ	-8713
▁ማጭበርበር	-8714
▁በነገራችን	-8715
▁በአብዛኛው	-8716
▁በእንቅልፍ	-8717
▁ትጨነቃለች	-8718
▁ትጫወታለች	-8719
▁አልሆንኩም	-8720
▁አልመለሰም	-8721
▁አልተኛሁም	-8722
▁አስተካክል	-8723
▁አበባዎችን	-8724
▁አውጥቻለሁ	-8725
▁አይከፋኝም	-8726
▁አድራሻህን	-8727
▁ኢንዱስትሪ	-8728
▁እለብሳለሁ	-8729
▁እራሳችንን	-8730
▁እቅዳችንን	-8731
▁እንደምሄድ	-8732
▁እንደሰራህ	-8733
▁እንድትሆኑ	-8734
▁እንድትወጣ	-8735
▁እወደዋለሁ	-8736
▁እየቀለድኩ	-8737
▁እየወሰድኩ	-8738
▁እየፈለግን	-8739
▁እጠቀማለሁ	-8740
▁ከጠበቅኩት	-8741
▁ዘግይተሃል	-8742
▁የለባቸውም	-8743
▁የመተማመን	-8744
▁የማስታወስ	-8745
▁ያሰብኩትን	-8746
▁ያገኘሁትን	-8747
▁ደብዳቤዎች	-8748
▁ፅጌረዳዎች	-8749
▁ቤተመንግስት	-8750
▁ተወያይተናል	-8751
▁አልለመደኝም	-8752
▁አይመስልህም	-8753
▁አይገርመኝም	-8754
▁እንደሌለብኝ	-8755
▁እንደቀድሞው	-8756
▁እንዳልሆንክ	-8757
▁እንድትመለስ	-8758
▁እንድትረዳኝ	-8759
▁የጥፋተኝነት	-8760
▁በመደርደሪያው	-8761
▁እልክላችኋለሁ	-8762
▁እስከሚቀጥለው	-8763
▁እንደሚያደርጉት	-8764
ልፌ	-8765
መካ	-8766
ሙስ	-8767
ራር	-8768
ሳሽ	-8769
ስቅ	-8770
ባማ	-8771
ባጭ	-8772
ተሪ	-8773
ቶኝ	-8774
ኒያ	-8775
ኝን	-8776
እድ	-8777
ክሌ	-8778
ዉን	-8779
ዋኘ	-8780
ዋይ	-8781
ጅና	-8782
ጠቆ	-8783
ጠጡ	-8784
ጣኑ	-8785
ሄዱም	-8786
ለህን	-8787
ለብሰ	-8788
ልክም	-8789
ረዱን	-8790
ሰርቅ	-8791
ቀኝም	-8792
ታተል	-8793
ናችን	-8794
ንተር	-8795
ዋሰው	-8796
ዎትን	-8797
ዘጋጃ	-8798
ያለው	-8799
ያውቁ	-8800
ደረጉ	-8801
ደንስ	-8802
ድረገ	-8803
ገነባ	-8804
ጠልጥ	-8805
ጠረው	-8806
ፈታው	-8807
ፊቱን	-8808
▁ለደ	-8809
▁ሊገ	-8810
▁ላም	-8811
▁ላሳ	-8812
▁ልው	-8813
▁ሚዛ	-8814
▁ማዘ	-8815
▁ሰለ	-8816
▁ሲጨ	-8817
▁ቦም	-8818
▁ቲዎ	-8819
▁ታጭ	-8820
▁ታፍ	-8821
▁ትሰ	-8822
▁ነዋ	-8823
▁አቆ	-8824
▁አከ	-8825
▁አፀ	-8826
▁ከሀ	-8827
▁ከቅ	-8828
▁የፓ	-8829
▁ዩኒ	-8830
▁ዱላ	-8831
▁ጃዝ	-8832
▁ገነ	-8833
▁ጉጉ	-8834
▁ግም	-8835
▁ጎድ	-8836
▁ጢም	-8837
▁ጫና	-8838
▁ፅፌ	-8839
ሞክረው	-8840
ስተናግ	-8841
ቀላቀል	-8842
ቷቸዋል	-8843
ነበረኝ	-8844
ከታለሁ	-8845
ደሰትን	-8846
ደንቅም	-8847
ደኝነት	-8848
ጀምርም	-8849
ግራችሁ	-8850
ግብዣው	-8851
ፈስሳል	-8852
▁ለመጥ	-8853
▁ሊሄድ	-8854
▁ሊሰራ	-8855
▁ላገባ	-8856
▁መላው	-8857
▁መርሀ	-8858
▁መንጋ	-8859
▁ማሰር	-8860
▁ማጠብ	-8861
▁ሰኣቴ	-8862
▁ሱሰኛ	-8863
▁ሲሆኑ	-8864
▁ሲወጡ	-8865
▁ቃሌን	-8866
▁ቆይታ	-8867
▁በማህ	-8868
▁ቡናው	-8869
▁ብልሃ	-8870
▁ብርቅ	-8871
▁ተመራ	-8872
▁ተሰኝ	-8873
▁ተቃወ	-8874
▁ተቆጥ	-8875
▁ተኝቼ	-8876
▁ተከላ	-8877
▁ተደን	-8878
▁ታሳል	-8879
▁ትሁት	-8880
▁ትይዛ	-8881
▁ትጠጣ	-8882
▁ነፍሰ	-8883
▁ንጥረ	-8884
▁አለማ	-8885
▁አላሳ	-8886
▁አልማ	-8887
▁አሻራ	-8888
▁አየህ	-8889
▁አፍር	-8890
▁ኢሜል	-8891
▁እርሱ	-8892
▁ከሁሉ	-8893
▁ከበሩ	-8894
▁ከእህ	-8895
▁ካለህ	-8896
▁ካንቺ	-8897
▁ክላሲ	-8898
▁ኮቱን	-8899
▁ውረድ	-8900
▁የሞኝ	-8901
▁የራሴ	-8902
▁የቼሪ	-8903
▁የኣሳ	-8904
▁የዛሬ	-8905
▁የጆሮ	-8906
▁ያላት	-8907
▁ያዝኩ	-8908
▁ይለው	-8909
▁ይለያ	-8910
▁ይቃወ	-8911
▁ይበር	-8912
▁ይጎድ	-8913
▁ይጠበ	-8914
▁ደበደ	-8915
▁ገዛን	-8916
▁ግንዛ	-8917
▁ጨርሶ	-8918
▁ፈራች	-8919
▁ፋይል	-8920
ነግራችሁ	-8921
ዘርላንድ	-8922
ደረሰበት	-8923
▁ህንፃው	-8924
▁ለሌሎች	-8925
▁ለመተው	-8926
▁ልታየኝ	-8927
▁ልጆቿን	-8928
▁መርማሪ	-8929
▁መንግስ	-8930
▁መውጫው	-8931
▁መፍሰስ	-8932
▁ሙከራው	-8933
▁ማቋረጥ	-8934
▁ማይክሮ	-8935
▁ማድረጉ	-8936
▁ሞከረች	-8937
▁ሲናገር	-8938
▁ስለምት	-8939
▁ስልኬን	-8940
▁ስኪንግ	-8941
▁ሾርባው	-8942
▁ቀጠለች	-8943
▁ቆርጧል	-8944
▁በሰላሳ	-8945
▁በሺዎች	-8946
▁በቀላል	-8947
▁በችግር	-8948
▁በአደጋ	-8949
▁በዘጠኝ	-8950
▁በድብቅ	-8951
▁በጋዜጣ	-8952
▁በጥቁር	-8953
▁በፀጥታ	-8954
▁ቡድኑን	-8955
▁ተለዋዋ	-8956
▁ተማርክ	-8957
▁ተቀላቀ	-8958
▁ተቀምጬ	-8959
▁ተነግሮ	-8960
▁ተደርጎ	-8961
▁ተደበቀ	-8962
▁ተገናኙ	-8963
▁ትልልቅ	-8964
▁አልወድ	-8965
▁አስደን	-8966
▁አበረታ	-8967
▁አበቦቹ	-8968
▁አታናግ	-8969
▁አትመኑ	-8970
▁አንድን	-8971
▁አክባሪ	-8972
▁አድናቂ	-8973
▁አጥብቄ	-8974
▁እህቴን	-8975
▁እናቱን	-8976
▁እንደቀ	-8977
▁እየሰጠ	-8978
▁ከመጀመ	-8979
▁ከትንሽ	-8980
▁ከቻልኩ	-8981
▁ወሰድኩ	-8982
▁የሁሉም	-8983
▁የሆኑት	-8984
▁የሌሊት	-8985
▁የበሰበ	-8986
▁የበኣል	-8987
▁የተጎዳ	-8988
▁የቱንም	-8989
▁የአጎት	-8990
▁ያስወግ	-8991
▁ያዳምጡ	-8992
▁ይሞታሉ	-8993
▁ይበልጥ	-8994
▁ይታጠፉ	-8995
▁ደርዘን	-8996
▁ገላውን	-8997
▁ገላዬን	-8998
▁ገዛሁት	-8999
▁ግብዣው	-9000
▁ለመመገብ	-9001
▁ለመምጣት	-9002
▁ለመቋቋም	-9003
▁ለደብዳቤ	-9004
▁ራሳቸውን	-9005
▁ስለታመመ	-9006
▁ሽማግሌው	-9007
▁ቅሬታዎች	-9008
▁በማግስቱ	-9009
▁በማጥመድ	-9010
▁በተፈጥሮ	-9011
▁በዙሪያው	-9012
▁በጨዋታው	-9013
▁ቤተሰቦች	-9014
▁ተቀመጠች	-9015
▁ተጠንቀቁ	-9016
▁ተጠየቅኩ	-9017
▁ነግሮኛል	-9018
▁አለቀስኩ	-9019
▁አላየንም	-9020
▁አልሄደም	-9021
▁አልሞከር	-9022
▁አልገባም	-9023
▁አርጅቷል	-9024
▁አሰልጣኝ	-9025
▁አትሆንም	-9026
▁አትመጣም	-9027
▁አዎንታዊ	-9028
▁አዝዣለሁ	-9029
▁ኣይናፋር	-9030
▁እንቀጥል	-9031
▁እንደገዛ	-9032
▁እንድሰራ	-9033
▁እየጨለመ	-9034
▁እጠባለሁ	-9035
▁ከለከለኝ	-9036
▁ከወላጆቹ	-9037
▁ወላጆቹን	-9038
▁ወረቀቱን	-9039
▁ወሰድኩት	-9040
▁ወንበሮች	-9041
▁ዝርዝሩን	-9042
▁የቤዝቦል	-9043
▁የተረጋጋ	-9044
▁የተናገረ	-9045
▁ያስደስት	-9046
▁ይሰማሃል	-9047
▁ይፈስሳል	-9048
▁ዮሀንስን	-9049
▁ጓደኞችህ	-9050
▁ጥያቄዬን	-9051
▁ጨርሰናል	-9052
▁ፀጉርህን	-9053
▁ለእንደዚህ	-9054
▁መሳሪያዎች	-9055
▁መንቀጥቀጡ	-9056
▁ማስተናገድ	-9057
▁ማስተዋወቅ	-9058
▁ስለእርስዎ	-9059
▁ቀይሬያለሁ	-9060
▁በሁለተኛው	-9061
▁በማይታመን	-9062
▁በአስቸኳይ	-9063
▁በወጣትነቴ	-9064
▁ተቀብያለሁ	-9065
▁ተገድለዋል	-9066
▁አላስፈለገ	-9067
▁አልተሳካም	-9068
▁አሳልፈዋል	-9069
▁አስተዋወቀ	-9070
▁አብዛኛዎቹ	-9071
▁እንቆቅልሽ	-9072
▁እንደማገኝ	-9073
▁እንደፈለገ	-9074
▁እንዲረዳኝ	-9075
▁እንዲረዳው	-9076
▁እያደረግን	-9077
▁የሚያስቡት	-9078
▁የማስበውን	-9079
▁የምነግርህ	-9080
▁የምንሄደው	-9081
▁የተቻለህን	-9082
▁ልታስተምረኝ	-9083
▁አልተነጋገር	-9084
▁አልጨረስኩም	-9085
▁አይመለከትም	-9086
▁እመለከታለሁ	-9087
▁እንደምትኖር	-9088
▁የተናገርከው	-9089
▁አልተናደድኩም	-9090
▁አልነበረብንም	-9091
▁እንድትነግሩኝ	-9092
▁የሚያስፈልግህ	-9093
ሃብ	-9094
ሎኒ	-9095
መገ	-9096
ሟት	-9097
ረዘ	-9098
ሪኝ	-9099
ሳማ	-9100
ሸማ	-9101
ቆሮ	-9102
ቦር	-9103
ቦቼ	-9104
ነመ	-9105
ነፈ	-9106
ንጂ	-9107
እል	-9108
ኬቱ	-9109
ዉት	-9110
ዋኙ	-9111
ዛዊ	-9112
ዮቹ	-9113
ጀራ	-9114
ጆን	-9115
ግዛ	-9116
ጎቱ	-9117
ፀው	-9118
ፅም	-9119
ፅኦ	-9120
▁ዊ	-9121
▁ዴ	-9122
ሆነው	-9123
መለሰ	-9124
መረቅ	-9125
መረጥ	-9126
ራንቱ	-9127
ሰበስ	-9128
ሰናበ	-9129
ሰጡኝ	-9130
ሶቹን	-9131
ሻንጉ	-9132
ባክን	-9133
ብኝት	-9134
ታለል	-9135
ታሞች	-9136
ታጠብ	-9137
ቸኩል	-9138
ናትህ	-9139
ንቀኝ	-9140
ንፋስ	-9141
ኖሎጂ	-9142
ኩህን	-9143
ክሌር	-9144
ወልኩ	-9145
ወቅቱ	-9146
ወጣሉ	-9147
ያዝኩ	-9148
ይንት	-9149
ደገፍ	-9150
ዳዳሪ	-9151
ጋቸው	-9152
ጠናው	-9153
ጡንቻ	-9154
ፈላጊ	-9155
ፈልጎ	-9156
ፈርስ	-9157
ፈነዳ	-9158
ፕሬዚ	-9159
ፕቶፕ	-9160
▁ሆኑ	-9161
▁ለክ	-9162
▁ለፊ	-9163
▁መት	-9164
▁መያ	-9165
▁መዳ	-9166
▁ሚና	-9167
▁ምህ	-9168
▁ሱቁ	-9169
▁ሲነ	-9170
▁ስብ	-9171
▁በሉ	-9172
▁በሴ	-9173
▁በሻ	-9174
▁በቻ	-9175
▁በፅ	-9176
▁ባሏ	-9177
▁ተጎ	-9178
▁ትቼ	-9179
▁ቸኩ	-9180
▁አፋ	-9181
▁እጋ	-9182
▁ከዳ	-9183
▁ካስ	-9184
▁ካና	-9185
▁ክር	-9186
▁ወፏ	-9187
▁ዘመ	-9188
▁ዛፉ	-9189
▁ዝሆ	-9190
▁የሉ	-9191
▁የሷ	-9192
▁ዲዳ	-9193
▁ድል	-9194
▁ገዙ	-9195
▁ገጠ	-9196
▁ጋዝ	-9197
▁ጌጣ	-9198
▁ጎት	-9199
▁ጓን	-9200
ለንደን	-9201
ሌቪዥን	-9202
መቸኝም	-9203
ሞክራሲ	-9204
ራችንን	-9205
ርስቲያ	-9206
ሰለቸኝ	-9207
ስተማር	-9208
ሽከርካ	-9209
ቀርበው	-9210
ቤታችን	-9211
ታውቀው	-9212
ነመረብ	-9213
ነታችን	-9214
ንሰለት	-9215
ውቅያኖ	-9216
ድርገው	-9217
ጀመረው	-9218
ግራቸው	-9219
ጠራጠር	-9220
ጠይቅም	-9221
ጫወተው	-9222
▁500	-9223
▁ለብሼ	-9224
▁ልጅሽ	-9225
▁መረጥ	-9226
▁መቀስ	-9227
▁መጠይ	-9228
▁ማብሰ	-9229
▁ሞክሬ	-9230
▁ረዥም	-9231
▁ሰካራ	-9232
▁ሲቀድ	-9233
▁ሲወጣ	-9234
▁ስትል	-9235
▁ቀሰቀ	-9236
▁ቀውስ	-9237
▁ቀደደ	-9238
▁ቆጠራ	-9239
▁በሄድ	-9240
▁በረረ	-9241
▁በየአ	-9242
▁ብችል	-9243
▁ተወግ	-9244
▁ተገን	-9245
▁ተጎዳ	-9246
▁ቲዎሪ	-9247
▁ታሟል	-9248
▁ታውቀ	-9249
▁ትራስ	-9250
▁ትርጉ	-9251
▁ቶምም	-9252
▁ነርሷ	-9253
▁ነርቭ	-9254
▁ንፋሱ	-9255
▁አሎት	-9256
▁አስረ	-9257
▁አስወ	-9258
▁አቀባ	-9259
▁አቧራ	-9260
▁እየቆ	-9261
▁እያበ	-9262
▁ከላይ	-9263
▁ከምት	-9264
▁ከወጣ	-9265
▁ከጎኔ	-9266
▁ኮንት	-9267
▁ዘይቤ	-9268
▁የሆድ	-9269
▁የቢራ	-9270
▁የአያ	-9271
▁የእር	-9272
▁የግድ	-9273
▁ያካት	-9274
▁ይቃጠ	-9275
▁ይዘም	-9276
▁ደግሜ	-9277
▁ግራጫ	-9278
▁ግንድ	-9279
▁ጠበቅ	-9280
▁ጠይቅ	-9281
▁ጨዉን	-9282
▁ፈለጉ	-9283
▁ፈረሱ	-9284
▁ፈጣሪ	-9285
ንቀጠቀጠ	-9286
▁ሀብሀብ	-9287
▁ህልሞች	-9288
▁ለመሸጥ	-9289
▁ላለፉት	-9290
▁ልመለስ	-9291
▁መሸነፍ	-9292
▁መቅጠር	-9293
▁መብራቱ	-9294
▁መኖርን	-9295
▁መክሰስ	-9296
▁መውደቅ	-9297
▁መውደድ	-9298
▁መጣችሁ	-9299
▁ማብራት	-9300
▁ማናገር	-9301
▁ማእበሉ	-9302
▁ምስክር	-9303
▁ሪከርድ	-9304
▁ሰምተህ	-9305
▁ሳይክል	-9306
▁ስትሄድ	-9307
▁ሽርሽር	-9308
▁ቅጠሎቹ	-9309
▁በሚገባ	-9310
▁በምድጃ	-9311
▁በሬዲዮ	-9312
▁በአገር	-9313
▁በወቅቱ	-9314
▁በዝግታ	-9315
▁በገንዘ	-9316
▁በግቢው	-9317
▁በግድያ	-9318
▁በጨረቃ	-9319
▁በፓርክ	-9320
▁ባቡሩን	-9321
▁ተራራው	-9322
▁ተሰጥኦ	-9323
▁ተቀምጦ	-9324
▁ተብሏል	-9325
▁ተነጋግ	-9326
▁ተናደድ	-9327
▁ነቀነቀ	-9328
▁አሉታዊ	-9329
▁አላችሁ	-9330
▁አልረዳ	-9331
▁አመለጠ	-9332
▁አሳልፌ	-9333
▁አፍህን	-9334
▁ኣይኖቼ	-9335
▁እንስራ	-9336
▁እንጀራ	-9337
▁እየሄዱ	-9338
▁እየተቀ	-9339
▁እያልኩ	-9340
▁እያጠራ	-9341
▁እጆቹን	-9342
▁ከሌሎቹ	-9343
▁ከመምጣ	-9344
▁ከመተኛ	-9345
▁ከመውጣ	-9346
▁ከኋላህ	-9347
▁ከአልጋ	-9348
▁ከእህቴ	-9349
▁ከኮሌጅ	-9350
▁ከጭንቅ	-9351
▁ወሰደች	-9352
▁ወታደር	-9353
▁ዛፎችን	-9354
▁የሃይል	-9355
▁የመኝታ	-9356
▁የሚቀጥ	-9357
▁የሚጠጉ	-9358
▁የሚጠጣ	-9359
▁የባንክ	-9360
▁የቧንቧ	-9361
▁የተራበ	-9362
▁የእንቁ	-9363
▁የፊልም	-9364
▁ያሳለፍ	-9365
▁ያሳስበ	-9366
▁ይመለሱ	-9367
▁ይማራሉ	-9368
▁ይነዳል	-9369
▁ይጓዛል	-9370
▁ይጫወቱ	-9371
▁ግርግር	-9372
▁ጠንክራ	-9373
▁ጣሊያን	-9374
▁ጤንነት	-9375
▁ጥበበኛ	-9376
▁ፅሁፉን	-9377
▁ፈርሷል	-9378
▁ፕላኔት	-9379
ፈቅድልህም	-9380
▁ለማቅረብ	-9381
▁ለማውጣት	-9382
▁ለአደጋው	-9383
▁ሊያስከት	-9384
▁ልነግርሽ	-9385
▁መረጋጋት	-9386
▁ማስመሰል	-9387
▁ረድቶኛል	-9388
▁ስህተቱን	-9389
▁ስለረዱኝ	-9390
▁ስልክህን	-9391
▁ቆስለዋል	-9392
▁በካንሰር	-9393
▁በውድድሩ	-9394
▁በዝቶበት	-9395
▁በዝቶብኝ	-9396
▁በጠረጴዛ	-9397
▁ብልህነት	-9398
▁ተለዋዋጭ	-9399
▁ተመለስኩ	-9400
▁ተባረርኩ	-9401
▁ተነጋገሩ	-9402
▁ተናደደች	-9403
▁ቱሪስቶች	-9404
▁ትቼዋለሁ	-9405
▁አለቀሰች	-9406
▁አለባችሁ	-9407
▁አልቀረም	-9408
▁አልጠበቅ	-9409
▁አስተላል	-9410
▁አብዛኛው	-9411
▁አትክፈት	-9412
▁አትጠብቅ	-9413
▁አነስተኛ	-9414
▁አንዱንም	-9415
▁አዛውንት	-9416
▁አፈርኩኝ	-9417
▁ኢንቨስት	-9418
▁እናያለን	-9419
▁እንደሰማ	-9420
▁እንድታው	-9421
▁እያወራሁ	-9422
▁ከመቼውም	-9423
▁ከዋክብት	-9424
▁ከፈትኩት	-9425
▁ወደውታል	-9426
▁የለዎትም	-9427
▁የመማሪያ	-9428
▁የሚሆነው	-9429
▁የሚሰሩት	-9430
▁የሚወደው	-9431
▁የማግኘት	-9432
▁የምታውቅ	-9433
▁የተወሰኑ	-9434
▁የትኛውም	-9435
▁የትውልድ	-9436
▁የአልኮል	-9437
▁የወንድሜ	-9438
▁ይመለከቱ	-9439
▁ይኑርዎት	-9440
▁ይጠቅማል	-9441
▁ደረጃውን	-9442
▁ደርሻለሁ	-9443
▁ፈቃደኞች	-9444
▁ለመገናኘት	-9445
▁ለተፈጠረው	-9446
▁ላመሰግንህ	-9447
▁ልንገራችሁ	-9448
▁መስኮቶቹን	-9449
▁መቀመጫዎች	-9450
▁ማህበረሰብ	-9451
▁ስለወደፊቱ	-9452
▁በማስታወሻ	-9453
▁በኮንሰርቱ	-9454
▁ተምሬአለሁ	-9455
▁ተዘግተዋል	-9456
▁አስተማሪዬ	-9457
▁አቅርበዋል	-9458
▁አትክልቶች	-9459
▁አነበብኩት	-9460
▁አይደለምን	-9461
▁እንደሚወድ	-9462
▁እንዳልሆኑ	-9463
▁እየተጫወቱ	-9464
▁ከወላጆችህ	-9465
▁የሚያማምሩ	-9466
▁የምንሰራው	-9467
▁የተቻለኝን	-9468
▁የተገነባው	-9469
▁ያደረግነው	-9470
▁ጭንቅላቱን	-9471
▁ሳይንቲስቶች	-9472
▁በአውሮፕላኑ	-9473
▁አልተሰማኝም	-9474
▁አስተካክሏል	-9475
▁እንደሚወስድ	-9476
▁እንደተናደደ	-9477
▁እንደነበረች	-9478
▁እንዳልሆንኩ	-9479
▁አልወደድኩትም	-9480
▁እንደሚያስቡት	-9481
▁እንደምትመለስ	-9482
ልፊ	-9483
ሙኝ	-9484
ሞን	-9485
ሪታ	-9486
ሰባ	-9487
ቃው	-9488
ቄላ	-9489
ቅድ	-9490
ቦረ	-9491
ነዘ	-9492
ከቡ	-9493
ክሩ	-9494
ደክ	-9495
ድስ	-9496
ድብ	-9497
ጋጤ	-9498
ጓዙ	-9499
ጠሮ	-9500
ጠቡ	-9501
ጣራ	-9502
ጪው	-9503
ጭም	-9504
ፈኑ	-9505
ፎር	-9506
▁ቋ	-9507
ሃቸው	-9508
ህትና	-9509
ልናል	-9510
ሎታል	-9511
ማቸው	-9512
ራትም	-9513
ሮቼን	-9514
ሰብን	-9515
ስምሽ	-9516
ቀምጥ	-9517
ብህም	-9518
ብብር	-9519
ቦቼን	-9520
ተሩን	-9521
ቲክስ	-9522
ቶቡሱ	-9523
ቶብስ	-9524
ቶችዎ	-9525
ቶናል	-9526
ችበት	-9527
ነሳው	-9528
ንጀል	-9529
ከላከ	-9530
ከፈሉ	-9531
ወስዱ	-9532
ዘነበ	-9533
ደገም	-9534
ገባው	-9535
ገችም	-9536
ጎችን	-9537
ጠችው	-9538
ጥመው	-9539
ፀሀይ	-9540
ፈራራ	-9541
ፍረት	-9542
▁ለሃ	-9543
▁ለኛ	-9544
▁ሊን	-9545
▁ላክ	-9546
▁ልጇ	-9547
▁ሰይ	-9548
▁ሱሺ	-9549
▁ሳቀ	-9550
▁በቆ	-9551
▁በቫ	-9552
▁ተሽ	-9553
▁ተካ	-9554
▁ትማ	-9555
▁ትሮ	-9556
▁ትኮ	-9557
▁ትይ	-9558
▁እዋ	-9559
▁ከሽ	-9560
▁ከካ	-9561
▁ወግ	-9562
▁ውሂ	-9563
▁የላ	-9564
▁የጣ	-9565
▁ይል	-9566
▁ጀብ	-9567
▁ገዥ	-9568
▁ጉቦ	-9569
▁ግዙ	-9570
▁ጠመ	-9571
ለሁበት	-9572
ሊየነር	-9573
መለሰው	-9574
ማማቾች	-9575
ርስዎን	-9576
ሰራበት	-9577
ሰበሰበ	-9578
ሸንፍም	-9579
ቋቋመው	-9580
በዛብኝ	-9581
ቸውንም	-9582
ነሳለች	-9583
ናደድክ	-9584
ናገሩም	-9585
ከናወን	-9586
ክብሮት	-9587
ዎችዎን	-9588
ያውቁት	-9589
ደዋለሁ	-9590
ዳውያን	-9591
ጠቢያው	-9592
ፈለጉት	-9593
▁ህግን	-9594
▁ለልጁ	-9595
▁ለድር	-9596
▁ለጤን	-9597
▁ላሞች	-9598
▁ልቤን	-9599
▁ልፅፍ	-9600
▁መሬቱ	-9601
▁ምትክ	-9602
▁ሞላው	-9603
▁ሰውን	-9604
▁ሲጠራ	-9605
▁ስፌት	-9606
▁ሽልማ	-9607
▁ቀበሮ	-9608
▁ቅዱስ	-9609
▁በልቤ	-9610
▁በመሳ	-9611
▁በሳቅ	-9612
▁በተቃ	-9613
▁በጨረ	-9614
▁ባገኘ	-9615
▁ብዛት	-9616
▁ተነሱ	-9617
▁ተያይ	-9618
▁ተፈር	-9619
▁ታክስ	-9620
▁ትለም	-9621
▁ቻይና	-9622
▁ንድፈ	-9623
▁አስቦ	-9624
▁አስከ	-9625
▁አበራ	-9626
▁አንሳ	-9627
▁አዳነ	-9628
▁አገኝ	-9629
▁ኢንች	-9630
▁ኣመቷ	-9631
▁እረፍ	-9632
▁እስት	-9633
▁እዩኝ	-9634
▁ከልብ	-9635
▁ከልጆ	-9636
▁ከዛፍ	-9637
▁ከፍቶ	-9638
▁ወገን	-9639
▁ወጥቶ	-9640
▁ውሾቹ	-9641
▁ዛፉን	-9642
▁ዝምታ	-9643
▁የሚን	-9644
▁የቆየ	-9645
▁የተያ	-9646
▁የተጋ	-9647
▁የቲቪ	-9648
▁የኑሮ	-9649
▁የአን	-9650
▁የጓደ	-9651
▁የጤና	-9652
▁የፊት	-9653
▁ያመር	-9654
▁ያዙት	-9655
▁ያየሁ	-9656
▁ይማር	-9657
▁ይተኛ	-9658
▁ይናደ	-9659
▁ይወደ	-9660
▁ይገዛ	-9661
▁ጀመር	-9662
▁ገረጣ	-9663
▁ገፅታ	-9664
▁ጋበዘ	-9665
▁ግንባ	-9666
▁ግንብ	-9667
▁ጠርዝ	-9668
▁ጡንቻ	-9669
▁ጣሪያ	-9670
▁ጥብስ	-9671
▁ጨርቅ	-9672
▁ፀጉሬ	-9673
▁ፈረን	-9674
▁ፈነዳ	-9675
▁ፈጣኑ	-9676
ስተካክል	-9677
▁ሄሊኮፕ	-9678
▁ሊቀመን	-9679
▁ላፕቶፕ	-9680
▁ልስምሽ	-9681
▁ልተወው	-9682
▁መሀረብ	-9683
▁መልአክ	-9684
▁መናፈሻ	-9685
▁መኖሪያ	-9686
▁መጫወቻ	-9687
▁ማሳወቅ	-9688
▁ማሽኑን	-9689
▁ምሽቱን	-9690
▁ምግባር	-9691
▁ስለእሱ	-9692
▁ስትሆን	-9693
▁ቂጣውን	-9694
▁በመሬት	-9695
▁በሚያስ	-9696
▁በሰሜን	-9697
▁በሰፊው	-9698
▁በስራዬ	-9699
▁በቡድን	-9700
▁በብረት	-9701
▁በታላቅ	-9702
▁በታክሲ	-9703
▁በንግድ	-9704
▁በእሁድ	-9705
▁በእቅዱ	-9706
▁ባደረግ	-9707
▁ብእሬን	-9708
▁ተላላፊ	-9709
▁ተናደዱ	-9710
▁ተኝተው	-9711
▁ተገነዘ	-9712
▁ተጓዝን	-9713
▁አልበም	-9714
▁አልያዝ	-9715
▁አሮጊት	-9716
▁አሸናፊ	-9717
▁አቀረብ	-9718
▁አትንገ	-9719
▁አይበል	-9720
▁አጥርን	-9721
▁እህትህ	-9722
▁እንጆሪ	-9723
▁እየመጡ	-9724
▁እያልክ	-9725
▁ከመሄዴ	-9726
▁ከሰኣት	-9727
▁ከባህር	-9728
▁ከእሳት	-9729
▁ከእውነ	-9730
▁ከጠዋት	-9731
▁ካርዶች	-9732
▁ክረምቱ	-9733
▁ወሰደው	-9734
▁ወደላይ	-9735
▁ወደኋላ	-9736
▁ውጤቶቹ	-9737
▁ውጥንቅ	-9738
▁የቀብር	-9739
▁የነገረ	-9740
▁የአስር	-9741
▁የእናቴ	-9742
▁ያመለክ	-9743
▁ይስጡት	-9744
▁ይወስድ	-9745
▁ደነገጠ	-9746
▁ገበያው	-9747
▁ግባልኝ	-9748
▁ግንዛቤ	-9749
▁ጓደኞቹ	-9750
▁ጠላሁት	-9751
▁ጠላቶች	-9752
▁ጠራረገ	-9753
▁ጠንቅቆ	-9754
▁ጠየቀን	-9755
▁ጠይቋል	-9756
▁ፀጉርሽ	-9757
▁ፈረሶች	-9758
▁ፎቶዎች	-9759
▁ህንፃዎች	-9760
▁ለመግደል	-9761
▁ለማምለጥ	-9762
▁ለማግባት	-9763
▁ለብሰዋል	-9764
▁ልነግርዎ	-9765
▁መንገዶቹ	-9766
▁መንግስቱ	-9767
▁መድሃኒቱ	-9768
▁ማህበራዊ	-9769
▁ምርመራው	-9770
▁ሰምተናል	-9771
▁ሰውየውን	-9772
▁ሲያደርግ	-9773
▁ሳምንቱን	-9774
▁ሳይናገር	-9775
▁ቀርተዋል	-9776
▁ቁጥርህን	-9777
▁በራሳችን	-9778
▁በተናገር	-9779
▁በተግባር	-9780
▁በአገሪቱ	-9781
▁በወረቀት	-9782
▁ቤተመቅደ	-9783
▁ተመለከቱ	-9784
▁ተሞልቷል	-9785
▁ተረድቷል	-9786
▁ተሰርቋል	-9787
▁ተስተካክ	-9788
▁ተናገርኩ	-9789
▁ተከታታይ	-9790
▁	-9791
ን	-9792
ም	-9793
ለ	-9794
ት	-9795
ው	-9796
አ	-9797
ል	-9798
እ	-9799
በ	-9800
ነ	-9801
ር	-9802
ስ	-9803
መ	-9804
ይ	-9805
የ	-9806
ደ	-9807
ህ	-9808
ያ	-9809
ተ	-9810
ሁ	-9811
ች	-9812
ብ	-9813
ላ	-9814
ማ	-9815
ድ	-9816
ገ	-9817
ረ	-9818
ግ	-9819
ና	-9820
ወ	-9821
ሰ	-9822
ከ	-9823
ጥ	-9824
ቶ	-9825
ታ	-9826
ፈ	-9827
ራ	-9828
ኝ	-9829
ጠ	-9830
ቀ	-9831
ባ	-9832
ጣ	-9833
ክ	-9834
ዳ	-9835
ጋ	-9836
ቅ	-9837
ሳ	-9838
ኛ	-9839
ሉ	-9840
ፍ	-9841
ዎ	-9842
ሆ	-9843
ዚ	-9844
ሚ	-9845
ቃ	-9846
ኩ	-9847
ዋ	-9848
ሩ	-9849
ጊ	-9850
ዜ	-9851
ካ	-9852
ቤ	-9853
ቱ	-9854
ቻ	-9855
ዝ	-9856
ዘ	-9857
ዛ	-9858
ኔ	-9859
ሪ	-9860
ሱ	-9861
ቸ	-9862
ሽ	-9863
ሞ	-9864
ሄ	-9865
ሮ	-9866
ቆ	-9867
ዙ	-9868
ሊ	-9869
ጉ	-9870
ጨ	-9871
ሻ	-9872
ሃ	-9873
ዬ	-9874
ፋ	-9875
ሬ	-9876
ዲ	-9877
ቴ	-9878
ሀ	-9879
ቁ	-9880
ቡ	-9881
ኖ	-9882
ሌ	-9883
ፅ	-9884
ኣ	-9885
ቦ	-9886
ሙ	-9887
ፊ	-9888
ኑ	-9889
ጅ	-9890
ጀ	-9891
ቢ	-9892
ጫ	-9893
ጭ	-9894
ሎ	-9895
ጎ	-9896
ዴ	-9897
ኮ	-9898
ቂ	-9899
ሜ	-9900
ኘ	-9901
ኪ	-9902
ዱ	-9903
ዶ	-9904
ጆ	-9905
ቷ	-9906
ቼ	-9907
ቹ	-9908
ጓ	-9909
ሸ	-9910
ኋ	-9911
ጃ	-9912
ሶ	-9913
ሲ	-9914
ሴ	-9915
ፎ	-9916
ቋ	-9917
ፃ	-9918
ጡ	-9919
ፀ	-9920
ኞ	-9921
ቲ	-9922
ፓ	-9923
ሷ	-9924
ዩ	-9925
ዊ	-9926
ፖ	-9927
ቄ	-9928
ኳ	-9929
ፉ	-9930
ፕ	-9931
0	-9932
ጦ	-9933
ኬ	-9934
ፒ	-9935
ኒ	-9936
ዮ	-9937
ጌ	-9938
ጄ	-9939
ፁ	-9940
ሯ	-9941
ጁ	-9942
ዞ	-9943
ሂ	-9944
ሏ	-9945
ሹ	-9946
ኙ	-9947
ጤ	-9948
ቪ	-9949
1	-9950
ጂ	-9951
ፌ	-9952
ጮ	-9953
ኢ	-9954
ጴ	-9955
ቧ	-9956
ዣ	-9957
ሾ	-9958
ዥ	-9959
ኤ	-9960
ሟ	-9961
ቺ	-9962
ፏ	-9963
3	-9964
ኗ	-9965
2	-9966
ኦ	-9967
ዷ	-9968
ጪ	-9969
ጧ	-9970
ሺ	-9971
ቿ	-9972
9	-9973
5	-9974
ጢ	-9975
ሼ	-9976
ቾ	-9977
ጩ	-9978
ቫ	-9979
e	-9980
ቨ	-9981
8	-9982
ዟ	-9983
ጬ	-9984
6	-9985
4	-9986
ዉ	-9987
7	-9988
a	-9989
ጇ	-9990
ፐ	-9991
n	-9992
s	-9993
ፔ	-9994
ቭ	-9995
