<pad>	0
<unk>	0
<s>	0
</s>	0
aa	-0
ee	-1
an	-2
ii	-3
oo	-4
uu	-5
▁h	-6
▁d	-7
▁k	-8
ar	-9
▁b	-10
ti	-11
kk	-12
in	-13
▁g	-14
am	-15
▁t	-16
aan	-17
ir	-18
at	-19
al	-20
▁n	-21
dh	-22
▁j	-23
ab	-24
is	-25
▁hin	-26
▁q	-27
▁m	-28
ur	-29
ch	-30
▁a	-31
▁s	-32
▁dh	-33
ees	-34
aal	-35
eess	-36
een	-37
▁T	-38
tti	-39
un	-40
da	-41
▁qab	-42
▁A	-43
ra	-44
▁w	-45
ana	-46
oom	-47
▁bar	-48
▁akk	-49
▁is	-50
▁jir	-51
▁Toom	-52
▁f	-53
yaa	-54
ni	-55
baa	-56
atti	-57
▁M	-58
chuu	-59
iin	-60
dha	-61
ma	-62
▁tur	-63
▁K	-64
aat	-65
▁akka	-66
aar	-67
▁to	-68
▁barbaa	-69
▁D	-70
il	-71
daa	-72
▁dan	-73
▁H	-74
▁ho	-75
▁S	-76
aay	-77
aaf	-78
itti	-79
irr	-80
um	-81
▁tokk	-82
jj	-83
▁B	-84
▁ta	-85
ama	-86
▁keess	-87
er	-88
▁W	-89
ta	-90
bb	-91
eek	-92
▁koo	-93
▁tokko	-94
ag	-95
▁ture	-96
▁beek	-97
eroo	-98
▁dee	-99
arg	-100
iif	-101
yy	-102
uun	-103
▁I	-104
▁wal	-105
eera	-106
▁je	-107
▁baay	-108
▁G	-109
▁irr	-110
im	-111
akk	-112
ara	-113
ne	-114
tu	-115
▁Y	-116
▁nan	-117
▁kana	-118
ff	-119
▁c	-120
iis	-121
jje	-122
eeny	-123
▁y	-124
▁hojje	-125
ol	-126
▁go	-127
te	-128
▁kan	-129
▁isaa	-130
oon	-131
achuu	-132
▁N	-133
▁yaa	-134
maa	-135
of	-136
taa	-137
▁qaba	-138
▁arg	-139
▁hun	-140
▁jira	-141
la	-142
uuf	-143
on	-144
▁dhu	-145
▁barbaad	-146
▁Dh	-147
▁waan	-148
ubb	-149
▁kee	-150
ph	-151
raa	-152
tii	-153
▁ni	-154
▁dand	-155
▁gu	-156
▁kun	-157
sa	-158
▁jedh	-159
▁Yeroo	-160
▁natti	-161
or	-162
▁l	-163
▁mi	-164
▁irratti	-165
▁x	-166
tee	-167
▁deem	-168
▁maal	-169
ll	-170
iq	-171
▁gaar	-172
en	-173
▁na	-174
anaa	-175
dd	-176
▁F	-177
▁Akk	-178
▁dubb	-179
adh	-180
oota	-181
na	-182
ww	-183
▁am	-184
▁Maal	-185
▁jaal	-186
▁sana	-187
di	-188
▁fakk	-189
▁jiru	-190
ah	-191
eenya	-192
▁Waan	-193
▁yeroo	-194
▁barbaada	-195
ala	-196
hee	-197
chis	-198
▁gara	-199
▁miti	-200
ann	-201
gaa	-202
▁ee	-203
▁danda	-204
jii	-205
yyaa	-206
aadha	-207
▁itti	-208
▁gaarii	-209
aas	-210
all	-211
iyy	-212
▁fakkaat	-213
▁J	-214
uma	-215
▁fi	-216
▁qabu	-217
kol	-218
▁dur	-219
▁nama	-220
▁hunda	-221
tan	-222
amni	-223
▁ken	-224
eessa	-225
▁yaad	-226
▁beeku	-227
▁ishee	-228
▁baayee	-229
▁waliin	-230
ad	-231
ga	-232
▁O	-233
▁Q	-234
aari	-235
▁dha	-236
▁qof	-237
▁dandaa	-238
▁keessa	-239
qa	-240
ata	-241
tuu	-242
▁il	-243
amma	-244
▁Dhu	-245
▁isa	-246
onkol	-247
▁dhag	-248
if	-249
aalaa	-250
▁deeb	-251
▁Maari	-252
aab	-253
ate	-254
▁Ani	-255
▁tae	-256
▁dhuf	-257
▁akkas	-258
▁barbaachis	-259
▁Am	-260
▁fu	-261
ddaa	-262
▁him	-263
▁gaaf	-264
▁mana	-265
▁yaada	-266
▁gochuu	-267
ri	-268
ame	-269
dhu	-270
qaa	-271
▁In	-272
alaa	-273
▁gal	-274
oonni	-275
▁Akka	-276
▁naaf	-277
▁qofa	-278
▁irraa	-279
onkolaat	-280
og	-281
▁as	-282
chaa	-283
▁Kana	-284
▁akkan	-285
▁dandau	-286
▁jedheen	-287
▁keessaa	-288
re	-289
saa	-290
▁Ho	-291
▁Is	-292
▁ku	-293
▁ra	-294
▁beeka	-295
ark	-296
yee	-297
eeff	-298
▁Sun	-299
▁eeg	-300
▁ha	-301
▁of	-302
▁si	-303
aala	-304
anne	-305
▁nyaa	-306
▁qabda	-307
du	-308
▁u	-309
kan	-310
guma	-311
▁dhi	-312
▁mur	-313
▁keenya	-314
▁barbaadu	-315
▁dandeess	-316
ool	-317
▁taa	-318
ummaa	-319
▁guddaa	-320
▁baayyee	-321
▁keessan	-322
▁o	-323
ars	-324
atu	-325
▁Kun	-326
▁bir	-327
▁boo	-328
▁gamma	-329
▁ilaal	-330
ub	-331
▁i	-332
▁r	-333
duu	-334
eer	-335
ill	-336
iqq	-337
alee	-338
amaa	-339
irra	-340
▁gar	-341
▁mii	-342
annoo	-343
▁tauu	-344
▁qabna	-345
onkolaataa	-346
▁keessatti	-347
fii	-348
soo	-349
atii	-350
▁sun	-351
aanii	-352
▁jaall	-353
▁manaa	-354
▁mu	-355
adha	-356
faan	-357
llee	-358
phaa	-359
yaam	-360
▁dar	-361
yyaan	-362
▁Namni	-363
▁Maariyaam	-364
▁E	-365
▁nu	-366
▁so	-367
umaa	-368
umur	-369
▁bil	-370
▁haa	-371
▁sad	-372
▁irra	-373
▁rakk	-374
▁dhiis	-375
▁caalaa	-376
▁Dhuguma	-377
▁C	-378
dii	-379
iir	-380
kaa	-381
mii	-382
▁in	-383
▁wa	-384
iisa	-385
itaa	-386
▁dab	-387
▁guu	-388
▁dura	-389
▁isin	-390
▁siif	-391
▁Hojii	-392
▁akkam	-393
▁booda	-394
▁hundi	-395
▁jiraa	-396
▁fakkaata	-397
aq	-398
nu	-399
oof	-400
▁ji	-401
akka	-402
tiin	-403
▁daa	-404
▁gah	-405
▁hir	-406
alkan	-407
▁barr	-408
▁homaa	-409
si	-410
▁R	-411
aam	-412
aba	-413
ans	-414
arr	-415
chi	-416
naa	-417
▁Gu	-418
▁ab	-419
▁bi	-420
anga	-421
ataa	-422
▁sal	-423
▁garg	-424
aaatii	-425
achuun	-426
▁deebi	-427
▁hojii	-428
▁turre	-429
▁jaalla	-430
▁dandeeny	-431
ba	-432
st	-433
▁U	-434
▁X	-435
ani	-436
ina	-437
oor	-438
▁As	-439
▁Far	-440
▁Wal	-441
▁kaa	-442
aatii	-443
aayii	-444
dhaan	-445
▁Amma	-446
▁xiqq	-447
▁biraa	-448
▁deemuu	-449
▁isaanii	-450
go	-451
▁L	-452
▁P	-453
aff	-454
cha	-455
eef	-456
▁ti	-457
aata	-458
araa	-459
arra	-460
yaan	-461
iyyuu	-462
▁Mana	-463
▁godh	-464
▁sirr	-465
▁jirra	-466
▁Farans	-467
▁hojjechuu	-468
▁barbaachisa	-469
uk	-470
amu	-471
ban	-472
dda	-473
▁hi	-474
▁im	-475
amuu	-476
arii	-477
heen	-478
laqa	-479
▁Waa	-480
▁kam	-481
amaan	-482
▁hark	-483
▁taph	-484
yyaana	-485
▁Afaan	-486
▁qabdu	-487
▁Toomii	-488
▁guyyaa	-489
▁Maaliif	-490
▁dubbachuu	-491
▁tokkollee	-492
bil	-493
eet	-494
suu	-495
yam	-496
▁Nu	-497
aabb	-498
anti	-499
jjin	-500
▁mee	-501
anama	-502
iisaa	-503
▁aman	-504
▁darb	-505
▁fudh	-506
▁Akkas	-507
▁bakka	-508
▁kanaa	-509
▁sadii	-510
▁xumur	-511
▁Halkan	-512
▁jechuu	-513
▁wajjin	-514
▁jaallat	-515
▁barreess	-516
lf	-517
agg	-518
att	-519
iig	-520
ull	-521
▁bu	-522
▁fa	-523
aara	-524
anii	-525
bbol	-526
dhaa	-527
ogog	-528
wwan	-529
▁Boo	-530
▁Kan	-531
▁Mee	-532
▁Nam	-533
▁ani	-534
▁ati	-535
▁jet	-536
▁uff	-537
▁yoo	-538
aabur	-539
▁Inni	-540
▁dhab	-541
▁inni	-542
▁tola	-543
illeen	-544
▁garuu	-545
▁kenni	-546
▁namni	-547
▁sitti	-548
▁Yeroon	-549
▁hojjet	-550
▁salphaa	-551
▁Maariyam	-552
▁Faransaayii	-553
▁Konkolaataa	-554
af	-555
cc	-556
de	-557
fe	-558
▁p	-559
oph	-560
zii	-561
amee	-562
aree	-563
dduu	-564
isaa	-565
▁Amm	-566
▁bah	-567
▁bal	-568
▁goo	-569
▁gur	-570
▁mir	-571
▁mud	-572
▁qor	-573
▁waa	-574
allee	-575
arraa	-576
eeraa	-577
▁dhih	-578
▁guut	-579
▁kenn	-580
iifama	-581
▁deema	-582
▁eessa	-583
▁godhu	-584
▁jirta	-585
▁mitii	-586
▁Isheen	-587
▁bilbil	-588
▁baayeen	-589
▁gargaar	-590
▁saaatii	-591
▁fakkaatu	-592
▁dandeenye	-593
▁dandeessu	-594
▁jaalladha	-595
om	-596
pp	-597
ald	-598
alq	-599
jaa	-600
oru	-601
umm	-602
▁Ab	-603
▁Si	-604
aane	-605
aqii	-606
baan	-607
imma	-608
ston	-609
▁Ati	-610
▁Hun	-611
▁Jir	-612
▁Yaa	-613
▁cim	-614
▁hub	-615
eenyu	-616
eessi	-617
iyyaa	-618
jjiir	-619
▁Osoo	-620
▁dhug	-621
▁haar	-622
▁hime	-623
▁murt	-624
▁seen	-625
▁taee	-626
▁yaal	-627
▁yoom	-628
▁dhaab	-629
▁fudha	-630
▁muraa	-631
▁yaade	-632
▁asitti	-633
▁dhugaa	-634
▁gammach	-635
▁maaliif	-636
▁barbaaddaa	-637
▁konkolaataa	-638
as	-639
ib	-640
ja	-641
uf	-642
ati	-643
eny	-644
okk	-645
▁ga	-646
▁sh	-647
jiin	-648
▁Bal	-649
▁Dee	-650
▁Hir	-651
▁ban	-652
▁san	-653
aggaa	-654
tanii	-655
▁Baay	-656
▁Boru	-657
▁Eeny	-658
▁Gaaf	-659
▁Hara	-660
▁Nuti	-661
▁bars	-662
▁haww	-663
achuuf	-664
ameera	-665
araqaa	-666
eessuu	-667
▁Akkam	-668
▁Hundi	-669
▁Isaan	-670
▁Obbol	-671
▁darbe	-672
▁dhaga	-673
▁haala	-674
▁hanga	-675
▁qaban	-676
▁turte	-677
aqiiqaa	-678
▁Asitti	-679
▁hundaa	-680
▁jedhee	-681
▁kanaan	-682
▁sirrii	-683
▁dandaaa	-684
▁hojjetu	-685
▁muraasa	-686
es	-687
ul	-688
▁e	-689
amm	-690
dhe	-691
dur	-692
ine	-693
joo	-694
oob	-695
see	-696
yoo	-697
▁Ku	-698
▁ar	-699
aate	-700
adhe	-701
adhu	-702
anni	-703
attu	-704
diin	-705
ibaa	-706
icha	-707
inaa	-708
isuu	-709
kkub	-710
▁Yoo	-711
▁duu	-712
▁tau	-713
aatee	-714
achaa	-715
akkaa	-716
bbaan	-717
illee	-718
iniin	-719
ophaa	-720
▁Gara	-721
▁Sana	-722
▁baas	-723
▁fayy	-724
▁lama	-725
dheera	-726
eessaa	-727
ogoggo	-728
▁Kitaa	-729
▁Waaee	-730
▁eenyu	-731
▁malee	-732
▁taane	-733
iyyoota	-734
▁Baabur	-735
▁Guyyaa	-736
▁Maaloo	-737
▁dabars	-738
▁waanan	-739
▁dhiisuu	-740
▁hojjeta	-741
▁qilleen	-742
ax	-743
fa	-744
gg	-745
lm	-746
se	-747
uq	-748
faa	-749
nis	-750
sii	-751
uul	-752
▁Ji	-753
▁ag	-754
▁ba	-755
▁du	-756
▁er	-757
agaa	-758
aluu	-759
lmaa	-760
soon	-761
▁Dur	-762
▁War	-763
▁din	-764
▁gaa	-765
▁kol	-766
▁liq	-767
▁raa	-768
▁sag	-769
▁tol	-770
aalee	-771
isaan	-772
toota	-773
umsaa	-774
▁Barr	-775
▁Nama	-776
▁amma	-777
▁baaf	-778
▁bita	-779
▁dald	-780
▁dhii	-781
▁jalq	-782
▁miil	-783
▁osoo	-784
aatiin	-785
yyoota	-786
▁Ammas	-787
▁Hanga	-788
▁agars	-789
▁jirti	-790
▁kitaa	-791
▁nyaan	-792
▁sanaa	-793
adheera	-794
▁Abbaan	-795
▁dhaabb	-796
▁dhumaa	-797
▁fayyad	-798
▁kanaaf	-799
▁nyaata	-800
▁tilmaa	-801
▁Gaaffii	-802
▁ayyaana	-803
▁dheeraa	-804
▁ilaalaa	-805
▁jijjiir	-806
▁Maallaqa	-807
▁Namoonni	-808
▁barumsaa	-809
▁dandaama	-810
▁kamiyyuu	-811
▁barbaachisaa	-812
ix	-813
nk	-814
ok	-815
to	-816
uc	-817
dee	-818
edh	-819
gah	-820
gil	-821
imm	-822
ira	-823
isa	-824
ish	-825
uku	-826
▁Ar	-827
▁Bo	-828
▁if	-829
▁ka	-830
▁ob	-831
aall	-832
aatu	-833
aroo	-834
atan	-835
atee	-836
atte	-837
bala	-838
eesh	-839
ffaa	-840
iiru	-841
iree	-842
onni	-843
oolu	-844
teet	-845
tuun	-846
▁Daa	-847
▁Fii	-848
▁Tor	-849
▁Uff	-850
▁aan	-851
▁amm	-852
▁ana	-853
▁bee	-854
▁fur	-855
▁gab	-856
▁hii	-857
▁mar	-858
▁nam	-859
▁tor	-860
atiin	-861
attee	-862
ddaan	-863
eesse	-864
iqqoo	-865
umaan	-866
▁Tokk	-867
▁adda	-868
▁dhum	-869
▁eegg	-870
▁gonk	-871
▁kaff	-872
▁nuuf	-873
▁oolu	-874
eenyaa	-875
eettii	-876
▁Ingil	-877
▁Wanti	-878
▁afaan	-879
▁ammaa	-880
▁daaww	-881
▁gahaa	-882
▁jirtu	-883
▁karaa	-884
▁kutaa	-885
▁meeqa	-886
▁qabaa	-887
▁qabdi	-888
▁raaww	-889
▁sodaa	-890
▁wanti	-891
aleessa	-892
amaadha	-893
eettiin	-894
▁Ganama	-895
▁Qillee	-896
▁Torban	-897
▁argine	-898
▁dhagah	-899
▁guutuu	-900
▁haaraa	-901
▁jettee	-902
▁kootti	-903
▁lamaan	-904
▁qabdaa	-905
▁tokkon	-906
▁waggaa	-907
▁xiqqoo	-908
ogoggora	-909
ummaatti	-910
▁Ayyaana	-911
▁dhukkub	-912
▁gaariin	-913
▁ilaaluu	-914
▁jechuun	-915
▁Ammallee	-916
▁barbaade	-917
▁daldalaa	-918
▁dhiifama	-919
▁gonkumaa	-920
▁maallaqa	-921
▁manaatti	-922
▁tilmaama	-923
▁barsiisaa	-924
▁hojjechaa	-925
▁qilleensaa	-926
▁gammachiisa	-927
ek	-928
it	-929
ka	-930
su	-931
abb	-932
amb	-933
ang	-934
bba	-935
ite	-936
oma	-937
rra	-938
una	-939
uum	-940
uuz	-941
yya	-942
▁Aw	-943
▁Er	-944
▁Na	-945
▁he	-946
▁ib	-947
▁ol	-948
aama	-949
aati	-950
akki	-951
aman	-952
iise	-953
ilaa	-954
inii	-955
▁Gaa	-956
▁Jaa	-957
▁Mii	-958
▁Muc	-959
▁cuf	-960
▁dag	-961
▁fag	-962
▁foo	-963
▁gub	-964
▁kar	-965
▁mag	-966
▁mil	-967
▁qul	-968
▁raf	-969
▁suu	-970
▁ulf	-971
aanni	-972
aarri	-973
aarsa	-974
adhaa	-975
eenyi	-976
geeff	-977
kanaa	-978
ophii	-979
uuziq	-980
▁Garg	-981
▁Hark	-982
▁Ijoo	-983
▁Nyaa	-984
▁Rakk	-985
▁Seen	-986
▁ajaa	-987
▁bira	-988
▁ciis	-989
▁dinq	-990
▁gadh	-991
▁hamm	-992
▁hima	-993
▁kaba	-994
▁kudh	-995
▁lubb	-996
▁ofii	-997
▁roob	-998
▁ruku	-999
toonni	-1000
▁Tarii	-1001
▁Yaada	-1002
▁arguu	-1003
▁dabal	-1004
▁deemu	-1005
▁dhufe	-1006
▁eegaa	-1007
▁goone	-1008
▁jedhe	-1009
▁kenne	-1010
▁tauun	-1011
ilannoo	-1012
▁Carraa	-1013
▁Dhimma	-1014
▁Ingili	-1015
▁Walgah	-1016
▁beektu	-1017
▁ciniin	-1018
▁deebis	-1019
▁ganama	-1020
▁gurraa	-1021
▁jalqab	-1022
▁kunuun	-1023
▁rakkoo	-1024
▁taeera	-1025
▁yeroon	-1026
affisaan	-1027
▁Booston	-1028
▁Saaatii	-1029
▁akkamii	-1030
▁akkasii	-1031
▁beektaa	-1032
▁deebiuu	-1033
▁dhuguma	-1034
▁gaafate	-1035
▁gaaffii	-1036
▁waraqaa	-1037
▁Jireenyi	-1038
▁gargaara	-1039
▁hojjedha	-1040
▁mirkanaa	-1041
▁walakkaa	-1042
▁Akkamitti	-1043
▁Konkolaat	-1044
▁akkamitti	-1045
▁barbaadde	-1046
▁dandeenya	-1047
▁dhaggeeff	-1048
▁eeggannoo	-1049
▁gaariitti	-1050
▁hojjetame	-1051
▁jiraachuu	-1052
▁dandeessaa	-1053
▁barbaachisaadha	-1054
iy	-1055
lu	-1056
ze	-1057
aak	-1058
aga	-1059
bis	-1060
cci	-1061
cho	-1062
gor	-1063
iit	-1064
inj	-1065
kii	-1066
oot	-1067
qon	-1068
tir	-1069
too	-1070
ung	-1071
urx	-1072
uux	-1073
▁Ad	-1074
▁Du	-1075
▁Sh	-1076
▁So	-1077
▁af	-1078
▁bo	-1079
▁di	-1080
aann	-1081
aash	-1082
afee	-1083
alch	-1084
amne	-1085
amoo	-1086
anna	-1087
ichi	-1088
iisu	-1089
ilee	-1090
iyaa	-1091
iyya	-1092
lmii	-1093
orgo	-1094
ppaa	-1095
qull	-1096
umsa	-1097
uutu	-1098
▁Ach	-1099
▁Ato	-1100
▁Bar	-1101
▁Bee	-1102
▁Fur	-1103
▁Har	-1104
▁Maq	-1105
▁Sag	-1106
▁Sar	-1107
▁ach	-1108
▁ajj	-1109
▁cab	-1110
▁fuu	-1111
▁gor	-1112
▁haf	-1113
▁hat	-1114
▁lol	-1115
▁moo	-1116
▁oof	-1117
▁qoo	-1118
amboo	-1119
annaa	-1120
arkaa	-1121
attoo	-1122
ddoma	-1123
irraa	-1124
isiif	-1125
oddaa	-1126
oolis	-1127
▁Erga	-1128
▁argi	-1129
▁fiig	-1130
▁gadi	-1131
▁hidh	-1132
▁hund	-1133
▁kaas	-1134
▁meeq	-1135
▁saan	-1136
▁xuux	-1137
alayaa	-1138
aniiru	-1139
aroora	-1140
atinaa	-1141
baanne	-1142
ccitii	-1143
eessoo	-1144
ishaan	-1145
ulloom	-1146
▁Abbaa	-1147
▁Bakka	-1148
▁Eenyu	-1149
▁Haall	-1150
▁Harka	-1151
▁Innis	-1152
▁Meesh	-1153
▁bahuu	-1154
▁balaa	-1155
▁baree	-1156
▁bilch	-1157
▁deeme	-1158
▁durii	-1159
▁gahuu	-1160
▁gatii	-1161
▁godhe	-1162
▁haasa	-1163
▁harka	-1164
▁isaan	-1165
▁jiran	-1166
▁kabaj	-1167
▁miila	-1168
▁nagaa	-1169
▁salph	-1170
▁turan	-1171
▁turuu	-1172
eessuun	-1173
injaala	-1174
teettaa	-1175
▁Atobis	-1176
▁Boston	-1177
▁Dhugaa	-1178
▁Duraan	-1179
▁Kophaa	-1180
▁Maatii	-1181
▁Maqaan	-1182
▁Seenaa	-1183
▁Waanan	-1184
▁Xiqqoo	-1185
▁ajjees	-1186
▁beekuu	-1187
▁deebii	-1188
▁dhimma	-1189
▁dhiyoo	-1190
▁dhufuu	-1191
▁gammad	-1192
▁halkan	-1193
▁harkif	-1194
▁hedduu	-1195
▁kudhan	-1196
▁maaloo	-1197
▁maatii	-1198
▁mirkan	-1199
▁rakkis	-1200
▁taatee	-1201
▁torban	-1202
▁waliig	-1203
▁Kitaaba	-1204
▁Toomiin	-1205
▁balbala	-1206
▁deemuun	-1207
▁eenyutu	-1208
▁fudhata	-1209
▁gochuuf	-1210
▁lubbuun	-1211
▁qulqull	-1212
▁soddoma	-1213
▁tokkoof	-1214
▁tokkoon	-1215
isiifadha	-1216
▁Daqiiqaa	-1217
▁Dhiifama	-1218
▁Eenyuutu	-1219
▁Guyyoota	-1220
▁Isheenis	-1221
▁Jireenya	-1222
▁daqiiqaa	-1223
▁dubbanne	-1224
▁isinitti	-1225
▁kaleessa	-1226
▁murteess	-1227
▁sadarkaa	-1228
▁Gargaarsa	-1229
▁barbaadda	-1230
▁barbaanne	-1231
▁dabalataa	-1232
▁dandeenyu	-1233
▁dhagahama	-1234
▁sirriitti	-1235
▁taphachuu	-1236
▁Hiriyyoota	-1237
▁barbaadduu	-1238
▁Konkolaataan	-1239
▁guutummaatti	-1240
▁dinqisiifadha	-1241
gu	-1242
rd	-1243
sh	-1244
aaa	-1245
add	-1246
ali	-1247
asq	-1248
axx	-1249
eeq	-1250
ela	-1251
ima	-1252
imb	-1253
ise	-1254
jif	-1255
nee	-1256
okt	-1257
oni	-1258
qee	-1259
quu	-1260
uff	-1261
zex	-1262
▁Al	-1263
▁Bu	-1264
▁Ib	-1265
▁Je	-1266
▁Ma	-1267
▁Of	-1268
▁Ta	-1269
▁al	-1270
▁an	-1271
▁ij	-1272
▁la	-1273
aalu	-1274
aana	-1275
amii	-1276
atin	-1277
ddoo	-1278
edha	-1279
ffis	-1280
gala	-1281
idha	-1282
kiin	-1283
meen	-1284
oorf	-1285
poor	-1286
rdof	-1287
tiif	-1288
yyuu	-1289
▁Gal	-1290
▁Haa	-1291
▁Isa	-1292
▁Muk	-1293
▁Mur	-1294
▁Wan	-1295
▁ala	-1296
▁dii	-1297
▁erg	-1298
▁ifa	-1299
▁ija	-1300
▁kof	-1301
▁kom	-1302
▁kuf	-1303
▁mor	-1304
▁sab	-1305
▁sod	-1306
▁tuq	-1307
▁uum	-1308
▁war	-1309
▁xiq	-1310
aabaa	-1311
aaree	-1312
abbii	-1313
adhab	-1314
alaaf	-1315
alaas	-1316
aleen	-1317
allis	-1318
alluu	-1319
arsii	-1320
baata	-1321
edhii	-1322
eekii	-1323
eerii	-1324
eerra	-1325
eetii	-1326
iyaan	-1327
jjira	-1328
kkubb	-1329
oodha	-1330
oolii	-1331
oonii	-1332
orgom	-1333
ppaan	-1334
stoni	-1335
tanne	-1336
ummii	-1337
uulee	-1338
uuzii	-1339
▁Buna	-1340
▁Daan	-1341
▁Deeb	-1342
▁Deem	-1343
▁Dhug	-1344
▁Sirr	-1345
▁achi	-1346
▁adii	-1347
▁bara	-1348
▁buuf	-1349
▁daak	-1350
▁dhal	-1351
▁dool	-1352
▁edaa	-1353
▁eega	-1354
▁fufe	-1355
▁gama	-1356
▁goon	-1357
▁goww	-1358
▁hafe	-1359
▁hara	-1360
▁hiik	-1361
▁hirk	-1362
▁hirr	-1363
▁kaan	-1364
▁kolf	-1365
▁kuta	-1366
▁mala	-1367
▁masq	-1368
▁taaa	-1369
▁umur	-1370
▁waam	-1371
aachis	-1372
aasaaf	-1373
aatina	-1374
ateera	-1375
choota	-1376
iisuuf	-1377
qonnaa	-1378
▁Bakki	-1379
▁Haala	-1380
▁Maqaa	-1381
▁Osoon	-1382
▁Saree	-1383
▁Silaa	-1384
▁Tokko	-1385
▁Warri	-1386
▁amana	-1387
▁argam	-1388
▁caala	-1389
▁caalu	-1390
▁cimaa	-1391
▁daree	-1392
▁dhang	-1393
▁dhiph	-1394
▁dhufu	-1395
▁dhung	-1396
▁dogog	-1397
▁galat	-1398
▁garaa	-1399
▁godha	-1400
▁goote	-1401
▁iyyuu	-1402
▁jalaa	-1403
▁jibba	-1404
▁keeti	-1405
▁mataa	-1406
▁miira	-1407
▁nyaat	-1408
▁obsuu	-1409
▁osoon	-1410
▁qabnu	-1411
▁saree	-1412
▁warra	-1413
▁wayya	-1414
▁yaadu	-1415
aggeeff	-1416
amaatti	-1417
iyaanoo	-1418
iyyeeff	-1419
poortii	-1420
uuziqaa	-1421
▁Daakaa	-1422
▁Haalli	-1423
▁Nyaata	-1424
▁Uffata	-1425
▁abbaan	-1426
▁abdiin	-1427
▁amanuu	-1428
▁baabur	-1429
▁bahuun	-1430
▁beekne	-1431
▁dadhab	-1432
▁dhagae	-1433
▁dhufne	-1434
▁diimaa	-1435
▁hojiin	-1436
▁hojjen	-1437
▁hordof	-1438
▁kaffal	-1439
▁kennaa	-1440
▁kootii	-1441
▁maaltu	-1442
▁qophii	-1443
a	-1444
▁	-1445
i	-1446
e	-1447
n	-1448
u	-1449
o	-1450
t	-1451
r	-1452
h	-1453
d	-1454
k	-1455
s	-1456
m	-1457
b	-1458
l	-1459
f	-1460
g	-1461
y	-1462
j	-1463
q	-1464
c	-1465
w	-1466
T	-1467
A	-1468
M	-1469
K	-1470
D	-1471
H	-1472
S	-1473
B	-1474
W	-1475
p	-1476
x	-1477
I	-1478
G	-1479
Y	-1480
N	-1481
F	-1482
ʼ	-1483
J	-1484
O	-1485
Q	-1486
z	-1487
E	-1488
C	-1489
R	-1490
L	-1491
P	-1492
U	-1493
X	-1494
0	-1495
