<pad>	0
<unk>	0
<s>	0
</s>	0
▁t	-0
he	-1
▁a	-2
▁w	-3
ou	-4
▁I	-5
in	-6
re	-7
▁s	-8
is	-9
on	-10
▁to	-11
▁T	-12
ha	-13
▁d	-14
▁m	-15
▁c	-16
▁b	-17
ve	-18
▁the	-19
om	-20
an	-21
▁f	-22
ing	-23
▁y	-24
or	-25
ed	-26
▁you	-27
▁l	-28
ll	-29
it	-30
er	-31
▁is	-32
▁p	-33
▁ha	-34
▁n	-35
en	-36
ar	-37
▁g	-38
es	-39
as	-40
ot	-41
▁th	-42
at	-43
▁h	-44
▁o	-45
▁W	-46
▁Tom	-47
ow	-48
▁The	-49
et	-50
hat	-51
▁he	-52
▁in	-53
le	-54
▁do	-55
▁be	-56
ay	-57
im	-58
▁e	-59
▁Y	-60
▁an	-61
ld	-62
▁You	-63
▁H	-64
▁of	-65
▁on	-66
▁have	-67
id	-68
us	-69
▁me	-70
ke	-71
ver	-72
▁st	-73
ant	-74
▁re	-75
▁are	-76
▁S	-77
▁was	-78
▁we	-79
▁not	-80
▁go	-81
ic	-82
▁He	-83
▁want	-84
gh	-85
▁it	-86
▁this	-87
▁can	-88
▁We	-89
ad	-90
un	-91
▁k	-92
ion	-93
▁for	-94
ill	-95
▁don	-96
ch	-97
out	-98
ght	-99
os	-100
now	-101
▁li	-102
▁M	-103
▁It	-104
ly	-105
ri	-106
ent	-107
very	-108
al	-109
her	-110
▁know	-111
ter	-112
ould	-113
▁that	-114
▁your	-115
oo	-116
ome	-117
▁ne	-118
ro	-119
ac	-120
all	-121
▁She	-122
am	-123
▁did	-124
▁wor	-125
ith	-126
one	-127
▁sh	-128
▁will	-129
▁with	-130
hing	-131
se	-132
ain	-133
ink	-134
if	-135
▁and	-136
▁They	-137
ut	-138
ake	-139
▁at	-140
ct	-141
▁A	-142
▁my	-143
pe	-144
pp	-145
▁tim	-146
ak	-147
ook	-148
▁him	-149
▁work	-150
ir	-151
▁Th	-152
▁al	-153
▁out	-154
▁like	-155
▁se	-156
▁This	-157
▁what	-158
▁r	-159
▁su	-160
▁tr	-161
▁all	-162
ce	-163
ation	-164
ho	-165
ary	-166
▁as	-167
▁his	-168
▁think	-169
end	-170
ore	-171
our	-172
ust	-173
▁E	-174
▁very	-175
ble	-176
▁te	-177
ight	-178
▁her	-179
▁here	-180
od	-181
ast	-182
▁Mary	-183
▁didn	-184
▁L	-185
are	-186
han	-187
▁un	-188
il	-189
▁j	-190
ers	-191
ist	-192
▁fe	-193
ally	-194
▁one	-195
ur	-196
▁ag	-197
▁am	-198
▁so	-199
op	-200
ry	-201
est	-202
rom	-203
▁us	-204
▁should	-205
▁B	-206
ost	-207
ove	-208
▁pl	-209
here	-210
▁pro	-211
▁What	-212
▁time	-213
▁N	-214
ess	-215
▁ab	-216
▁com	-217
▁has	-218
other	-219
▁There	-220
ul	-221
▁P	-222
ate	-223
per	-224
▁any	-225
▁good	-226
▁read	-227
hy	-228
▁D	-229
ive	-230
res	-231
▁get	-232
▁had	-233
▁That	-234
▁does	-235
▁about	-236
ag	-237
qu	-238
ame	-239
art	-240
ind	-241
ong	-242
oun	-243
ree	-244
▁car	-245
▁con	-246
▁day	-247
▁from	-248
ep	-249
▁C	-250
▁wr	-251
ice	-252
▁le	-253
omet	-254
▁see	-255
ought	-256
▁need	-257
▁every	-258
ack	-259
▁ex	-260
ck	-261
up	-262
and	-263
ave	-264
hen	-265
ort	-266
ren	-267
▁if	-268
▁man	-269
▁going	-270
omething	-271
lp	-272
ol	-273
▁F	-274
alk	-275
ase	-276
▁our	-277
▁help	-278
▁home	-279
▁were	-280
▁could	-281
ie	-282
day	-283
row	-284
▁by	-285
ather	-286
▁look	-287
▁than	-288
fe	-289
ard	-290
ish	-291
ite	-292
▁im	-293
▁happ	-294
▁love	-295
▁really	-296
▁something	-297
red	-298
▁My	-299
▁Why	-300
▁int	-301
▁say	-302
etter	-303
hi	-304
ig	-305
lf	-306
pl	-307
ear	-308
thing	-309
▁care	-310
OR	-311
RR	-312
ts	-313
ine	-314
ose	-315
▁af	-316
▁ar	-317
▁cl	-318
▁sa	-319
RROR	-320
ends	-321
▁Let	-322
▁ask	-323
▁eat	-324
▁too	-325
▁who	-326
lease	-327
▁just	-328
▁take	-329
▁told	-330
▁ERROR	-331
▁br	-332
▁de	-333
▁qu	-334
▁sp	-335
▁up	-336
ouse	-337
▁bus	-338
▁been	-339
▁doesn	-340
▁house	-341
▁never	-342
em	-343
ra	-344
ade	-345
ick	-346
uch	-347
▁no	-348
▁but	-349
▁how	-350
▁come	-351
▁make	-352
▁much	-353
▁tell	-354
▁Where	-355
▁there	-356
▁thought	-357
st	-358
hed	-359
ide	-360
▁No	-361
▁bu	-362
blem	-363
▁fam	-364
▁spe	-365
▁only	-366
▁when	-367
▁problem	-368
ng	-369
ud	-370
orn	-371
urn	-372
▁ro	-373
▁sm	-374
akes	-375
fore	-376
leep	-377
oney	-378
▁Don	-379
▁fri	-380
▁imp	-381
▁lot	-382
orrow	-383
▁last	-384
▁made	-385
▁oper	-386
estion	-387
▁again	-388
▁timed	-389
▁would	-390
▁operation	-391
ft	-392
▁G	-393
get	-394
ily	-395
itt	-396
▁bl	-397
▁co	-398
▁pr	-399
▁tw	-400
ound	-401
ting	-402
▁old	-403
▁won	-404
oston	-405
rench	-406
▁back	-407
▁book	-408
▁many	-409
▁meet	-410
▁plan	-411
▁sure	-412
▁money	-413
▁night	-414
▁still	-415
▁thing	-416
▁three	-417
▁Boston	-418
▁French	-419
▁before	-420
ek	-421
iz	-422
um	-423
▁v	-424
ait	-425
eop	-426
ous	-427
▁pa	-428
▁sw	-429
able	-430
pect	-431
read	-432
ress	-433
self	-434
▁How	-435
▁Who	-436
▁und	-437
eople	-438
▁more	-439
▁some	-440
▁talk	-441
▁week	-442
▁sleep	-443
▁better	-444
▁father	-445
▁question	-446
cc	-447
el	-448
hr	-449
th	-450
ue	-451
ace	-452
ass	-453
ies	-454
iss	-455
mas	-456
oss	-457
pen	-458
▁bo	-459
ough	-460
ving	-461
▁Chr	-462
▁app	-463
▁dec	-464
▁eas	-465
▁got	-466
▁now	-467
▁tom	-468
▁way	-469
▁comp	-470
▁must	-471
▁part	-472
▁stay	-473
▁year	-474
istmas	-475
▁speak	-476
▁train	-477
▁tomorrow	-478
▁Christmas	-479
ci	-480
ug	-481
ach	-482
gry	-483
ity	-484
ock	-485
ved	-486
way	-487
▁dr	-488
▁gu	-489
▁jo	-490
▁ri	-491
hild	-492
ount	-493
▁ear	-494
▁few	-495
▁hun	-496
▁off	-497
▁she	-498
ready	-499
▁call	-500
▁days	-501
▁long	-502
▁morn	-503
▁play	-504
▁child	-505
▁other	-506
▁wants	-507
▁Please	-508
▁already	-509
▁friends	-510
▁morning	-511
ab	-512
be	-513
nd	-514
▁O	-515
age	-516
ber	-517
ted	-518
ven	-519
ves	-520
▁Do	-521
▁ad	-522
▁en	-523
▁gr	-524
▁la	-525
▁or	-526
atch	-527
inut	-528
ment	-529
ried	-530
▁bel	-531
▁des	-532
▁dis	-533
▁dog	-534
▁fun	-535
▁let	-536
▁new	-537
▁pre	-538
▁two	-539
ittle	-540
▁chan	-541
▁left	-542
▁open	-543
▁stud	-544
▁walk	-545
▁wish	-546
▁happy	-547
▁minut	-548
▁where	-549
▁expect	-550
▁family	-551
▁happen	-552
▁little	-553
▁wanted	-554
▁anything	-555
ap	-556
sw	-557
ty	-558
▁J	-559
mer	-560
▁If	-561
▁fl	-562
erst	-563
▁ago	-564
▁cho	-565
▁dri	-566
▁mar	-567
▁res	-568
▁str	-569
erson	-570
▁feel	-571
▁give	-572
▁over	-573
▁stop	-574
▁stor	-575
▁them	-576
▁wait	-577
▁went	-578
▁after	-579
▁belie	-580
▁drink	-581
▁today	-582
▁works	-583
erstand	-584
▁people	-585
▁person	-586
▁questions	-587
▁understand	-588
az	-589
ge	-590
ne	-591
ny	-592
te	-593
ail	-594
ark	-595
ect	-596
ell	-597
fic	-598
ful	-599
ied	-600
ife	-601
ood	-602
ool	-603
oor	-604
ork	-605
▁ke	-606
ated	-607
ways	-608
work	-609
▁All	-610
▁att	-611
▁bec	-612
▁che	-613
▁fin	-614
▁har	-615
▁mon	-616
▁run	-617
▁saw	-618
▁sit	-619
▁try	-620
aking	-621
▁Some	-622
▁answ	-623
▁door	-624
▁gave	-625
▁hand	-626
▁into	-627
▁room	-628
▁swim	-629
▁teac	-630
▁they	-631
▁well	-632
gether	-633
▁haven	-634
▁wrong	-635
▁always	-636
▁hungry	-637
▁looking	-638
▁meeting	-639
▁together	-640
ov	-641
pt	-642
wn	-643
ans	-644
ars	-645
aus	-646
ffe	-647
ict	-648
ign	-649
ire	-650
not	-651
ope	-652
ten	-653
til	-654
ull	-655
ult	-656
ater	-657
aybe	-658
ject	-659
pped	-660
▁His	-661
▁acc	-662
▁adv	-663
▁dif	-664
▁end	-665
▁job	-666
▁mat	-667
▁rem	-668
▁sch	-669
▁ton	-670
iness	-671
▁cont	-672
▁easy	-673
▁hard	-674
▁hour	-675
▁life	-676
▁miss	-677
▁name	-678
▁pain	-679
▁said	-680
▁seem	-681
▁sent	-682
▁turn	-683
ortant	-684
▁Maybe	-685
▁alone	-686
▁asked	-687
▁count	-688
▁heard	-689
▁paper	-690
▁right	-691
▁their	-692
▁until	-693
▁years	-694
▁bought	-695
▁couldn	-696
▁enough	-697
▁letter	-698
▁school	-699
▁things	-700
▁brother	-701
▁getting	-702
▁minutes	-703
▁student	-704
▁teacher	-705
▁tonight	-706
▁weather	-707
▁without	-708
▁important	-709
▁everything	-710
og	-711
xt	-712
any	-713
con	-714
ger	-715
hes	-716
hic	-717
ngl	-718
nts	-719
uck	-720
▁cr	-721
▁el	-722
▁fo	-723
▁sc	-724
cent	-725
ctor	-726
ence	-727
eres	-728
hich	-729
hile	-730
ince	-731
ired	-732
irty	-733
ised	-734
most	-735
orry	-736
osed	-737
owed	-738
ower	-739
raid	-740
reat	-741
▁big	-742
▁buy	-743
▁gir	-744
▁met	-745
▁mov	-746
▁pol	-747
▁son	-748
▁sur	-749
ember	-750
▁Engl	-751
▁Give	-752
▁When	-753
▁came	-754
▁conf	-755
▁done	-756
▁late	-757
▁lost	-758
▁mist	-759
▁pare	-760
▁same	-761
▁snow	-762
▁wind	-763
▁compl	-764
▁looks	-765
▁ready	-766
▁start	-767
▁table	-768
▁those	-769
▁while	-770
▁afraid	-771
▁almost	-772
▁answer	-773
▁anyone	-774
▁cannot	-775
▁doctor	-776
▁matter	-777
▁please	-778
▁believe	-779
▁nothing	-780
▁parents	-781
▁business	-782
ds	-783
lt	-784
no	-785
so	-786
act	-787
ash	-788
ced	-789
ces	-790
for	-791
ged	-792
ian	-793
ild	-794
ize	-795
med	-796
oth	-797
own	-798
ure	-799
▁Be	-800
▁gl	-801
▁sl	-802
▁ta	-803
ered	-804
ible	-805
irst	-806
ouch	-807
reak	-808
usic	-809
vers	-810
▁bed	-811
▁boy	-812
▁byt	-813
▁ele	-814
▁inv	-815
▁put	-816
▁ret	-817
▁ten	-818
▁use	-819
▁why	-820
▁yes	-821
▁yet	-822
aring	-823
bject	-824
ished	-825
ision	-826
isten	-827
ually	-828
▁also	-829
▁best	-830
▁busy	-831
▁cook	-832
▁down	-833
▁else	-834
▁fast	-835
▁felt	-836
▁girl	-837
▁head	-838
▁hope	-839
▁mind	-840
▁move	-841
▁next	-842
▁rain	-843
▁sick	-844
▁such	-845
▁tree	-846
▁writ	-847
ilding	-848
terday	-849
▁Every	-850
▁Which	-851
▁coffe	-852
▁guess	-853
▁knows	-854
▁makes	-855
▁music	-856
▁needs	-857
▁often	-858
▁older	-859
▁place	-860
▁story	-861
▁these	-862
▁touch	-863
▁around	-864
▁contin	-865
▁famous	-866
▁listen	-867
▁myself	-868
▁worked	-869
▁English	-870
▁another	-871
▁interes	-872
▁building	-873
▁children	-874
▁everyone	-875
▁expected	-876
▁remember	-877
gg	-878
ks	-879
vi	-880
der	-881
ert	-882
got	-883
ier	-884
inn	-885
les	-886
ned	-887
new	-888
oin	-889
oke	-890
ple	-891
▁ac	-892
▁ap	-893
▁aw	-894
▁ru	-895
▁wh	-896
agaz	-897
ance	-898
ator	-899
ause	-900
isit	-901
mmer	-902
port	-903
ries	-904
ully	-905
used	-906
▁beg	-907
▁bit	-908
▁box	-909
▁bro	-910
▁cat	-911
▁cle	-912
▁far	-913
▁key	-914
▁own	-915
▁sha	-916
▁sis	-917
▁sol	-918
▁sto	-919
▁war	-920
▁win	-921
ident	-922
inner	-923
ition	-924
onest	-925
▁expl	-926
▁foll	-927
▁food	-928
▁kind	-929
▁live	-930
▁mean	-931
▁once	-932
▁park	-933
▁pass	-934
▁real	-935
▁requ	-936
▁seen	-937
▁situ	-938
▁soon	-939
▁true	-940
▁used	-941
▁wife	-942
ficult	-943
▁Sorry	-944
▁agree	-945
▁black	-946
▁bring	-947
▁doing	-948
▁drive	-949
▁first	-950
▁funny	-951
▁great	-952
▁magaz	-953
▁month	-954
▁party	-955
▁seems	-956
▁short	-957
▁stand	-958
▁visit	-959
▁watch	-960
▁white	-961
▁young	-962
▁yours	-963
▁coffee	-964
▁compet	-965
▁mother	-966
▁sister	-967
▁thirty	-968
▁turned	-969
▁because	-970
▁company	-971
▁complet	-972
▁continu	-973
▁married	-974
▁someone	-975
▁stopped	-976
▁decision	-977
▁homework	-978
▁magazine	-979
▁yourself	-980
▁difficult	-981
▁situation	-982
▁yesterday	-983
av	-984
br	-985
cl	-986
co	-987
du	-988
ip	-989
ix	-990
oy	-991
pa	-992
▁R	-993
alt	-994
ath	-995
aut	-996
cre	-997
ens	-998
ets	-999
ike	-1000
ilk	-1001
ise	-1002
ont	-1003
oot	-1004
ote	-1005
ott	-1006
ray	-1007
rip	-1008
top	-1009
uit	-1010
uth	-1011
ype	-1012
▁ey	-1013
▁fr	-1014
▁lo	-1015
▁ph	-1016
▁ve	-1017
apan	-1018
avel	-1019
cept	-1020
cond	-1021
ding	-1022
fast	-1023
iano	-1024
iate	-1025
idea	-1026
iful	-1027
ison	-1028
noon	-1029
olog	-1030
ored	-1031
orre	-1032
ream	-1033
reci	-1034
reet	-1035
unch	-1036
upid	-1037
▁Any	-1038
▁One	-1039
▁act	-1040
▁art	-1041
▁bad	-1042
▁ban	-1043
▁bet	-1044
▁bir	-1045
▁cal	-1046
▁cha	-1047
▁dan	-1048
▁dep	-1049
▁dra	-1050
▁ent	-1051
▁hat	-1052
▁ins	-1053
▁may	-1054
▁pay	-1055
▁per	-1056
▁pop	-1057
▁ser	-1058
▁sim	-1059
▁sun	-1060
▁tem	-1061
ction	-1062
feren	-1063
fully	-1064
illed	-1065
othes	-1066
ughed	-1067
where	-1068
▁Look	-1069
▁None	-1070
▁Stop	-1071
▁Wait	-1072
▁coat	-1073
▁comm	-1074
▁doll	-1075
▁earn	-1076
▁even	-1077
▁find	-1078
▁fore	-1079
▁half	-1080
▁hate	-1081
▁hear	-1082
▁idea	-1083
▁keep	-1084
▁kiss	-1085
▁knew	-1086
▁lake	-1087
▁lock	-1088
▁milk	-1089
▁mine	-1090
▁news	-1091
▁pres	-1092
▁prom	-1093
▁rest	-1094
▁road	-1095
▁rule	-1096
▁sing	-1097
▁then	-1098
▁took	-1099
▁trip	-1100
▁wall	-1101
▁wasn	-1102
ations	-1103
ention	-1104
ertain	-1105
ressed	-1106
▁Japan	-1107
▁beaut	-1108
▁being	-1109
▁break	-1110
▁check	-1111
▁class	-1112
▁comes	-1113
▁early	-1114
▁fight	-1115
▁floor	-1116
▁found	-1117
▁heart	-1118
▁hours	-1119
▁immed	-1120
▁least	-1121
▁lives	-1122
▁moved	-1123
▁movie	-1124
▁piano	-1125
▁pract	-1126
▁quick	-1127
▁river	-1128
▁since	-1129
▁smell	-1130
▁truth	-1131
▁veget	-1132
▁write	-1133
▁wrote	-1134
reciate	-1135
▁People	-1136
▁apolog	-1137
▁chance	-1138
▁choice	-1139
▁danger	-1140
▁dinner	-1141
▁friend	-1142
▁having	-1143
▁honest	-1144
▁making	-1145
▁missed	-1146
▁object	-1147
▁office	-1148
▁police	-1149
▁prison	-1150
▁return	-1151
▁second	-1152
▁shower	-1153
▁spends	-1154
▁street	-1155
▁stupid	-1156
▁summer	-1157
▁travel	-1158
▁window	-1159
▁wonder	-1160
▁Someone	-1161
▁against	-1162
▁clothes	-1163
▁feeling	-1164
▁laughed	-1165
▁reading	-1166
▁usually	-1167
▁working	-1168
▁finished	-1169
▁followed	-1170
▁mistakes	-1171
▁problems	-1172
▁watching	-1173
▁afternoon	-1174
▁beautiful	-1175
▁carefully	-1176
▁immediate	-1177
▁appreciate	-1178
▁interested	-1179
00	-1180
ON	-1181
aj	-1182
bl	-1183
bo	-1184
dd	-1185
ia	-1186
ok	-1187
pr	-1188
ps	-1189
we	-1190
wy	-1191
zy	-1192
SON	-1193
adi	-1194
air	-1195
atc	-1196
att	-1197
avy	-1198
bab	-1199
bit	-1200
col	-1201
cri	-1202
cts	-1203
ded	-1204
ely	-1205
esc	-1206
ift	-1207
igh	-1208
kes	-1209
ody	-1210
ond	-1211
oof	-1212
ors	-1213
ory	-1214
ral	-1215
ual	-1216
ugh	-1217
umb	-1218
unk	-1219
uro	-1220
usb	-1221
use	-1222
wer	-1223
zen	-1224
▁At	-1225
▁To	-1226
▁ce	-1227
▁di	-1228
▁pe	-1229
▁pu	-1230
▁sk	-1231
Type	-1232
acts	-1233
aged	-1234
ajor	-1235
arch	-1236
ared	-1237
ason	-1238
atur	-1239
ball	-1240
cial	-1241
come	-1242
cret	-1243
dden	-1244
erve	-1245
ever	-1246
form	-1247
ined	-1248
ited	-1249
ived	-1250
ized	-1251
less	-1252
lves	-1253
ming	-1254
ning	-1255
oint	-1256
oman	-1257
pose	-1258
ross	-1259
tern	-1260
ucky	-1261
ught	-1262
ults	-1263
uter	-1264
ward	-1265
ying	-1266
▁Com	-1267
▁Her	-1268
▁Not	-1269
▁Now	-1270
▁Put	-1271
▁Rem	-1272
▁Sun	-1273
▁air	-1274
▁ate	-1275
▁col	-1276
▁cra	-1277
▁den	-1278
▁die	-1279
▁esc	-1280
▁fis	-1281
▁fix	-1282
▁fly	-1283
▁gas	-1284
▁hit	-1285
▁hot	-1286
▁hum	-1287
▁ign	-1288
▁inc	-1289
▁isn	-1290
▁leg	-1291
▁lie	-1292
▁opp	-1293
▁pen	-1294
▁ran	-1295
▁red	-1296
▁reg	-1297
▁rid	-1298
▁sat	-1299
▁ste	-1300
▁tax	-1301
▁tea	-1302
▁thr	-1303
▁top	-1304
▁uni	-1305
▁vac	-1306
ables	-1307
bably	-1308
ccess	-1309
clock	-1310
hanks	-1311
ience	-1312
itten	-1313
lling	-1314
meric	-1315
ortun	-1316
paper	-1317
ralia	-1318
uring	-1319
urope	-1320
▁Aust	-1321
▁Both	-1322
▁Each	-1323
▁Have	-1324
▁Here	-1325
▁JSON	-1326
▁Life	-1327
▁Take	-1328
▁arri	-1329
▁blue	-1330
▁born	-1331
▁both	-1332
▁calm	-1333
▁caus	-1334
▁cold	-1335
▁cons	-1336
▁crow	-1337
▁dark	-1338
▁died	-1339
▁dire	-1340
▁each	-1341
▁eyes	-1342
▁fail	-1343
▁fear	-1344
▁fell	-1345
▁four	-1346
▁free	-1347
▁game	-1348
▁gets	-1349
▁glad	-1350
▁gone	-1351
▁grow	-1352
▁hang	-1353
▁husb	-1354
▁lawy	-1355
▁mess	-1356
▁near	-1357
▁noon	-1358
▁paid	-1359
▁past	-1360
▁pict	-1361
▁poor	-1362
▁prof	-1363
▁prog	-1364
▁rece	-1365
▁ring	-1366
▁runs	-1367
▁safe	-1368
▁save	-1369
▁seat	-1370
▁smil	-1371
▁soft	-1372
▁star	-1373
▁sugg	-1374
▁tast	-1375
▁town	-1376
▁wear	-1377
▁wine	-1378
▁word	-1379
atched	-1380
earray	-1381
orrect	-1382
▁angry	-1383
▁broke	-1384
▁bytes	-1385
▁cares	-1386
▁catch	-1387
▁clean	-1388
▁close	-1389
▁cross	-1390
▁decid	-1391
▁eaten	-1392
▁heavy	-1393
▁later	-1394
▁laugh	-1395
▁leave	-1396
▁light	-1397
▁likes	-1398
▁loved	-1399
▁loves	-1400
▁lucky	-1401
▁lunch	-1402
▁major	-1403
▁paint	-1404
▁phone	-1405
▁plane	-1406
▁popul	-1407
▁small	-1408
▁smoke	-1409
▁spent	-1410
▁storm	-1411
▁stran	-1412
▁takes	-1413
▁tells	-1414
▁tried	-1415
▁trust	-1416
▁under	-1417
▁waste	-1418
▁water	-1419
▁whole	-1420
▁woman	-1421
▁world	-1422
▁worse	-1423
versity	-1424
▁Americ	-1425
▁Europe	-1426
▁Sunday	-1427
▁Thanks	-1428
▁became	-1429
▁borrow	-1430
▁called	-1431
▁change	-1432
▁chocol	-1433
▁coming	-1434
▁decide	-1435
▁denied	-1436
▁descri	-1437
▁drawer	-1438
▁easily	-1439
▁finish	-1440
▁forgot	-1441
▁handle	-1442
▁ignore	-1443
▁living	-1444
▁minute	-1445
▁movies	-1446
▁	-1447
e	-1448
o	-1449
t	-1450
a	-1451
n	-1452
i	-1453
s	-1454
h	-1455
r	-1456
l	-1457
d	-1458
u	-1459
m	-1460
y	-1461
w	-1462
c	-1463
g	-1464
I	-1465
f	-1466
p	-1467
k	-1468
b	-1469
T	-1470
v	-1471
'	-1472
W	-1473
Y	-1474
H	-1475
S	-1476
M	-1477
R	-1478
A	-1479
j	-1480
x	-1481
E	-1482
L	-1483
N	-1484
O	-1485
B	-1486
P	-1487
z	-1488
D	-1489
C	-1490
q	-1491
F	-1492
G	-1493
0	-1494
J	-1495
